FANN_FLO_2.1
num_layers=4
learning_rate=0.300000
connection_rate=1.000000
network_type=0
learning_momentum=0.500000
training_algorithm=2
train_error_function=0
train_stop_function=0
cascade_output_change_fraction=0.010000
quickprop_decay=-0.000100
quickprop_mu=1.750000
rprop_increase_factor=1.200000
rprop_decrease_factor=0.500000
rprop_delta_min=0.000000
rprop_delta_max=50.000000
rprop_delta_zero=0.100000
cascade_output_stagnation_epochs=12
cascade_candidate_change_fraction=0.010000
cascade_candidate_stagnation_epochs=12
cascade_max_out_epochs=150
cascade_min_out_epochs=50
cascade_max_cand_epochs=150
cascade_min_cand_epochs=50
cascade_num_candidate_groups=2
bit_fail_limit=3.49999994039535520000e-001
cascade_candidate_limit=1.00000000000000000000e+003
cascade_weight_multiplier=4.00000005960464480000e-001
cascade_activation_functions_count=10
cascade_activation_functions=3 5 7 8 10 11 14 15 16 17 
cascade_activation_steepnesses_count=4
cascade_activation_steepnesses=2.50000000000000000000e-001 5.00000000000000000000e-001 7.50000000000000000000e-001 1.00000000000000000000e+000 
layer_sizes=126 76 26 3 
scale_included=1
scale_mean_in=1.083196 0.027737 0.129998 -0.006785 0.197922 1.157848 0.064412 0.071432 -0.009667 0.205701 1.172363 0.078321 0.008698 -0.008756 0.205931 1.151168 0.068022 -0.031111 -0.007666 0.201047 1.099590 0.033571 -0.046726 -0.005290 0.195339 1.109618 0.024814 0.166681 -0.003409 0.207376 1.219555 0.047064 0.089251 -0.006326 0.222963 1.240736 0.040461 0.006859 -0.006931 0.221735 1.222268 0.054493 -0.049305 -0.004080 0.216416 1.134658 0.032404 -0.093407 -0.003261 0.200523 1.122094 0.006543 0.177948 -0.005020 0.205963 1.238179 0.006298 0.083902 -0.006863 0.224884 1.254730 0.005610 -0.001262 -0.006374 0.224651 1.239584 -0.000803 -0.051309 -0.005742 0.220958 1.147369 0.000685 -0.109630 -0.003228 0.204027 1.117190 -0.025641 0.170228 -0.002487 0.201780 1.229749 -0.042739 0.092054 -0.005578 0.218972 1.248482 -0.039553 0.002809 -0.007818 0.223539 1.226698 -0.043711 -0.051920 -0.008418 0.219541 1.138292 -0.027093 -0.094545 -0.004733 0.203082 1.090147 -0.029899 0.130754 -0.004918 0.193861 1.167014 -0.064761 0.071399 -0.005485 0.203359 1.179658 -0.072867 0.007092 -0.006313 0.207297 1.158925 -0.068169 -0.030048 -0.006614 0.204818 1.104917 -0.030178 -0.052079 -0.003677 0.197730 
scale_deviation_in=1.054653 0.913200 0.898025 0.493938 0.784438 1.046444 0.936443 0.953086 0.536557 0.795586 1.038196 0.931043 0.979304 0.544384 0.795866 1.043687 0.918600 0.959280 0.534435 0.788741 1.057605 0.880521 0.931362 0.505357 0.764674 1.048409 0.918278 0.916967 0.502835 0.797753 1.027877 0.963358 0.994644 0.554065 0.831593 1.012188 0.963142 1.031253 0.562067 0.835298 1.025275 0.955095 0.998192 0.559667 0.832288 1.049976 0.893847 0.946624 0.516763 0.779732 1.044718 0.930828 0.917976 0.508217 0.801658 1.017952 0.993345 0.994787 0.563031 0.836917 0.997020 0.984605 1.025895 0.564760 0.839280 1.012384 0.987490 0.996742 0.563555 0.840057 1.046888 0.906627 0.947504 0.524557 0.788300 1.049425 0.919692 0.920922 0.505460 0.802024 1.028410 0.967598 0.999627 0.563418 0.837287 1.008428 0.970097 1.034605 0.563232 0.840953 1.024085 0.953878 0.998162 0.567823 0.835131 1.052666 0.893265 0.947618 0.520460 0.789199 1.053401 0.911573 0.898865 0.498920 0.788784 1.042507 0.938099 0.954136 0.543477 0.797224 1.032464 0.937088 0.980664 0.543743 0.799492 1.044918 0.915902 0.958420 0.541882 0.792810 1.057370 0.879000 0.929280 0.514547 0.767648 
scale_new_min_in=-1.000000 -1.000000 -1.000000 -1.000000 -1.000000 -1.000000 -1.000000 -1.000000 -1.000000 -1.000000 -1.000000 -1.000000 -1.000000 -1.000000 -1.000000 -1.000000 -1.000000 -1.000000 -1.000000 -1.000000 -1.000000 -1.000000 -1.000000 -1.000000 -1.000000 -1.000000 -1.000000 -1.000000 -1.000000 -1.000000 -1.000000 -1.000000 -1.000000 -1.000000 -1.000000 -1.000000 -1.000000 -1.000000 -1.000000 -1.000000 -1.000000 -1.000000 -1.000000 -1.000000 -1.000000 -1.000000 -1.000000 -1.000000 -1.000000 -1.000000 -1.000000 -1.000000 -1.000000 -1.000000 -1.000000 -1.000000 -1.000000 -1.000000 -1.000000 -1.000000 -1.000000 -1.000000 -1.000000 -1.000000 -1.000000 -1.000000 -1.000000 -1.000000 -1.000000 -1.000000 -1.000000 -1.000000 -1.000000 -1.000000 -1.000000 -1.000000 -1.000000 -1.000000 -1.000000 -1.000000 -1.000000 -1.000000 -1.000000 -1.000000 -1.000000 -1.000000 -1.000000 -1.000000 -1.000000 -1.000000 -1.000000 -1.000000 -1.000000 -1.000000 -1.000000 -1.000000 -1.000000 -1.000000 -1.000000 -1.000000 -1.000000 -1.000000 -1.000000 -1.000000 -1.000000 -1.000000 -1.000000 -1.000000 -1.000000 -1.000000 -1.000000 -1.000000 -1.000000 -1.000000 -1.000000 -1.000000 -1.000000 -1.000000 -1.000000 -1.000000 -1.000000 -1.000000 -1.000000 -1.000000 -1.000000 
scale_factor_in=1.000000 1.000000 1.000000 1.000000 1.000000 1.000000 1.000000 1.000000 1.000000 1.000000 1.000000 1.000000 1.000000 1.000000 1.000000 1.000000 1.000000 1.000000 1.000000 1.000000 1.000000 1.000000 1.000000 1.000000 1.000000 1.000000 1.000000 1.000000 1.000000 1.000000 1.000000 1.000000 1.000000 1.000000 1.000000 1.000000 1.000000 1.000000 1.000000 1.000000 1.000000 1.000000 1.000000 1.000000 1.000000 1.000000 1.000000 1.000000 1.000000 1.000000 1.000000 1.000000 1.000000 1.000000 1.000000 1.000000 1.000000 1.000000 1.000000 1.000000 1.000000 1.000000 1.000000 1.000000 1.000000 1.000000 1.000000 1.000000 1.000000 1.000000 1.000000 1.000000 1.000000 1.000000 1.000000 1.000000 1.000000 1.000000 1.000000 1.000000 1.000000 1.000000 1.000000 1.000000 1.000000 1.000000 1.000000 1.000000 1.000000 1.000000 1.000000 1.000000 1.000000 1.000000 1.000000 1.000000 1.000000 1.000000 1.000000 1.000000 1.000000 1.000000 1.000000 1.000000 1.000000 1.000000 1.000000 1.000000 1.000000 1.000000 1.000000 1.000000 1.000000 1.000000 1.000000 1.000000 1.000000 1.000000 1.000000 1.000000 1.000000 1.000000 1.000000 1.000000 1.000000 
scale_mean_out=0.000975 0.038969 
scale_deviation_out=0.964156 1.174965 
scale_new_min_out=-1.000000 -1.000000 
scale_factor_out=1.000000 1.000000 
neurons (num_inputs, activation_function, activation_steepness)=(0, 0, 0.00000000000000000000e+000) (0, 0, 0.00000000000000000000e+000) (0, 0, 0.00000000000000000000e+000) (0, 0, 0.00000000000000000000e+000) (0, 0, 0.00000000000000000000e+000) (0, 0, 0.00000000000000000000e+000) (0, 0, 0.00000000000000000000e+000) (0, 0, 0.00000000000000000000e+000) (0, 0, 0.00000000000000000000e+000) (0, 0, 0.00000000000000000000e+000) (0, 0, 0.00000000000000000000e+000) (0, 0, 0.00000000000000000000e+000) (0, 0, 0.00000000000000000000e+000) (0, 0, 0.00000000000000000000e+000) (0, 0, 0.00000000000000000000e+000) (0, 0, 0.00000000000000000000e+000) (0, 0, 0.00000000000000000000e+000) (0, 0, 0.00000000000000000000e+000) (0, 0, 0.00000000000000000000e+000) (0, 0, 0.00000000000000000000e+000) (0, 0, 0.00000000000000000000e+000) (0, 0, 0.00000000000000000000e+000) (0, 0, 0.00000000000000000000e+000) (0, 0, 0.00000000000000000000e+000) (0, 0, 0.00000000000000000000e+000) (0, 0, 0.00000000000000000000e+000) (0, 0, 0.00000000000000000000e+000) (0, 0, 0.00000000000000000000e+000) (0, 0, 0.00000000000000000000e+000) (0, 0, 0.00000000000000000000e+000) (0, 0, 0.00000000000000000000e+000) (0, 0, 0.00000000000000000000e+000) (0, 0, 0.00000000000000000000e+000) (0, 0, 0.00000000000000000000e+000) (0, 0, 0.00000000000000000000e+000) (0, 0, 0.00000000000000000000e+000) (0, 0, 0.00000000000000000000e+000) (0, 0, 0.00000000000000000000e+000) (0, 0, 0.00000000000000000000e+000) (0, 0, 0.00000000000000000000e+000) (0, 0, 0.00000000000000000000e+000) (0, 0, 0.00000000000000000000e+000) (0, 0, 0.00000000000000000000e+000) (0, 0, 0.00000000000000000000e+000) (0, 0, 0.00000000000000000000e+000) (0, 0, 0.00000000000000000000e+000) (0, 0, 0.00000000000000000000e+000) (0, 0, 0.00000000000000000000e+000) (0, 0, 0.00000000000000000000e+000) (0, 0, 0.00000000000000000000e+000) (0, 0, 0.00000000000000000000e+000) (0, 0, 0.00000000000000000000e+000) (0, 0, 0.00000000000000000000e+000) (0, 0, 0.00000000000000000000e+000) (0, 0, 0.00000000000000000000e+000) (0, 0, 0.00000000000000000000e+000) (0, 0, 0.00000000000000000000e+000) (0, 0, 0.00000000000000000000e+000) (0, 0, 0.00000000000000000000e+000) (0, 0, 0.00000000000000000000e+000) (0, 0, 0.00000000000000000000e+000) (0, 0, 0.00000000000000000000e+000) (0, 0, 0.00000000000000000000e+000) (0, 0, 0.00000000000000000000e+000) (0, 0, 0.00000000000000000000e+000) (0, 0, 0.00000000000000000000e+000) (0, 0, 0.00000000000000000000e+000) (0, 0, 0.00000000000000000000e+000) (0, 0, 0.00000000000000000000e+000) (0, 0, 0.00000000000000000000e+000) (0, 0, 0.00000000000000000000e+000) (0, 0, 0.00000000000000000000e+000) (0, 0, 0.00000000000000000000e+000) (0, 0, 0.00000000000000000000e+000) (0, 0, 0.00000000000000000000e+000) (0, 0, 0.00000000000000000000e+000) (0, 0, 0.00000000000000000000e+000) (0, 0, 0.00000000000000000000e+000) (0, 0, 0.00000000000000000000e+000) (0, 0, 0.00000000000000000000e+000) (0, 0, 0.00000000000000000000e+000) (0, 0, 0.00000000000000000000e+000) (0, 0, 0.00000000000000000000e+000) (0, 0, 0.00000000000000000000e+000) (0, 0, 0.00000000000000000000e+000) (0, 0, 0.00000000000000000000e+000) (0, 0, 0.00000000000000000000e+000) (0, 0, 0.00000000000000000000e+000) (0, 0, 0.00000000000000000000e+000) (0, 0, 0.00000000000000000000e+000) (0, 0, 0.00000000000000000000e+000) (0, 0, 0.00000000000000000000e+000) (0, 0, 0.00000000000000000000e+000) (0, 0, 0.00000000000000000000e+000) (0, 0, 0.00000000000000000000e+000) (0, 0, 0.00000000000000000000e+000) (0, 0, 0.00000000000000000000e+000) (0, 0, 0.00000000000000000000e+000) (0, 0, 0.00000000000000000000e+000) (0, 0, 0.00000000000000000000e+000) (0, 0, 0.00000000000000000000e+000) (0, 0, 0.00000000000000000000e+000) (0, 0, 0.00000000000000000000e+000) (0, 0, 0.00000000000000000000e+000) (0, 0, 0.00000000000000000000e+000) (0, 0, 0.00000000000000000000e+000) (0, 0, 0.00000000000000000000e+000) (0, 0, 0.00000000000000000000e+000) (0, 0, 0.00000000000000000000e+000) (0, 0, 0.00000000000000000000e+000) (0, 0, 0.00000000000000000000e+000) (0, 0, 0.00000000000000000000e+000) (0, 0, 0.00000000000000000000e+000) (0, 0, 0.00000000000000000000e+000) (0, 0, 0.00000000000000000000e+000) (0, 0, 0.00000000000000000000e+000) (0, 0, 0.00000000000000000000e+000) (0, 0, 0.00000000000000000000e+000) (0, 0, 0.00000000000000000000e+000) (0, 0, 0.00000000000000000000e+000) (0, 0, 0.00000000000000000000e+000) (0, 0, 0.00000000000000000000e+000) (0, 0, 0.00000000000000000000e+000) (0, 0, 0.00000000000000000000e+000) (0, 0, 0.00000000000000000000e+000) (0, 0, 0.00000000000000000000e+000) (126, 5, 5.00000000000000000000e-001) (126, 5, 5.00000000000000000000e-001) (126, 5, 5.00000000000000000000e-001) (126, 5, 5.00000000000000000000e-001) (126, 5, 5.00000000000000000000e-001) (126, 5, 5.00000000000000000000e-001) (126, 5, 5.00000000000000000000e-001) (126, 5, 5.00000000000000000000e-001) (126, 5, 5.00000000000000000000e-001) (126, 5, 5.00000000000000000000e-001) (126, 5, 5.00000000000000000000e-001) (126, 5, 5.00000000000000000000e-001) (126, 5, 5.00000000000000000000e-001) (126, 5, 5.00000000000000000000e-001) (126, 5, 5.00000000000000000000e-001) (126, 5, 5.00000000000000000000e-001) (126, 5, 5.00000000000000000000e-001) (126, 5, 5.00000000000000000000e-001) (126, 5, 5.00000000000000000000e-001) (126, 5, 5.00000000000000000000e-001) (126, 5, 5.00000000000000000000e-001) (126, 5, 5.00000000000000000000e-001) (126, 5, 5.00000000000000000000e-001) (126, 5, 5.00000000000000000000e-001) (126, 5, 5.00000000000000000000e-001) (126, 5, 5.00000000000000000000e-001) (126, 5, 5.00000000000000000000e-001) (126, 5, 5.00000000000000000000e-001) (126, 5, 5.00000000000000000000e-001) (126, 5, 5.00000000000000000000e-001) (126, 5, 5.00000000000000000000e-001) (126, 5, 5.00000000000000000000e-001) (126, 5, 5.00000000000000000000e-001) (126, 5, 5.00000000000000000000e-001) (126, 5, 5.00000000000000000000e-001) (126, 5, 5.00000000000000000000e-001) (126, 5, 5.00000000000000000000e-001) (126, 5, 5.00000000000000000000e-001) (126, 5, 5.00000000000000000000e-001) (126, 5, 5.00000000000000000000e-001) (126, 5, 5.00000000000000000000e-001) (126, 5, 5.00000000000000000000e-001) (126, 5, 5.00000000000000000000e-001) (126, 5, 5.00000000000000000000e-001) (126, 5, 5.00000000000000000000e-001) (126, 5, 5.00000000000000000000e-001) (126, 5, 5.00000000000000000000e-001) (126, 5, 5.00000000000000000000e-001) (126, 5, 5.00000000000000000000e-001) (126, 5, 5.00000000000000000000e-001) (126, 5, 5.00000000000000000000e-001) (126, 5, 5.00000000000000000000e-001) (126, 5, 5.00000000000000000000e-001) (126, 5, 5.00000000000000000000e-001) (126, 5, 5.00000000000000000000e-001) (126, 5, 5.00000000000000000000e-001) (126, 5, 5.00000000000000000000e-001) (126, 5, 5.00000000000000000000e-001) (126, 5, 5.00000000000000000000e-001) (126, 5, 5.00000000000000000000e-001) (126, 5, 5.00000000000000000000e-001) (126, 5, 5.00000000000000000000e-001) (126, 5, 5.00000000000000000000e-001) (126, 5, 5.00000000000000000000e-001) (126, 5, 5.00000000000000000000e-001) (126, 5, 5.00000000000000000000e-001) (126, 5, 5.00000000000000000000e-001) (126, 5, 5.00000000000000000000e-001) (126, 5, 5.00000000000000000000e-001) (126, 5, 5.00000000000000000000e-001) (126, 5, 5.00000000000000000000e-001) (126, 5, 5.00000000000000000000e-001) (126, 5, 5.00000000000000000000e-001) (126, 5, 5.00000000000000000000e-001) (126, 5, 5.00000000000000000000e-001) (0, 5, 0.00000000000000000000e+000) (76, 5, 5.00000000000000000000e-001) (76, 5, 5.00000000000000000000e-001) (76, 5, 5.00000000000000000000e-001) (76, 5, 5.00000000000000000000e-001) (76, 5, 5.00000000000000000000e-001) (76, 5, 5.00000000000000000000e-001) (76, 5, 5.00000000000000000000e-001) (76, 5, 5.00000000000000000000e-001) (76, 5, 5.00000000000000000000e-001) (76, 5, 5.00000000000000000000e-001) (76, 5, 5.00000000000000000000e-001) (76, 5, 5.00000000000000000000e-001) (76, 5, 5.00000000000000000000e-001) (76, 5, 5.00000000000000000000e-001) (76, 5, 5.00000000000000000000e-001) (76, 5, 5.00000000000000000000e-001) (76, 5, 5.00000000000000000000e-001) (76, 5, 5.00000000000000000000e-001) (76, 5, 5.00000000000000000000e-001) (76, 5, 5.00000000000000000000e-001) (76, 5, 5.00000000000000000000e-001) (76, 5, 5.00000000000000000000e-001) (76, 5, 5.00000000000000000000e-001) (76, 5, 5.00000000000000000000e-001) (76, 5, 5.00000000000000000000e-001) (0, 5, 0.00000000000000000000e+000) (26, 0, 5.00000000000000000000e-001) (26, 0, 5.00000000000000000000e-001) (0, 0, 0.00000000000000000000e+000) 
connections (connected_to_neuron, weight)=(0, 3.56264770030975340000e-001) (1, 2.75194346904754640000e-001) (2, 9.01976764202117920000e-001) (3, -7.40598976612091060000e-001) (4, -6.49686634540557860000e-001) (5, 3.00591468811035160000e-001) (6, -1.03629195690155030000e+000) (7, -1.32199704647064210000e-001) (8, 1.17284798622131350000e+000) (9, -4.80281442403793330000e-001) (10, -4.37460958957672120000e-001) (11, 1.01156723499298100000e+000) (12, 2.75280565023422240000e-001) (13, 7.36521601676940920000e-001) (14, 7.15837001800537110000e-001) (15, -3.14706444740295410000e-001) (16, 1.02668814361095430000e-002) (17, 2.68521457910537720000e-002) (18, 7.19029486179351810000e-001) (19, 2.36327782273292540000e-001) (20, -3.63102614879608150000e-001) (21, 5.00654041767120360000e-001) (22, 1.89499422907829280000e-001) (23, -5.57033479213714600000e-001) (24, 1.43565639853477480000e-001) (25, -1.35342866182327270000e-001) (26, 9.35631021857261660000e-002) (27, -1.22700858116149900000e+000) (28, 3.67300868034362790000e-001) (29, 9.37426537275314330000e-002) (30, -1.85491895675659180000e+000) (31, 1.44442582130432130000e+000) (32, 5.68643391132354740000e-001) (33, -9.33267414569854740000e-001) (34, -3.02278816699981690000e-001) (35, -2.47753962874412540000e-001) (36, -2.41955533623695370000e-001) (37, -9.23628628253936770000e-001) (38, -3.27757954597473140000e+000) (39, -2.49714687466621400000e-001) (40, 4.24273237586021420000e-002) (41, -1.05997097492218020000e+000) (42, 1.39002168178558350000e+000) (43, -4.63938340544700620000e-002) (44, -5.93373656272888180000e-001) (45, 2.06118538975715640000e-001) (46, -6.50116145610809330000e-001) (47, 3.14248092472553250000e-002) (48, 1.08167421817779540000e+000) (49, 4.28100712597370150000e-002) (50, 3.48356366157531740000e-001) (51, -1.19876578450202940000e-001) (52, -1.93786531686782840000e-001) (53, -1.93491149693727490000e-002) (54, 7.06534683704376220000e-001) (55, 2.94042408466339110000e-001) (56, 1.43612658977508540000e+000) (57, 9.17914569377899170000e-001) (58, 1.56346201896667480000e-001) (59, -1.09243309497833250000e+000) (60, -7.38037452101707460000e-002) (61, 6.38883781433105470000e+001) (62, 2.95332407951354980000e+000) (63, -1.70597028732299800000e+000) (64, -4.71205562353134160000e-001) (65, -1.61300972104072570000e-001) (66, 1.15394067764282230000e+000) (67, 2.15897798538208010000e+000) (68, -5.11467576026916500000e-001) (69, -1.14207339286804200000e+000) (70, -1.14279896020889280000e-001) (71, 3.69082670658826830000e-004) (72, -3.58341187238693240000e-001) (73, 4.51390221714973450000e-002) (74, -1.93725883960723880000e-001) (75, 9.34307098388671880000e-001) (76, -6.59496724605560300000e-001) (77, 5.65945506095886230000e-001) (78, -5.28494060039520260000e-001) (79, 7.29688107967376710000e-001) (80, 3.95396649837493900000e-001) (81, 9.56215858459472660000e-001) (82, 3.88190925121307370000e-001) (83, 2.68246177583932880000e-002) (84, 4.73077863454818730000e-001) (85, -8.23262482881546020000e-002) (86, -9.63384732604026790000e-002) (87, 8.22056010365486150000e-002) (88, 2.17570853233337400000e+000) (89, -3.13401043415069580000e-001) (90, 7.65273511409759520000e-001) (91, 9.24919903278350830000e-001) (92, -1.45847097039222720000e-001) (93, 3.99015158414840700000e-001) (94, -1.99620559811592100000e-001) (95, 1.62213727831840520000e-001) (96, -9.38908755779266360000e-002) (97, -3.00238341093063350000e-001) (98, -9.92514193058013920000e-002) (99, 6.08062863349914550000e-001) (100, 7.68202394247055050000e-002) (101, 8.97410869598388670000e-001) (102, -7.75957405567169190000e-001) (103, 5.41001200675964360000e-001) (104, -7.32214510440826420000e-001) (105, 4.66210722923278810000e-001) (106, 6.42059266567230220000e-001) (107, -3.77255976200103760000e-002) (108, -3.30076605081558230000e-001) (109, -3.50833654403686520000e-001) (110, -3.45956802368164060000e-001) (111, 5.53073883056640630000e-001) (112, 4.47866201400756840000e-001) (113, -3.40330332517623900000e-001) (114, 1.73001676797866820000e-001) (115, -3.74260395765304570000e-002) (116, -1.13144648075103760000e+000) (117, 3.49648073315620420000e-002) (118, -1.29236593842506410000e-001) (119, -5.43874204158782960000e-001) (120, 3.65614205598831180000e-001) (121, 1.15032088756561280000e+000) (122, 9.49617251753807070000e-002) (123, 4.86530587077140810000e-002) (124, -1.07152059674263000000e-001) (125, 6.60011351108551030000e-001) (0, 2.01780652999877930000e+000) (1, 5.51563382148742680000e-001) (2, 2.02619180083274840000e-001) (3, -7.09732472896575930000e-001) (4, 1.25487625598907470000e+000) (5, 1.43385815620422360000e+000) (6, 3.55849325656890870000e-001) (7, 3.75672429800033570000e-001) (8, -5.22133335471153260000e-003) (9, 5.64692258834838870000e-001) (10, 6.18117928504943850000e-001) (11, 5.26836454868316650000e-001) (12, 3.56199383735656740000e-001) (13, -7.61414170265197750000e-001) (14, 2.89311647415161130000e-001) (15, 7.22525775432586670000e-001) (16, 3.16577583551406860000e-001) (17, -7.54508137702941890000e-001) (18, 6.36236369609832760000e-002) (19, 8.10931399464607240000e-002) (20, 5.72700142860412600000e-001) (21, -1.02371954917907710000e+000) (22, 1.46836176514625550000e-001) (23, -8.46386730670928960000e-001) (24, 5.86838126182556150000e-001) (25, 1.51719892024993900000e+000) (26, 7.51929521560668950000e-001) (27, 6.65244042873382570000e-001) (28, 2.01647356152534480000e-001) (29, 3.53153832256793980000e-002) (30, 9.62891936302185060000e-001) (31, 1.33813345432281490000e+000) (32, -3.60080897808074950000e-001) (33, 5.19948713481426240000e-002) (34, 6.18249317631125450000e-003) (35, 3.92561852931976320000e-001) (36, -5.93526005744934080000e-001) (37, 1.70450139045715330000e+000) (38, -1.77143573760986330000e+000) (39, 7.75909423828125000000e-002) (40, 3.51057410240173340000e-001) (41, 6.91547572612762450000e-001) (42, 6.49714589118957520000e-001) (43, -6.35501921176910400000e-001) (44, -6.86467066407203670000e-002) (45, 2.79229134321212770000e-001) (46, 1.07372760772705080000e-001) (47, 7.57707297801971440000e-001) (48, -1.38117396831512450000e+000) (49, 3.37574779987335210000e-001) (50, 1.67631638050079350000e+000) (51, -1.04101514816284180000e+000) (52, 2.05203324556350710000e-001) (53, 2.35412359237670900000e-001) (54, 1.71408772468566890000e-001) (55, -4.22126613557338710000e-003) (56, 4.10739153623580930000e-001) (57, -5.62769651412963870000e-001) (58, -9.30078029632568360000e-001) (59, -1.25275820493698120000e-001) (60, -2.04744581133127210000e-002) (61, -6.44104480743408200000e-001) (62, 1.03886485099792480000e+000) (63, -6.09880447387695310000e-001) (64, 9.64463174343109130000e-001) (65, 4.15254294872283940000e-001) (66, -2.27616667747497560000e-001) (67, -4.63826477527618410000e-001) (68, 2.07524895668029790000e-001) (69, -1.94180667400360110000e-001) (70, 1.54665887355804440000e-001) (71, -9.31856259703636170000e-002) (72, -5.03975391387939450000e-001) (73, 2.62672275304794310000e-001) (74, 1.78497016429901120000e-001) (75, 7.15403497219085690000e-001) (76, -3.62252533435821530000e-001) (77, 4.32169079780578610000e-001) (78, -1.00803112983703610000e+000) (79, -3.30512642860412600000e-001) (80, 3.44958841800689700000e-001) (81, 3.68041008710861210000e-001) (82, -1.08289980888366700000e+000) (83, -1.99543213844299320000e+000) (84, 6.00841283798217770000e-001) (85, -8.05606916546821590000e-002) (86, 5.31172215938568120000e-001) (87, 5.98707914352416990000e-001) (88, -9.24967586994171140000e-001) (89, 8.45336258411407470000e-001) (90, 4.61603924632072450000e-002) (91, -1.73227190971374510000e-001) (92, -1.01612627506256100000e-001) (93, -5.60037970542907710000e-001) (94, 6.22918128967285160000e-001) (95, -4.42577719688415530000e-001) (96, 5.53715109825134280000e-001) (97, 1.09775614738464360000e+000) (98, 1.76052898168563840000e-001) (99, 6.22110143303871150000e-002) (100, 2.10505199432373050000e+000) (101, 3.88436496257781980000e-001) (102, -7.93886721134185790000e-001) (103, 1.94615989923477170000e-001) (104, -3.17708671092987060000e-001) (105, 8.92133593559265140000e-001) (106, 9.30839776992797850000e-001) (107, -5.24063169956207280000e-001) (108, -1.43971562385559080000e+000) (109, 4.08721327781677250000e-001) (110, 4.98773828148841860000e-002) (111, 9.84041690826416020000e-002) (112, 9.81171905994415280000e-001) (113, -8.31018686294555660000e-001) (114, 8.45768392086029050000e-001) (115, 1.81532219052314760000e-001) (116, 1.22784599661827090000e-001) (117, -1.51239022612571720000e-001) (118, -1.20356559753417970000e+000) (119, 7.55465090274810790000e-001) (120, 1.38632878661155700000e-001) (121, -1.18274259567260740000e+000) (122, -2.50321835279464720000e-001) (123, -1.86805021762847900000e+000) (124, 8.39648187160491940000e-001) (125, 4.88273054361343380000e-001) (0, 4.59846735000610350000e-001) (1, 8.45434248447418210000e-001) (2, 1.25719618797302250000e+000) (3, -1.18453764915466310000e+000) (4, 1.48804774507880210000e-002) (5, 3.18601310253143310000e-001) (6, 2.68708080053329470000e-001) (7, -8.00577521324157710000e-001) (8, 2.65065360069274900000e+000) (9, -1.64117161184549330000e-002) (10, -1.28612831234931950000e-001) (11, 3.13203446567058560000e-002) (12, 2.11318880319595340000e-001) (13, 2.28630328178405760000e+000) (14, 5.31581819057464600000e-001) (15, 5.58649122714996340000e-001) (16, 8.31014633178710940000e-001) (17, 5.14142572879791260000e-001) (18, -1.19596648216247560000e+000) (19, 4.54536303877830510000e-002) (20, 3.75401258468627930000e-001) (21, 3.23879808187484740000e-001) (22, 7.38853752613067630000e-001) (23, 5.19742310047149660000e-001) (24, 2.78471559286117550000e-001) (25, 4.36928272247314450000e-001) (26, 9.70295906066894530000e-001) (27, -3.49806308746337890000e-001) (28, 7.56260395050048830000e-001) (29, 2.51122713088989260000e-001) (30, 7.62119531631469730000e-001) (31, -2.17449776828289030000e-002) (32, 1.42422974109649660000e+000) (33, -9.06709909439086910000e-001) (34, 5.41096508502960210000e-001) (35, 5.32801449298858640000e-001) (36, -9.21728983521461490000e-002) (37, 1.04588878154754640000e+000) (38, -2.24117851257324220000e+000) (39, -5.67992329597473140000e-001) (40, 2.56057095527648930000e+000) (41, 4.90766257047653200000e-001) (42, -3.96849930286407470000e-001) (43, 4.27008867263793950000e-001) (44, 1.57964721322059630000e-001) (45, 5.64517378807067870000e-001) (46, -9.17786121368408200000e-001) (47, -4.89682108163833620000e-001) (48, -1.37428715825080870000e-001) (49, -6.83988869190216060000e-001) (50, 4.00073021650314330000e-001) (51, -1.48832097649574280000e-001) (52, 1.01650798320770260000e+000) (53, 5.14009118080139160000e-001) (54, -6.79446876049041750000e-001) (55, 1.73047289252281190000e-001) (56, 4.03447896242141720000e-001) (57, -7.66819655895233150000e-001) (58, -9.03456866741180420000e-001) (59, -1.80958235263824460000e+000) (60, -1.76635360717773440000e+000) (61, -2.88486337661743160000e+000) (62, 5.68750905990600590000e+000) (63, 1.66920304298400880000e+000) (64, -4.58328306674957280000e-001) (65, -6.38887047767639160000e-001) (66, -4.98538541793823240000e+000) (67, 2.04820841550827030000e-001) (68, -8.28451395034790040000e-001) (69, -1.02091145515441890000e+000) (70, -5.58943569660186770000e-001) (71, 8.60313177108764650000e-001) (72, -8.43013346195220950000e-001) (73, -7.25245773792266850000e-001) (74, -3.58060330152511600000e-001) (75, 1.07083237171173100000e+000) (76, 1.99348092079162600000e+000) (77, -2.28435873985290530000e-001) (78, 6.56464874744415280000e-001) (79, -3.74579221010208130000e-001) (80, 1.34444475173950200000e-001) (81, 1.45430850982666020000e+000) (82, 2.39657536149024960000e-001) (83, 3.22878628969192500000e-001) (84, -1.63256156444549560000e+000) (85, -1.00954794883728030000e+000) (86, 2.37290477752685550000e+000) (87, 7.78890311717987060000e-001) (88, -8.26349437236785890000e-001) (89, -1.53946414589881900000e-001) (90, -2.76140451431274410000e+000) (91, 8.34669530391693120000e-001) (92, 4.51947033405303960000e-001) (93, -2.13000074028968810000e-001) (94, 4.64639067649841310000e-001) (95, 2.10969448089599610000e+000) (96, 3.81108820438385010000e-001) (97, 9.41415950655937190000e-002) (98, 1.45596310496330260000e-001) (99, 5.79581618309021000000e-001) (100, 6.68121099472045900000e-001) (101, -1.32939553260803220000e+000) (102, 1.08369922637939450000e+000) (103, -1.98056900501251220000e+000) (104, 1.66847157478332520000e+000) (105, 6.34148180484771730000e-001) (106, -4.24369364976882930000e-001) (107, -1.48324877023696900000e-001) (108, 1.39923989772796630000e+000) (109, -1.41470115631818770000e-002) (110, -1.31192064285278320000e+000) (111, 1.26264557242393490000e-001) (112, 5.92914342880249020000e-001) (113, 1.09331929683685300000e+000) (114, -6.68555557727813720000e-001) (115, -6.04270100593566890000e-001) (116, 7.09490537643432620000e-001) (117, 1.25764107704162600000e+000) (118, 1.24757480621337890000e+000) (119, -8.75246047973632810000e-001) (120, -8.30264747142791750000e-001) (121, -6.01481273770332340000e-002) (122, 2.16980546712875370000e-001) (123, -2.42728173732757570000e-001) (124, -4.37717080116271970000e-001) (125, 3.62106871604919430000e+000) (0, 1.14441156387329100000e+000) (1, -5.88897585868835450000e-001) (2, -1.76873159408569340000e+000) (3, -9.84755307435989380000e-002) (4, 4.47312176227569580000e-001) (5, 1.26287198066711430000e+000) (6, -5.60986101627349850000e-001) (7, 7.36635029315948490000e-002) (8, 7.54465222358703610000e-001) (9, -1.07938432693481450000e+000) (10, 9.04238075017929080000e-002) (11, 1.12521789968013760000e-001) (12, 5.75975954532623290000e-001) (13, -1.60542571544647220000e+000) (14, 1.38517928123474120000e+000) (15, -1.32860645651817320000e-001) (16, 2.13129281997680660000e+000) (17, -6.04270875453948970000e-001) (18, -2.88910925388336180000e-001) (19, -5.60382962226867680000e-001) (20, 1.70192793011665340000e-001) (21, 1.08805119991302490000e+000) (22, -1.16149711608886720000e+000) (23, 1.20067514479160310000e-001) (24, -9.21566188335418700000e-001) (25, 1.03225231170654300000e+000) (26, -5.01388370990753170000e-001) (27, 3.72973799705505370000e-001) (28, -9.55327749252319340000e-001) (29, 7.83888459205627440000e-001) (30, 1.51926088333129880000e+000) (31, -7.08150386810302730000e-001) (32, -1.42083084583282470000e+000) (33, -2.42490100860595700000e+000) (34, 1.63869604468345640000e-001) (35, 9.81155753135681150000e-001) (36, 2.76402607560157780000e-002) (37, -5.57549893856048580000e-001) (38, -1.16477167606353760000e+000) (39, -2.16498568654060360000e-001) (40, 4.34646531939506530000e-002) (41, 1.73307490348815920000e+000) (42, -4.55428250133991240000e-002) (43, -1.09933137893676760000e+000) (44, -5.64072906970977780000e-001) (45, 4.82531785964965820000e-001) (46, -1.18873786926269530000e+000) (47, 1.34509515762329100000e+000) (48, 5.71362376213073730000e-001) (49, 2.32786864042282100000e-001) (50, 9.23418998718261720000e-001) (51, -5.16434967517852780000e-001) (52, 6.59323453903198240000e-001) (53, -7.21352159976959230000e-001) (54, 6.58257305622100830000e-002) (55, 3.99581462144851680000e-001) (56, 9.20294940471649170000e-001) (57, -2.61641114950180050000e-001) (58, -1.91450679302215580000e+000) (59, -9.60405111312866210000e-001) (60, 1.15091307088732720000e-002) (61, -5.82271553575992580000e-002) (62, -1.93208682537078860000e+000) (63, -1.31157302856445310000e+000) (64, -2.43788647651672360000e+000) (65, -2.18778178095817570000e-001) (66, 1.25165641307830810000e+000) (67, -4.87912535667419430000e-001) (68, -1.42778050899505620000e+000) (69, -1.57699203491210940000e+000) (70, -1.06866903603076930000e-001) (71, -1.88895285129547120000e+000) (72, 4.65587258338928220000e-001) (73, 1.25653755664825440000e+000) (74, -1.34718120098114010000e+000) (75, 6.74146950244903560000e-001) (76, -7.86292970180511470000e-001) (77, -6.29961863160133360000e-002) (78, 1.06146365404129030000e-001) (79, -5.48225760459899900000e-001) (80, 9.61604714393615720000e-001) (81, 2.30576634407043460000e-001) (82, -5.06290555000305180000e-001) (83, -1.33223104476928710000e+000) (84, 2.65307754278182980000e-001) (85, 1.03102223947644230000e-002) (86, 7.26162552833557130000e-001) (87, 1.08275018632411960000e-001) (88, -4.80950444936752320000e-001) (89, 1.82179450988769530000e-001) (90, 1.95872694253921510000e-001) (91, 1.01326298713684080000e+000) (92, 4.90049481391906740000e-001) (93, -6.45925045013427730000e-001) (94, 3.72565299272537230000e-001) (95, 1.05594322085380550000e-001) (96, -1.29328095912933350000e+000) (97, -6.19834184646606450000e-001) (98, -3.16253244876861570000e-001) (99, 2.57317304611206050000e-001) (100, 8.97132873535156250000e-001) (101, 9.01449859142303470000e-001) (102, -2.00190752744674680000e-001) (103, -3.58789741992950440000e-001) (104, 5.26245117187500000000e-001) (105, 7.72216081619262700000e-001) (106, 8.98280665278434750000e-002) (107, -6.99505746364593510000e-001) (108, -9.93461072444915770000e-001) (109, 7.83357992768287660000e-002) (110, -1.12443178892135620000e-001) (111, 5.15372931957244870000e-001) (112, 4.74194169044494630000e-001) (113, -1.82161599397659300000e-001) (114, -8.37754905223846440000e-002) (115, -9.02961418032646180000e-002) (116, -6.95063889026641850000e-001) (117, -2.52476543188095090000e-001) (118, -1.45760023593902590000e+000) (119, -3.44877660274505620000e-001) (120, -9.19073671102523800000e-002) (121, -1.39923691749572750000e+000) (122, 8.65973651409149170000e-001) (123, -2.07769811153411870000e-001) (124, -7.82312631607055660000e-001) (125, -4.18584823608398440000e+000) (0, 3.24092626571655270000e-001) (1, -3.67425590753555300000e-001) (2, 1.85420334339141850000e-001) (3, 1.45564162731170650000e+000) (4, 5.25933384895324710000e-001) (5, 6.64625316858291630000e-002) (6, 1.58172690868377690000e+000) (7, -1.61038413643836980000e-001) (8, -1.86582773923873900000e-001) (9, 3.35583448410034180000e-001) (10, -2.94475227594375610000e-001) (11, 3.52075099945068360000e-001) (12, 2.61130750179290770000e-001) (13, 1.17392897605896000000e+000) (14, -4.31814700365066530000e-001) (15, -1.34831517934799190000e-001) (16, -7.33326002955436710000e-002) (17, -3.70584934949874880000e-001) (18, 1.15060412883758540000e+000) (19, 9.59604918956756590000e-001) (20, 2.53610938787460330000e-001) (21, -8.77710819244384770000e-001) (22, -4.26032274961471560000e-001) (23, -9.34119462966918950000e-001) (24, 1.31524217128753660000e+000) (25, 4.00069832801818850000e-001) (26, 2.11378002166748050000e+000) (27, 9.34057712554931640000e-001) (28, 8.27475264668464660000e-002) (29, 2.18289926648139950000e-001) (30, 3.32406520843505860000e-001) (31, -8.92368137836456300000e-001) (32, -4.03810709714889530000e-001) (33, 1.70601353049278260000e-001) (34, -3.01598846912384030000e-001) (35, -1.45587459206581120000e-001) (36, -8.29052999615669250000e-002) (37, 2.39599537849426270000e+000) (38, 1.02007031440734860000e+000) (39, -3.98384451866149900000e-001) (40, -1.67174428701400760000e-001) (41, -2.15364128351211550000e-001) (42, -2.49989151954650880000e-001) (43, 2.37036541104316710000e-001) (44, 2.43997633457183840000e-001) (45, 1.47158950567245480000e-001) (46, -3.75229090452194210000e-001) (47, -1.95638127624988560000e-002) (48, 7.86228179931640630000e-001) (49, 1.55409049987792970000e+000) (50, 5.11110186576843260000e-001) (51, 1.44688177108764650000e+000) (52, 1.42221957445144650000e-001) (53, 6.76263988018035890000e-001) (54, 3.24757695198059080000e-001) (55, 2.99607425928115840000e-001) (56, 1.29912972450256350000e+000) (57, -4.75590191781520840000e-002) (58, -1.15171718597412110000e+000) (59, -1.35995578765869140000e+000) (60, -1.17583602666854860000e-001) (61, 8.99492084980010990000e-001) (62, 4.47968912124633790000e+000) (63, -3.95869827270507810000e+000) (64, 1.18265718221664430000e-001) (65, 1.47636264562606810000e-001) (66, 3.88429045677185060000e-001) (67, 5.46027421951293950000e-002) (68, 9.72667312622070310000e+000) (69, 1.02366447448730470000e-001) (70, 1.32060095667839050000e-001) (71, -3.94158959388732910000e-001) (72, -1.53311693668365480000e+000) (73, 7.11200773715972900000e-001) (74, 6.54245793819427490000e-001) (75, 5.69359302520751950000e-001) (76, 7.86035299301147460000e-001) (77, 2.34474763274192810000e-001) (78, -2.37067297101020810000e-001) (79, 1.23729079961776730000e-001) (80, 5.48908710479736330000e-001) (81, -2.61987268924713130000e-001) (82, 3.22091221809387210000e-001) (83, -4.25193458795547490000e-001) (84, 7.25088596343994140000e-001) (85, -1.06737397611141200000e-001) (86, 9.41621184349060060000e-001) (87, 2.25691699981689450000e+000) (88, 6.60757255554199220000e+000) (89, 1.78285503387451170000e+000) (90, -9.38828065991401670000e-002) (91, -8.45657050609588620000e-001) (92, -2.08784985542297360000e+000) (93, 5.30624914169311520000e+000) (94, 9.22857165336608890000e-001) (95, 1.47505655884742740000e-001) (96, -2.19653889536857600000e-001) (97, -2.91225254535675050000e-001) (98, 1.54425728321075440000e+000) (99, -3.83478611707687380000e-001) (100, 2.51300454139709470000e-001) (101, 6.15506887435913090000e-001) (102, -3.01416188478469850000e-001) (103, 4.09360915422439580000e-001) (104, -4.49381679296493530000e-001) (105, 4.54581052064895630000e-001) (106, 1.79705992341041560000e-001) (107, 2.45532780885696410000e-001) (108, 2.97177284955978390000e-001) (109, 1.83750644326210020000e-001) (110, -2.34596773982048030000e-001) (111, -1.56609463691711430000e+000) (112, -6.48210525512695310000e-001) (113, 1.94920217990875240000e+000) (114, 1.34636306762695310000e+000) (115, 2.15515792369842530000e-001) (116, 1.09436941146850590000e+000) (117, 5.54179608821868900000e-001) (118, 8.31037461757659910000e-001) (119, 1.37879157066345210000e+000) (120, 1.70002251863479610000e-001) (121, -2.12578153610229490000e+000) (122, -4.67052776366472240000e-003) (123, -7.20323994755744930000e-002) (124, -1.02932080626487730000e-001) (125, 3.86377632617950440000e-001) (0, 1.02587509155273440000e+000) (1, -7.56259039044380190000e-002) (2, -3.21668446063995360000e-001) (3, -2.01539754867553710000e+000) (4, -2.26091638207435610000e-001) (5, 9.06414926052093510000e-001) (6, -4.20567691326141360000e-001) (7, 7.30152130126953130000e-001) (8, 1.66340756416320800000e+000) (9, -2.31812268495559690000e-001) (10, 1.30867362022399900000e+000) (11, 2.73428368568420410000e+000) (12, 2.25612235069274900000e+000) (13, 3.21234911680221560000e-001) (14, 6.70141518115997310000e-001) (15, 5.16850852966308590000e+000) (16, 1.88462948799133300000e+000) (17, -8.21868419647216800000e-001) (18, -2.22668468952178960000e-001) (19, -1.69527575373649600000e-001) (20, 2.47067427635192870000e+000) (21, 9.38069522380828860000e-001) (22, 5.04144012928009030000e-001) (23, -8.83389174938201900000e-001) (24, 1.19612582027912140000e-001) (25, 5.04609525203704830000e-001) (26, 2.09517502784729000000e+000) (27, -1.82037696242332460000e-001) (28, -3.69521051645278930000e-001) (29, 3.75489711761474610000e-001) (30, 2.23371729254722600000e-001) (31, -1.87246167659759520000e+000) (32, -3.59906524419784550000e-001) (33, 6.85183525085449220000e-001) (34, 5.10023608803749080000e-002) (35, 5.75171113014221190000e-001) (36, -1.10691595077514650000e+000) (37, 1.27466881275177000000e+000) (38, 8.94431054592132570000e-001) (39, -1.27117669582366940000e+000) (40, 1.27653408050537110000e+000) (41, 4.86092604696750640000e-002) (42, -3.30628126859664920000e-001) (43, -5.50707459449768070000e-001) (44, -5.02752006053924560000e-001) (45, 6.85637116432189940000e-001) (46, -1.18013940751552580000e-001) (47, -1.01997613906860350000e+000) (48, -3.72880876064300540000e-001) (49, -2.00152307748794560000e-001) (50, -5.70690110325813290000e-002) (51, 3.39504808187484740000e-001) (52, 6.40022933483123780000e-001) (53, -2.04092240333557130000e+000) (54, -1.42413794994354250000e+000) (55, -1.06053978204727170000e-001) (56, 4.31743294000625610000e-001) (57, 2.36632227897644040000e+000) (58, -6.31122291088104250000e-001) (59, 4.62389707565307620000e-001) (60, 3.21509093046188350000e-001) (61, -1.09172575175762180000e-001) (62, 6.91670560836791990000e+000) (63, 2.52147555351257320000e-001) (64, 7.81816661357879640000e-001) (65, 3.22021222114562990000e+000) (66, 1.55994129180908200000e+000) (67, 2.15123105049133300000e+000) (68, 1.77985772490501400000e-001) (69, -2.30661973357200620000e-001) (70, 3.90775203704833980000e+000) (71, 2.84810161590576170000e+000) (72, -1.24891948699951170000e+000) (73, 8.98927524685859680000e-002) (74, 1.93650707602500920000e-001) (75, -1.19571238756179810000e-001) (76, -1.35690701007843020000e+000) (77, -1.25771188735961910000e+000) (78, 3.77935349941253660000e-001) (79, 1.56005561351776120000e+000) (80, -2.00200423598289490000e-001) (81, -6.34677588939666750000e-001) (82, 9.66006442904472350000e-002) (83, 2.08127188682556150000e+000) (84, -2.17959042638540270000e-002) (85, 2.60594844818115230000e-001) (86, -3.77718031406402590000e-001) (87, 1.28938078880310060000e+000) (88, 5.05950164794921870000e+000) (89, 5.85244476795196530000e-001) (90, 1.34549844264984130000e+000) (91, -1.00983190536499020000e+000) (92, 1.19519066810607910000e+000) (93, 4.21476036310195920000e-001) (94, 5.52901268005371090000e-001) (95, 4.16207611560821530000e-001) (96, -1.83638966083526610000e+000) (97, 2.00977310538291930000e-001) (98, -3.06442528963088990000e-001) (99, -6.00388348102569580000e-001) (100, -1.58565610647201540000e-001) (101, 1.05692064762115480000e+000) (102, -5.90814411640167240000e-001) (103, 1.20423698425292970000e+000) (104, -6.13022148609161380000e-001) (105, -4.13763642311096190000e-001) (106, 1.68375587463378910000e+000) (107, -4.51573562622070310000e+000) (108, 9.19721126556396480000e-002) (109, 1.58217787742614750000e-001) (110, 4.01771157979965210000e-001) (111, 1.79071378707885740000e+000) (112, 1.70174634456634520000e+000) (113, 1.13686573505401610000e+000) (114, 1.90140461921691890000e+000) (115, 3.30188423395156860000e-001) (116, -2.16548323631286620000e+000) (117, 2.12416505813598630000e+000) (118, 9.23890843987464900000e-002) (119, -2.57196605205535890000e-001) (120, 8.86529207229614260000e-001) (121, 2.65306115150451660000e-001) (122, 1.26870679855346680000e+000) (123, 2.98913955688476560000e-001) (124, 1.01318848133087160000e+000) (125, -1.53894197940826420000e+000) (0, -2.49471828341484070000e-001) (1, 2.67054051160812380000e-001) (2, -7.25471138954162600000e-001) (3, -6.87886059284210210000e-001) (4, 2.52079695463180540000e-001) (5, -4.17238056659698490000e-001) (6, 3.02933752536773680000e-001) (7, -1.12057936191558840000e+000) (8, 9.90642309188842770000e-001) (9, 3.57242256402969360000e-001) (10, 2.80243813991546630000e-001) (11, 7.82317578792572020000e-001) (12, 2.66685634851455690000e-001) (13, 3.73372375965118410000e-001) (14, 3.27548086643218990000e-001) (15, 3.24565023183822630000e-001) (16, -5.47798216342926030000e-001) (17, -1.47577369213104250000e+000) (18, 2.21340373158454900000e-001) (19, -1.80527210235595700000e-001) (20, 4.01573836803436280000e-001) (21, 1.16355508565902710000e-001) (22, 4.24945175647735600000e-001) (23, 5.08606314659118650000e-001) (24, -1.37711152434349060000e-001) (25, -1.69839262962341310000e-001) (26, -3.86558681726455690000e-001) (27, -4.01429593563079830000e-001) (28, -1.30525469779968260000e+000) (29, -2.40767911076545720000e-001) (30, -3.17218095064163210000e-001) (31, -1.05662333965301510000e+000) (32, 5.06009310483932500000e-002) (33, -2.17300009727478030000e+000) (34, 7.22084224224090580000e-001) (35, 3.25284361839294430000e-001) (36, 8.48723948001861570000e-002) (37, -1.61767423152923580000e+000) (38, -4.73464220762252810000e-001) (39, 2.42712453007698060000e-001) (40, 1.44863963127136230000e-001) (41, 2.24809616804122920000e-001) (42, 1.78728714585304260000e-001) (43, -6.68662369251251220000e-001) (44, 1.44729495048522950000e-001) (45, 3.38041871786117550000e-001) (46, -3.61480474472045900000e-001) (47, 4.07193660736083980000e-001) (48, -4.20418649911880490000e-001) (49, -1.50923788547515870000e+000) (50, -3.15753132104873660000e-001) (51, 1.11893236637115480000e+000) (52, 9.12555456161499020000e-002) (53, 3.07248532772064210000e-001) (54, -3.68295043706893920000e-001) (55, -4.37128901481628420000e-001) (56, 4.93110924959182740000e-001) (57, -5.49465119838714600000e-002) (58, 7.20744609832763670000e-001) (59, 4.68142837285995480000e-001) (60, 2.41969168186187740000e-001) (61, 1.89558517932891850000e+000) (62, 4.03141927719116210000e+000) (63, -2.10940313339233400000e+000) (64, 7.57861852645874020000e-001) (65, 2.98580139875411990000e-001) (66, 2.00401353836059570000e+000) (67, 8.81346762180328370000e-002) (68, -1.04590368270874020000e+001) (69, 2.02856779098510740000e-001) (70, 2.80803352594375610000e-001) (71, -2.57735103368759160000e-002) (72, 1.12619504332542420000e-001) (73, 1.78372293710708620000e-001) (74, -4.80402439832687380000e-001) (75, -1.10902845859527590000e-001) (76, 3.25593084096908570000e-001) (77, -1.03855833411216740000e-001) (78, -7.44497358798980710000e-001) (79, -4.18579161167144780000e-001) (80, 7.46675431728363040000e-002) (81, 1.18701256811618800000e-001) (82, 1.32236146926879880000e+000) (83, -3.15041989088058470000e-002) (84, 7.74343013763427730000e-002) (85, 4.67164933681488040000e-001) (86, 1.37590026855468750000e+000) (87, -6.92272603511810300000e-001) (88, -2.53016376495361330000e+000) (89, 2.70758420228958130000e-001) (90, 4.19787496328353880000e-001) (91, -3.84789645671844480000e-001) (92, -6.66921377182006840000e-001) (93, -4.30276679992675780000e+000) (94, -8.19265604019165040000e-001) (95, -2.78265237808227540000e-001) (96, 5.05821764469146730000e-001) (97, 2.11796373128890990000e-001) (98, -1.30874410271644590000e-001) (99, -5.97725331783294680000e-001) (100, -3.63425821065902710000e-001) (101, -1.30980193614959720000e+000) (102, -1.32969439029693600000e-001) (103, 2.12897375226020810000e-001) (104, -1.48384913802146910000e-001) (105, -5.17503321170806880000e-001) (106, 5.82254409790039060000e-001) (107, 3.98738592863082890000e-001) (108, -8.06474149227142330000e-001) (109, 1.28361746668815610000e-001) (110, 3.44430476427078250000e-001) (111, -1.10941386222839360000e+000) (112, 4.85373109579086300000e-001) (113, -1.66375029087066650000e+000) (114, 3.36500346660614010000e-001) (115, 3.22519391775131230000e-001) (116, 1.82309955358505250000e-001) (117, -4.93782274425029750000e-002) (118, -5.92364788055419920000e-001) (119, 1.45195841789245610000e-001) (120, 3.47391009330749510000e-001) (121, -5.27722895145416260000e-001) (122, 3.04121881723403930000e-001) (123, 1.11823022365570070000e+000) (124, 8.74728441238403320000e-001) (125, 1.49270802736282350000e-001) (0, -6.77993237972259520000e-001) (1, 3.95779341459274290000e-001) (2, -8.31086814403533940000e-001) (3, -1.54361635446548460000e-001) (4, 4.71483051776885990000e-001) (5, -6.64043307304382320000e-001) (6, -5.55440902709960940000e+000) (7, 2.39125585556030270000e+000) (8, 1.57870888710021970000e+000) (9, -7.85318136215209960000e-001) (10, 2.54471432417631150000e-002) (11, 6.18142604827880860000e-001) (12, -1.28684008121490480000e+000) (13, 1.67773652076721190000e+000) (14, 1.38396799564361570000e+000) (15, 2.86713857203722000000e-002) (16, 1.55107930302619930000e-001) (17, 6.84999167919158940000e-001) (18, 1.11126148700714110000e+000) (19, 4.60819035768508910000e-001) (20, 1.18519477546215060000e-001) (21, 8.63799989223480220000e-001) (22, 2.28670910000801090000e-001) (23, 9.96916353702545170000e-001) (24, -2.81792610883712770000e-001) (25, -2.51414865255355830000e-001) (26, 3.27577084302902220000e-001) (27, -7.20461905002593990000e-002) (28, 1.02354109287261960000e+000) (29, 4.92790460586547850000e-001) (30, 2.77093052864074710000e-001) (31, 2.94574308395385740000e+000) (32, 7.80397117137908940000e-001) (33, -1.64380595088005070000e-001) (34, 5.26594340801239010000e-001) (35, 1.57029032707214360000e-001) (36, 1.37525355815887450000e+000) (37, 1.49667060375213620000e+000) (38, -7.78211534023284910000e-001) (39, 4.02347803115844730000e-001) (40, 1.73479571938514710000e-001) (41, 3.84818851947784420000e-001) (42, 6.28907442092895510000e-001) (43, 1.09852945804595950000e+000) (44, 5.61874032020568850000e-001) (45, -7.13990852236747740000e-002) (46, 3.05236726999282840000e-001) (47, -1.35030353069305420000e+000) (48, 2.54677557945251460000e+000) (49, 1.49761606007814410000e-002) (50, -6.00501716136932370000e-001) (51, -3.68651807308197020000e-001) (52, 1.60690259933471680000e+000) (53, -6.99246466159820560000e-001) (54, 5.28404891490936280000e-001) (55, -2.38298773765563960000e-001) (56, -1.39483034610748290000e+000) (57, 2.12185835838317870000e+000) (58, 8.53344738483428960000e-001) (59, -3.90163719654083250000e-001) (60, 6.42925202846527100000e-002) (61, -2.00866532325744630000e+000) (62, 1.41071307659149170000e+000) (63, 6.70186996459960940000e-001) (64, -5.91472566127777100000e-001) (65, 5.92941790819168090000e-002) (66, -7.73339211940765380000e-001) (67, -6.01074099540710450000e-001) (68, 1.94443494081497190000e-001) (69, -4.35103684663772580000e-001) (70, 6.69046677649021150000e-003) (71, 1.95216521620750430000e-001) (72, 1.67569303512573240000e+000) (73, -2.35082715749740600000e-001) (74, -1.34186744689941410000e+000) (75, -9.26186144351959230000e-001) (76, 3.24467271566390990000e-002) (77, -1.16047787666320800000e+000) (78, -4.88762915134429930000e-001) (79, -4.57007467746734620000e-001) (80, -9.67569589614868160000e-001) (81, -4.94068920612335210000e-001) (82, 4.47045773267745970000e-001) (83, -3.19079756736755370000e-001) (84, -3.62629383802413940000e-001) (85, 5.86044602096080780000e-002) (86, -4.14351582527160640000e-001) (87, -3.64500075578689580000e-001) (88, 5.09298667311668400000e-002) (89, 1.25057071447372440000e-001) (90, 7.13290870189666750000e-002) (91, -1.34431064128875730000e-001) (92, 3.81866723299026490000e-001) (93, -8.45034122467041020000e-001) (94, -4.86232608556747440000e-001) (95, -1.60260617733001710000e-001) (96, 2.90901660919189450000e-001) (97, -2.36133456230163570000e-001) (98, -1.75999447703361510000e-001) (99, 2.10034623742103580000e-001) (100, -5.63891291618347170000e-001) (101, -1.50819748640060420000e-001) (102, 5.53615614771842960000e-002) (103, -4.88093942403793330000e-001) (104, -9.97585415840148930000e-001) (105, -6.42712414264678960000e-001) (106, 7.33054518699646000000e-001) (107, -9.78000104427337650000e-001) (108, 3.60205590724945070000e-001) (109, -5.11090755462646480000e-001) (110, -1.38371903449296950000e-002) (111, 4.27471846342086790000e-001) (112, 3.45615088939666750000e-001) (113, -3.73272895812988280000e-001) (114, 6.46474212408065800000e-002) (115, -6.78980052471160890000e-002) (116, 6.92897558212280270000e-001) (117, -7.66073167324066160000e-001) (118, 1.63962793350219730000e+000) (119, -7.93101847171783450000e-001) (120, 1.12639054656028750000e-001) (121, 1.50424110889434810000e+000) (122, 3.42213779687881470000e-001) (123, 6.41723334789276120000e-001) (124, -1.99724152684211730000e-001) (125, 4.74022269248962400000e-001) (0, 9.75988030433654790000e-001) (1, 1.02587795257568360000e+000) (2, -1.53030693531036380000e+000) (3, -1.27977117896080020000e-001) (4, 3.12006682157516480000e-001) (5, 9.80068087577819820000e-001) (6, 2.97950297594070430000e-001) (7, 2.35450506210327150000e-001) (8, 7.52655327320098880000e-001) (9, 2.84594614058732990000e-002) (10, 4.21734422445297240000e-001) (11, -1.08832627534866330000e-001) (12, 1.50789904594421390000e+000) (13, -2.81747913360595700000e+000) (14, 2.14176982641220090000e-001) (15, 4.71383810043334960000e-001) (16, 1.28169488906860350000e+000) (17, -6.02451205253601070000e-001) (18, -3.04219913482666020000e+000) (19, 7.71056532859802250000e-001) (20, 3.38994473218917850000e-001) (21, 4.89601045846939090000e-002) (22, -9.98991653323173520000e-002) (23, -8.77570390701293950000e-001) (24, 9.60965380072593690000e-002) (25, 9.10369336605072020000e-001) (26, -1.36931180953979490000e+000) (27, -3.82654577493667600000e-001) (28, 1.02673228830099110000e-002) (29, -3.69307667016983030000e-001) (30, 3.65252077579498290000e-001) (31, -4.29642200469970700000e-001) (32, -1.68206608295440670000e+000) (33, 7.08669185638427730000e-001) (34, -2.77532577514648440000e-001) (35, 1.92375615239143370000e-001) (36, 1.50755763053894040000e-001) (37, 3.27980875968933110000e-001) (38, -4.19583272933959960000e+000) (39, 9.83195826411247250000e-002) (40, 9.17795896530151370000e-002) (41, -1.31331360340118410000e+000) (42, -2.87511467933654790000e-001) (43, -1.83454364538192750000e-001) (44, -3.44411656260490420000e-002) (45, 1.54423743486404420000e-001) (46, -1.49512672424316410000e+000) (47, 1.63186991214752200000e+000) (48, -2.14313134551048280000e-001) (49, 8.43038797378540040000e-001) (50, 1.31729710102081300000e+000) (51, -6.65338218212127690000e-001) (52, 1.66868343949317930000e-001) (53, 5.69418907165527340000e-001) (54, 3.84549736976623540000e-001) (55, 2.45306491851806640000e+000) (56, -1.22334718704223630000e+000) (57, -3.79883587360382080000e-001) (58, 4.27485942840576170000e-001) (59, -5.41726887226104740000e-001) (60, 4.40339624881744380000e-001) (61, 8.62326085567474370000e-001) (62, -2.75305819511413570000e+000) (63, -5.09539246559143070000e-001) (64, 2.38086223602294920000e-001) (65, 1.67030811309814450000e-001) (66, -2.66226440668106080000e-001) (67, -5.61091601848602290000e-001) (68, 5.99523782730102540000e-001) (69, 9.07777249813079830000e-001) (70, 3.54485839605331420000e-001) (71, -9.73163723945617680000e-001) (72, -1.16444849967956540000e+000) (73, 5.08697330951690670000e-001) (74, 2.55177879333496090000e+000) (75, 7.22516953945159910000e-001) (76, -1.05291640758514400000e+000) (77, -5.24998188018798830000e-001) (78, -7.92470514774322510000e-001) (79, -1.84842324256896970000e+000) (80, 5.48993706703186040000e-001) (81, 2.82837271690368650000e+000) (82, -1.00812852382659910000e+000) (83, -2.22683644294738770000e+000) (84, 7.12439954280853270000e-001) (85, 1.07021778821945190000e-001) (86, 9.37464356422424320000e-001) (87, 2.88191407918930050000e-001) (88, -4.04834794998168950000e+000) (89, 5.79612076282501220000e-001) (90, 2.42096334695816040000e-001) (91, 7.48669266700744630000e-001) (92, -1.91772127151489260000e+000) (93, -7.24584221839904790000e-001) (94, 4.25695985555648800000e-001) (95, 6.39173761010169980000e-002) (96, -9.59514379501342770000e-001) (97, 1.99590027332305910000e+000) (98, -2.15112745761871340000e-001) (99, -4.29800868034362790000e-001) (100, 7.58506059646606450000e-001) (101, 1.17175436019897460000e+000) (102, 1.40325963497161870000e+000) (103, -1.27565637230873110000e-001) (104, 9.92237150669097900000e-001) (105, 8.91234159469604490000e-001) (106, -2.43450307846069340000e+000) (107, -6.22859358787536620000e-001) (108, -7.84239113330841060000e-001) (109, 1.26004621386528020000e-001) (110, 4.01875048875808720000e-001) (111, 5.79973876476287840000e-001) (112, 7.62686908245086670000e-001) (113, -2.57214236259460450000e+000) (114, -1.74340546131134030000e-001) (115, 3.49003225564956670000e-001) (116, 1.02473378181457520000e+000) (117, -3.88750016689300540000e-001) (118, -8.85900080204010010000e-001) (119, 1.08931744098663330000e+000) (120, 1.16425298154354100000e-001) (121, -5.23604094982147220000e-001) (122, 7.69507110118865970000e-001) (123, -1.38378274440765380000e+000) (124, 1.14042794704437260000e+000) (125, -1.32495611906051640000e-001) (0, -9.72315490245819090000e-001) (1, 1.13779842853546140000e-001) (2, 3.78170341253280640000e-001) (3, -6.86201691627502440000e-001) (4, -3.75821650028228760000e-001) (5, -9.85741615295410160000e-001) (6, 9.54421535134315490000e-002) (7, -4.54256236553192140000e-001) (8, 6.89573407173156740000e-001) (9, -7.34694302082061770000e-001) (10, 4.25443872809410100000e-002) (11, 5.83465456962585450000e-001) (12, -5.81730961799621580000e-001) (13, 1.80289494991302490000e+000) (14, -5.08811056613922120000e-001) (15, -1.84421315789222720000e-001) (16, 6.76833391189575200000e-001) (17, 1.36691844463348390000e+000) (18, 1.19620405137538910000e-001) (19, 2.63982135802507400000e-002) (20, -2.82693445682525630000e-001) (21, 1.61161571741104130000e-001) (22, 9.06690396368503570000e-003) (23, 3.46617866307497020000e-003) (24, 8.44854593276977540000e-001) (25, -6.00955128669738770000e-001) (26, 5.32742500305175780000e-001) (27, 9.03298795223236080000e-001) (28, 1.44600138068199160000e-001) (29, -2.78508067131042480000e-001) (30, -6.41910254955291750000e-001) (31, 8.01075339317321780000e-001) (32, 5.87683558464050290000e-001) (33, -3.51933181285858150000e-001) (34, 9.52966272830963130000e-001) (35, 4.52890582382678990000e-002) (36, 5.23810327053070070000e-001) (37, 2.08237916231155400000e-001) (38, 1.64108371734619140000e+000) (39, -3.09293448925018310000e-001) (40, -2.25658684968948360000e-001) (41, 3.60133588314056400000e-001) (42, 4.31728541851043700000e-001) (43, -1.43735915422439580000e-001) (44, 2.07453519105911250000e-001) (45, -2.26165503263473510000e-001) (46, 1.35765004158020020000e+000) (47, 6.98368921875953670000e-002) (48, 2.12172985076904300000e+000) (49, -7.35133171081542970000e-001) (50, -9.64919269084930420000e-001) (51, -3.27486284077167510000e-002) (52, -3.67297649383544920000e-001) (53, 3.96805137395858760000e-001) (54, -1.49505361914634700000e-001) (55, -8.83418440818786620000e-001) (56, 1.12963521480560300000e+000) (57, 2.71552801132202150000e-001) (58, 4.71159428358078000000e-001) (59, 4.40677851438522340000e-001) (60, -8.59145820140838620000e-002) (61, 8.07878077030181880000e-001) (62, -3.35044026374816890000e-001) (63, 4.13413286209106450000e-001) (64, 6.47594258189201350000e-002) (65, -1.55192837119102480000e-001) (66, 2.73021280765533450000e-001) (67, -3.33584666252136230000e-001) (68, 6.27797171473503110000e-002) (69, 9.33951437473297120000e-001) (70, -4.58031445741653440000e-001) (71, 4.53256845474243160000e-001) (72, -1.02709934115409850000e-001) (73, 2.71941870450973510000e-001) (74, -4.09130543470382690000e-001) (75, -6.94214582443237300000e-001) (76, -6.98303818702697750000e-001) (77, 7.85297378897666930000e-002) (78, 5.74061512947082520000e-001) (79, -1.02107620239257810000e+000) (80, -6.13638043403625490000e-001) (81, -1.21140643954277040000e-001) (82, 6.84533044695854190000e-002) (83, 1.01348054409027100000e+000) (84, -5.29222726821899410000e-001) (85, 5.79865127801895140000e-002) (86, 2.53180295228958130000e-001) (87, -4.72211986780166630000e-001) (88, 1.52051222324371340000e+000) (89, -2.89804726839065550000e-001) (90, -1.81654337793588640000e-002) (91, 1.89834445714950560000e-001) (92, -2.19317898154258730000e-001) (93, -3.96367996931076050000e-001) (94, 7.99921810626983640000e-001) (95, -1.84807375073432920000e-001) (96, 4.44231539964675900000e-001) (97, -4.36578631401062010000e-001) (98, -1.48370474576950070000e-001) (99, -2.58879303932189940000e-001) (100, -8.48060965538024900000e-001) (101, 3.99294614791870120000e-001) (102, -3.03274810314178470000e-001) (103, 1.05683827400207520000e+000) (104, -6.34554982185363770000e-001) (105, -8.01198482513427730000e-001) (106, -8.26513648033142090000e-001) (107, -1.89136490225791930000e-001) (108, -9.30292844772338870000e-001) (109, -5.88909745216369630000e-001) (110, -9.02624279260635380000e-002) (111, 3.54962885379791260000e-001) (112, 2.58014015853405000000e-002) (113, 1.04884672164916990000e+000) (114, -2.36579209566116330000e-001) (115, -6.82748332619667050000e-002) (116, 6.19206845760345460000e-001) (117, 1.60300135612487790000e-001) (118, 9.37418580055236820000e-001) (119, -6.25763297080993650000e-001) (120, -3.54393184185028080000e-001) (121, 3.71192157268524170000e-001) (122, 3.70986968278884890000e-001) (123, 5.40861487388610840000e-001) (124, -4.52705472707748410000e-001) (125, -1.63563713431358340000e-001) (0, 9.53119933605194090000e-001) (1, -1.30895137786865230000e-001) (2, 4.00028526782989500000e-001) (3, -6.71515464782714840000e-001) (4, 9.15789842605590820000e-001) (5, 1.71971476078033450000e+000) (6, 1.49516329169273380000e-001) (7, 8.79605591297149660000e-001) (8, -2.10612964630126950000e+000) (9, -1.00129105150699620000e-001) (10, 6.11621499061584470000e-001) (11, 8.33379864692687990000e-001) (12, 1.10372340679168700000e+000) (13, -2.08577656745910640000e+000) (14, -2.34768822789192200000e-001) (15, -1.98423378169536590000e-002) (16, 2.09421422332525250000e-002) (17, -8.60565543174743650000e-001) (18, -1.42458140850067140000e+000) (19, -1.63094148039817810000e-001) (20, 2.84581512212753300000e-001) (21, -1.62481391429901120000e+000) (22, 1.73873275518417360000e-001) (23, -8.99337172508239750000e-001) (24, 1.14458441734313960000e+000) (25, 9.14829015731811520000e-001) (26, 5.53005754947662350000e-001) (27, 1.16357290744781490000e+000) (28, -1.76897928118705750000e-001) (29, 6.43328577280044560000e-002) (30, 9.00733709335327150000e-001) (31, 5.65746188163757320000e-001) (32, -6.39589875936508180000e-002) (33, 3.18871378898620610000e-001) (34, 2.24774971604347230000e-001) (35, 4.00181710720062260000e-001) (36, 9.11946058273315430000e-001) (37, 1.11863780021667480000e+000) (38, -4.19070214033126830000e-001) (39, 4.37100142240524290000e-001) (40, 4.70243006944656370000e-001) (41, -7.40443766117095950000e-001) (42, 6.69300079345703130000e-001) (43, -2.50190114974975590000e+000) (44, 1.84409618377685550000e-001) (45, -5.61986148357391360000e-001) (46, 5.33903419971466060000e-001) (47, 5.48891603946685790000e-001) (48, -1.50453960895538330000e+000) (49, 1.14861786365509030000e+000) (50, 6.99625253677368160000e-001) (51, -8.01356852054595950000e-001) (52, -3.24112027883529660000e-001) (53, 2.39631444215774540000e-001) (54, 1.09339392185211180000e+000) (55, 1.22296822071075440000e+000) (56, 3.81438523530960080000e-001) (57, -1.17755420506000520000e-001) (58, -6.86841487884521480000e-001) (59, 3.53043638169765470000e-002) (60, 7.24918723106384280000e-001) (61, 4.99424934387207030000e-001) (62, 6.18676364421844480000e-001) (63, 5.33264815807342530000e-001) (64, -2.31764428317546840000e-002) (65, 1.47483944892883300000e-001) (66, -1.13187432289123540000e+000) (67, -3.53050306439399720000e-002) (68, -1.65896549820899960000e-001) (69, 4.33961451053619380000e-002) (70, 3.91944348812103270000e-001) (71, 1.40108972787857060000e-001) (72, -3.74579429626464840000e-001) (73, 5.26596069335937500000e-001) (74, 3.98788124322891240000e-001) (75, 1.38956725597381590000e-001) (76, 1.00971364974975590000e+000) (77, 3.52635622024536130000e-001) (78, -4.50297564268112180000e-001) (79, 6.18762038648128510000e-002) (80, 2.90811181068420410000e-001) (81, 5.53317308425903320000e-001) (82, -1.86568852514028550000e-002) (83, -9.11599338054656980000e-001) (84, 6.46220684051513670000e-001) (85, 1.83561965823173520000e-001) (86, -2.33787856996059420000e-003) (87, 6.78387224674224850000e-001) (88, -7.58327543735504150000e-001) (89, 3.91265302896499630000e-001) (90, 2.92209200561046600000e-002) (91, 3.47681827843189240000e-002) (92, -1.97532281279563900000e-001) (93, -1.24302291870117190000e+000) (94, 5.35947918891906740000e-001) (95, 5.13780295848846440000e-001) (96, 5.87148368358612060000e-001) (97, 3.61635386943817140000e-001) (98, 2.90042728185653690000e-001) (99, 6.19984626770019530000e-001) (100, 1.14671719074249270000e+000) (101, -1.01555101573467250000e-001) (102, -8.31532478332519530000e-003) (103, -6.75090372562408450000e-001) (104, -1.53201818466186520000e-001) (105, 7.07065284252166750000e-001) (106, 1.13537728786468510000e+000) (107, 7.28419005870819090000e-001) (108, -1.25178134441375730000e+000) (109, 9.11072194576263430000e-001) (110, 6.24180376529693600000e-001) (111, -2.09254324436187740000e-001) (112, 1.81908452510833740000e+000) (113, -1.12297952175140380000e+000) (114, 2.70839691162109380000e-001) (115, 1.87755584716796880000e-001) (116, -7.32477545738220210000e-001) (117, -6.09276480972766880000e-002) (118, -1.48000490665435790000e+000) (119, 8.86460065841674800000e-001) (120, 4.72659736871719360000e-001) (121, -2.03965082764625550000e-001) (122, 1.82332411408424380000e-001) (123, -9.50236737728118900000e-001) (124, 8.07118356227874760000e-001) (125, -1.47559976577758790000e+000) (0, 7.56064206361770630000e-002) (1, 3.37543725967407230000e-001) (2, 1.89922308921813960000e+000) (3, -1.36087572574615480000e+000) (4, -4.05708365142345430000e-002) (5, 1.13855051994323730000e+000) (6, -4.75403308868408200000e-001) (7, 5.18311977386474610000e-001) (8, -4.24255400896072390000e-001) (9, 8.55331003665924070000e-001) (10, 1.06073796749114990000e-001) (11, -1.10864520072937010000e+000) (12, 4.42140936851501460000e-001) (13, 1.26009559631347660000e+000) (14, 5.69017410278320310000e-001) (15, 6.33732438087463380000e-001) (16, -9.42297875881195070000e-001) (17, -4.52196598052978520000e-001) (18, 9.04493570327758790000e-001) (19, 9.20437991619110110000e-001) (20, 1.08993566036224370000e+000) (21, -1.56355035305023190000e+000) (22, 4.19516324996948240000e-001) (23, -2.01315000653266910000e-001) (24, 1.56054902076721190000e+000) (25, 2.17400550842285160000e-001) (26, 1.34572967886924740000e-001) (27, -1.47032625973224640000e-002) (28, -1.40101563930511470000e+000) (29, 2.19204521179199220000e+000) (30, 3.10946047306060790000e-001) (31, -2.45978307723999020000e+000) (32, 2.28574204444885250000e+000) (33, 3.22792157530784610000e-002) (34, 6.33353829383850100000e-001) (35, 5.33351361751556400000e-001) (36, -2.77936482429504390000e+000) (37, -9.83979478478431700000e-002) (38, -2.39466691017150880000e+000) (39, 6.49301171302795410000e-001) (40, 6.41434192657470700000e-001) (41, -2.45575666427612300000e-001) (42, 4.53567445278167720000e-001) (43, -1.88375329971313480000e+000) (44, 7.35022246837615970000e-001) (45, -3.19816656410694120000e-002) (46, -1.82872807979583740000e+000) (47, 7.08054006099700930000e-001) (48, -2.50768876075744630000e+000) (49, -2.17304021120071410000e-001) (50, -4.41657416522502900000e-002) (51, -1.48292034864425660000e-001) (52, 2.16675806045532230000e+000) (53, -3.50309163331985470000e-001) (54, 1.71932780742645260000e+000) (55, 3.31154584884643550000e-001) (56, -2.25748372077941890000e+000) (57, 1.04078352451324460000e+000) (58, -2.85352110862731930000e-001) (59, 1.08040964603424070000e+000) (60, -7.46814236044883730000e-002) (61, -1.23516589403152470000e-001) (62, 1.27792441844940190000e+000) (63, 1.01159143447875980000e+000) (64, 2.15380334854125980000e+000) (65, -1.48918721824884410000e-002) (66, -7.13775902986526490000e-002) (67, 6.45194292068481450000e-001) (68, -9.50559794902801510000e-001) (69, 7.11801886558532710000e-001) (70, 1.24262973666191100000e-001) (71, 2.18750163912773130000e-001) (72, 1.81428655982017520000e-001) (73, -7.33208656311035160000e-002) (74, 1.36000275611877440000e+000) (75, 8.98542255163192750000e-002) (76, 6.71550869941711430000e-001) (77, -1.49888023734092710000e-001) (78, 2.37457656860351560000e+000) (79, 5.29509127140045170000e-001) (80, -1.87793806195259090000e-001) (81, 8.23158979415893550000e-001) (82, -1.31304830312728880000e-001) (83, 9.31411445140838620000e-001) (84, -1.48379290103912350000e+000) (85, 1.11977323889732360000e-001) (86, 1.78096580505371090000e+000) (87, 2.33416855335235600000e-001) (88, -2.32579517364501950000e+000) (89, -3.60195279121398930000e-001) (90, 3.26752930879592900000e-001) (91, 1.55154049396514890000e-001) (92, 9.30600464344024660000e-002) (93, -4.01317453384399410000e+000) (94, -5.32105147838592530000e-001) (95, 7.07911789417266850000e-001) (96, 5.75553059577941890000e-001) (97, 1.55912255868315700000e-002) (98, -2.49033898115158080000e-001) (99, -3.97715240716934200000e-001) (100, 1.59993737936019900000e-001) (101, 1.18265283107757570000e+000) (102, -1.61104649305343630000e-001) (103, -1.07777011394500730000e+000) (104, 3.87000322341918950000e-001) (105, 4.08113509416580200000e-001) (106, 2.49403089284896850000e-001) (107, -1.89547812938690190000e+000) (108, 3.16377669572830200000e-001) (109, 3.69559258222579960000e-001) (110, 5.96632659435272220000e-001) (111, 1.07331144809722900000e+000) (112, 3.56332585215568540000e-002) (113, -2.23338618874549870000e-001) (114, 4.12219539284706120000e-002) (115, 6.39323815703392030000e-002) (116, 1.86311766505241390000e-001) (117, 3.22335250675678250000e-002) (118, 1.94296467304229740000e+000) (119, 3.23755713179707530000e-003) (120, 1.36443033814430240000e-001) (121, 8.00456106662750240000e-001) (122, -2.23008170723915100000e-001) (123, -2.03180861473083500000e+000) (124, 7.13020324707031250000e-001) (125, -2.97577410936355590000e-001) (0, -7.94928550720214840000e-001) (1, 2.01883882284164430000e-001) (2, 4.50791299343109130000e-001) (3, 1.14742803573608400000e+000) (4, 2.32368618249893190000e-001) (5, -4.24298435449600220000e-001) (6, 9.95271623134613040000e-001) (7, -3.64628672599792480000e-001) (8, -2.03168034553527830000e+000) (9, 8.47706198692321780000e-001) (10, -2.45810002088546750000e-001) (11, -2.38133057951927190000e-001) (12, -3.36915999650955200000e-001) (13, -3.83383333683013920000e-001) (14, 5.70230185985565190000e-001) (15, 9.26988869905471800000e-002) (16, -1.31718575954437260000e+000) (17, 6.43918812274932860000e-001) (18, 4.16301012039184570000e-001) (19, 3.17964553833007810000e-001) (20, -2.43782609701156620000e-001) (21, -3.66484165191650390000e-001) (22, 9.41571593284606930000e-001) (23, 2.12164521217346190000e+000) (24, 2.79939204454422000000e-001) (25, -4.76513653993606570000e-001) (26, 8.41628313064575200000e-001) (27, -1.49499487876892090000e+000) (28, -6.06263399124145510000e-001) (29, 6.07431352138519290000e-001) (30, -9.87828910350799560000e-001) (31, -1.15510606765747070000e+000) (32, -9.62881803512573240000e-001) (33, -3.27875703573226930000e-001) (34, -4.33911889791488650000e-001) (35, 1.49775877594947810000e-001) (36, 1.03068578243255620000e+000) (37, 1.05113065242767330000e+000) (38, 1.20915484428405760000e+000) (39, -4.00356948375701900000e-001) (40, -2.72375047206878660000e-001) (41, 1.48912179470062260000e+000) (42, 9.72704112529754640000e-001) (43, -7.19111502170562740000e-001) (44, 8.04742276668548580000e-001) (45, 2.91840940713882450000e-001) (46, 6.32127881050109860000e-001) (47, 2.89739310741424560000e-001) (48, -1.50483107566833500000e+000) (49, -7.97744572162628170000e-001) (50, -4.01564747095108030000e-001) (51, 6.07794404029846190000e-001) (52, 8.73774111270904540000e-001) (53, 3.27425628900527950000e-001) (54, -4.53693538904190060000e-001) (55, -4.29361879825592040000e-001) (56, 2.42196083068847660000e+000) (57, 8.58709573745727540000e-001) (58, -4.27969217300415040000e-001) (59, 5.97005546092987060000e-001) (60, 1.77039012312889100000e-001) (61, -1.06188333034515380000e+000) (62, 6.20550680160522460000e+000) (63, 4.37556117773056030000e-001) (64, 8.65117073059082030000e-001) (65, 2.85151064395904540000e-001) (66, 9.31377291679382320000e-001) (67, -6.82157218456268310000e-001) (68, 3.50041612982749940000e-002) (69, 8.28240066766738890000e-002) (70, 3.23250055313110350000e-001) (71, -7.79223680496215820000e-001) (72, 5.37514090538024900000e-001) (73, 5.86217761039733890000e-001) (74, 5.13197839260101320000e-001) (75, -7.04019129276275630000e-001) (76, -6.69450044631958010000e-001) (77, -3.70266497135162350000e-001) (78, -2.11495608091354370000e-001) (79, 1.61424607038497920000e-001) (80, 1.22840844094753270000e-001) (81, 4.89519119262695310000e+000) (82, 8.31677466630935670000e-002) (83, 2.00711533427238460000e-001) (84, -3.30296601168811320000e-003) (85, 4.14938300848007200000e-001) (86, 8.38703572750091550000e-001) (87, 2.39955142140388490000e-001) (88, 1.41713201999664310000e+000) (89, 1.08064925670623780000e+000) (90, 2.46059799194335940000e+000) (91, 9.08976852893829350000e-001) (92, -1.77949830889701840000e-001) (93, 1.46430283784866330000e-001) (94, -1.03668355941772460000e+000) (95, 7.51486659049987790000e-001) (96, 1.28915667533874510000e-001) (97, -1.22953307628631590000e+000) (98, -5.72316408157348630000e-001) (99, 3.09529751539230350000e-001) (100, -2.16787993907928470000e-001) (101, -9.40583109855651860000e-001) (102, 1.46777868270874020000e+000) (103, -1.12324678897857670000e+000) (104, 8.26398372650146480000e-001) (105, 1.86648860573768620000e-001) (106, 6.10247910022735600000e-001) (107, 7.87546396255493160000e-001) (108, 9.34608280658721920000e-001) (109, 5.15866160392761230000e-001) (110, 3.02800565958023070000e-001) (111, -5.42080521583557130000e-001) (112, -2.45668888092041020000e+000) (113, 5.25943696498870850000e-001) (114, 6.26267731189727780000e-001) (115, -1.43102973699569700000e-001) (116, 1.42078205943107600000e-001) (117, -1.68175607919692990000e-001) (118, 2.44407105445861820000e+000) (119, 6.52182161808013920000e-001) (120, 2.04793497920036320000e-001) (121, -3.45175206661224370000e-001) (122, 7.63211548328399660000e-001) (123, 3.83426457643508910000e-001) (124, 1.17646968364715580000e+000) (125, 3.21617126464843750000e-001) (0, 5.06762206554412840000e-001) (1, -3.30970913171768190000e-001) (2, -1.12913715839385990000e+000) (3, -3.16119819879531860000e-001) (4, -3.93412411212921140000e-001) (5, 9.35394346714019780000e-001) (6, 1.40887272357940670000e+000) (7, 1.69566512107849120000e+000) (8, 9.14353847503662110000e-001) (9, -1.42585372924804690000e+000) (10, 1.30370128154754640000e+000) (11, 1.31834745407104490000e+000) (12, 1.69283628463745120000e-001) (13, 1.56083643436431880000e+000) (14, 1.99250686168670650000e+000) (15, 1.40137696266174320000e+000) (16, -3.09631800651550290000e+000) (17, 5.90289048850536350000e-002) (18, -3.08172345161437990000e-001) (19, 6.67582809925079350000e-001) (20, 2.05396279692649840000e-001) (21, 1.31923103332519530000e+000) (22, -2.04143190383911130000e+000) (23, -2.43224784731864930000e-001) (24, 2.33496632426977160000e-002) (25, -1.65296956896781920000e-001) (26, 8.81427288055419920000e-001) (27, 6.91363751888275150000e-001) (28, -1.16511011123657230000e+000) (29, 5.17686724662780760000e-001) (30, -7.48085916042327880000e-001) (31, -2.88192439079284670000e+000) (32, 2.71140813827514650000e-001) (33, 2.51201581954956050000e+000) (34, -3.62067162990570070000e-001) (35, 5.96497476100921630000e-001) (36, -7.36530721187591550000e-001) (37, 4.87189579010009770000e+000) (38, 6.81407403945922850000e+000) (39, 1.57930478453636170000e-001) (40, 1.04859437942504880000e+001) (41, 4.03966617584228520000e+000) (42, -1.00903606414794920000e+000) (43, 1.97506451606750490000e+000) (44, 1.54287421703338620000e+000) (45, -1.77148059010505680000e-001) (46, 6.04142427444458010000e-001) (47, 3.65915083885192870000e+000) (48, 5.48461496829986570000e-001) (49, 6.97843551635742190000e-001) (50, 1.20610404014587400000e+000) (51, 2.53186225891113280000e-001) (52, -2.23149943351745610000e+000) (53, 5.85207223892211910000e-001) (54, 3.55843424797058110000e-001) (55, 2.02345877885818480000e-001) (56, 7.71618425846099850000e-001) (57, -1.39953291416168210000e+000) (58, 2.55447030067443850000e+000) (59, 1.14991176128387450000e+000) (60, 1.13477373123168950000e+000) (61, -1.14075927734375000000e+001) (62, 1.63393783569335940000e+001) (63, 1.40425491333007810000e+001) (64, 1.85635399818420410000e+000) (65, 6.28074264526367190000e+000) (66, -5.89115083217620850000e-001) (67, -2.17293047904968260000e+000) (68, 1.26297295093536380000e+000) (69, 1.50832498073577880000e+000) (70, 2.84642070531845090000e-001) (71, 1.80567371845245360000e+000) (72, -3.22861343622207640000e-001) (73, 9.75437104701995850000e-001) (74, -9.07559469342231750000e-002) (75, -3.84400099515914920000e-001) (76, -9.25984323024749760000e-001) (77, 2.05639481544494630000e+000) (78, 1.32806551456451420000e+000) (79, 7.75256991386413570000e-001) (80, -3.52414160966873170000e-001) (81, 7.36546754837036130000e-001) (82, 1.15202724933624270000e+000) (83, 1.45338368415832520000e+000) (84, 5.84996521472930910000e-001) (85, -1.16023108363151550000e-001) (86, -2.51588791608810420000e-001) (87, 8.98489177227020260000e-001) (88, 2.26088976860046390000e+000) (89, -1.06941127777099610000e+000) (90, 1.22755098342895510000e+000) (91, 2.05109524726867680000e+000) (92, 3.19050788879394530000e+000) (93, 1.19347119331359860000e+000) (94, 6.28668367862701420000e-001) (95, -2.24198222160339360000e+000) (96, -1.26676404476165770000e+000) (97, 9.36730802059173580000e-001) (98, 1.04999434947967530000e+000) (99, 1.69405221939086910000e+000) (100, 3.26795101165771480000e-001) (101, -8.57191026210784910000e-001) (102, -7.51811981201171880000e-001) (103, 8.77899527549743650000e-001) (104, -1.66978740692138670000e+000) (105, 2.68774062395095830000e-001) (106, -2.23509955406188960000e+000) (107, 5.32937407493591310000e-001) (108, 7.89218366146087650000e-001) (109, 1.07876276969909670000e+000) (110, 1.31503307819366460000e+000) (111, -2.41385936737060550000e+000) (112, 4.28747558593750000000e+000) (113, -2.08746767044067380000e+000) (114, 1.16282010078430180000e+000) (115, 1.86797785758972170000e+000) (116, 8.95343422889709470000e-001) (117, 5.59135496616363530000e-001) (118, 4.34786140918731690000e-001) (119, -3.41227889060974120000e+000) (120, 5.07956027984619140000e-001) (121, 6.86060845851898190000e-001) (122, 9.58552658557891850000e-001) (123, 3.97252082824707030000e-001) (124, 3.69670057296752930000e+000) (125, 6.70315885543823240000e+000) (0, 6.75985634326934810000e-001) (1, 7.51905620098114010000e-001) (2, -3.72530817985534670000e-001) (3, 6.95016011595726010000e-002) (4, 6.06200098991394040000e-001) (5, 4.64035868644714360000e-001) (6, 1.19028186798095700000e+000) (7, -4.95825380086898800000e-001) (8, 8.26838672161102290000e-001) (9, -7.70519748330116270000e-002) (10, 5.86203336715698240000e-002) (11, 2.22384750843048100000e-001) (12, -1.72295022010803220000e+000) (13, -6.14938974380493160000e-001) (14, -5.57655096054077150000e-002) (15, -1.76952674984931950000e-001) (16, 1.10886478424072270000e+000) (17, 7.80408382415771480000e-001) (18, -5.13527631759643550000e-001) (19, 1.86236664652824400000e-001) (20, -2.00816422700881960000e-001) (21, -1.05741217732429500000e-001) (22, -6.33078336715698240000e-001) (23, 2.38508641719818120000e-001) (24, 4.24484796822071080000e-002) (25, 4.74603354930877690000e-001) (26, 4.86800700426101680000e-001) (27, -3.91250997781753540000e-001) (28, 8.26549530029296880000e-001) (29, 5.70037886500358580000e-002) (30, 1.83318987488746640000e-001) (31, -4.28841680288314820000e-001) (32, 1.36901110410690310000e-001) (33, 5.06852567195892330000e-001) (34, -2.56864160299301150000e-001) (35, -5.79197645187377930000e-001) (36, -5.45684695243835450000e-001) (37, -1.88421100378036500000e-001) (38, 9.33519840240478520000e-001) (39, -5.96923768520355220000e-001) (40, -5.55476367473602290000e-001) (41, -3.17109264433383940000e-002) (42, 3.80314290523529050000e-001) (43, 1.23126697540283200000e+000) (44, -6.93283081054687500000e-001) (45, -4.98905539512634280000e-001) (46, 3.17922502756118770000e-001) (47, 3.62090498208999630000e-001) (48, -6.40935242176055910000e-001) (49, 2.01428815722465520000e-001) (50, 3.71629804372787480000e-001) (51, -5.58197319507598880000e-001) (52, 1.11321032047271730000e+000) (53, 1.73575565218925480000e-001) (54, 5.30641436576843260000e-001) (55, 2.26811468601226810000e-001) (56, -2.08201497793197630000e-001) (57, 2.66719400882720950000e-001) (58, 2.58028358221054080000e-002) (59, 1.45567810535430910000e+000) (60, -4.91782277822494510000e-001) (61, -3.80609154701232910000e+000) (62, -3.05772602558135990000e-001) (63, 4.04411411285400390000e+000) (64, 1.31796505302190780000e-002) (65, -1.99436441063880920000e-001) (66, -1.89112138748168950000e+000) (67, 2.70986139774322510000e-001) (68, 2.23705153912305830000e-002) (69, -5.16126513481140140000e-001) (70, -2.03762441873550420000e-001) (71, -1.14060914516448970000e+000) (72, 8.94652783870697020000e-001) (73, 1.24524282291531560000e-002) (74, 6.53863310813903810000e-001) (75, 2.06151217222213750000e-001) (76, -1.24603569507598880000e-001) (77, -4.89555656909942630000e-001) (78, 1.72896653413772580000e-001) (79, 2.24195122718811040000e+000) (80, -8.99483919143676760000e-001) (81, 2.38810196518898010000e-001) (82, 6.13405764102935790000e-001) (83, 7.51518547534942630000e-001) (84, 9.83537435531616210000e-001) (85, -8.74896407127380370000e-001) (86, -2.93896347284317020000e-001) (87, 8.66781532764434810000e-001) (88, 1.55783307552337650000e+000) (89, -2.63512209057807920000e-002) (90, -9.12149488925933840000e-001) (91, 1.19218719005584720000e+000) (92, 3.47473382949829100000e+000) (93, -9.27726268768310550000e-001) (94, -3.26573222875595090000e-001) (95, -4.80382949113845830000e-001) (96, 1.03060472011566160000e+000) (97, 6.20848953723907470000e-001) (98, 1.70250788331031800000e-001) (99, 9.67292189598083500000e-002) (100, 5.14947772026062010000e-001) (101, -1.58001884818077090000e-001) (102, -7.62952446937561040000e-001) (103, 1.17089521884918210000e+000) (104, 9.07531678676605220000e-001) (105, 1.51068657636642460000e-001) (106, 1.02116811275482180000e+000) (107, -1.31713345646858220000e-001) (108, 3.64081263542175290000e-001) (109, 4.47025865316390990000e-001) (110, -2.41681799292564390000e-001) (111, 6.26079380512237550000e-001) (112, 3.88765156269073490000e-001) (113, -8.73952507972717290000e-001) (114, -4.65976983308792110000e-001) (115, -7.24353134632110600000e-001) (116, -5.34964382648468020000e-001) (117, 9.66470301151275630000e-001) (118, 1.06704783439636230000e+000) (119, 5.90697005391120910000e-002) (120, -4.55163806676864620000e-001) (121, 2.94218301773071290000e-001) (122, 1.23316800594329830000e+000) (123, 1.61688506603240970000e+000) (124, 2.22521945834159850000e-001) (125, 7.14046418666839600000e-001) (0, 2.66683578491210940000e-001) (1, -3.28095984458923340000e+000) (2, 6.00993752479553220000e-001) (3, 6.40463590621948240000e-001) (4, 3.16029608249664310000e-001) (5, 1.17271386086940770000e-001) (6, -1.92295277118682860000e+000) (7, 1.38551092147827150000e+000) (8, 7.68477499485015870000e-001) (9, 1.26325798034667970000e+000) (10, 1.05202369391918180000e-001) (11, 2.33734160661697390000e-001) (12, 1.39616131782531740000e+000) (13, 5.33744382858276370000e+000) (14, 6.35151803493499760000e-001) (15, 6.03180825710296630000e-002) (16, -3.46513181924819950000e-001) (17, 2.73950934410095210000e-001) (18, 1.01695396006107330000e-002) (19, 7.74909257888793950000e-001) (20, 7.71445214748382570000e-001) (21, -1.66226100921630860000e+000) (22, 2.47267961502075200000e-001) (23, -8.20007026195526120000e-001) (24, -1.57565569877624510000e+000) (25, -1.37313604354858400000e-001) (26, -3.65124911069870000000e-001) (27, -5.19740879535675050000e-001) (28, -5.90293288230896000000e-001) (29, 1.03929507732391360000e+000) (30, 8.58784541487693790000e-002) (31, 5.09226679801940920000e-001) (32, 7.28981569409370420000e-002) (33, -3.57679224014282230000e+000) (34, 7.75263905525207520000e-001) (35, 1.83398455381393430000e-001) (36, 9.09206628799438480000e-001) (37, -1.60535812377929690000e+000) (38, -9.25706863403320310000e+000) (39, 8.86304736137390140000e-001) (40, 5.12386718764901160000e-003) (41, -1.52427828311920170000e+000) (42, 5.09110116958618160000e+000) (43, -1.43068158626556400000e+000) (44, 3.95330846309661870000e-001) (45, 4.37816262245178220000e-001) (46, 5.18417477607727050000e-001) (47, 8.30554962158203130000e-001) (48, 7.02928423881530760000e-001) (49, -2.25542291998863220000e-001) (50, -9.64437127113342290000e-002) (51, 9.02869582176208500000e-001) (52, 3.99786233901977540000e+000) (53, -5.24572658538818360000e+000) (54, 1.31662833690643310000e+000) (55, -5.72561562061309810000e-001) (56, -3.66025042533874510000e+000) (57, -7.35988140106201170000e-001) (58, -1.00643129348754880000e+001) (59, -4.91886973381042480000e-001) (60, -4.21791784465312960000e-002) (61, -1.50000000000000000000e+003) (62, -1.58875870704650880000e+000) (63, -1.71797378540039060000e+002) (64, -2.27601110935211180000e-001) (65, 5.06741590797901150000e-002) (66, -2.46528029441833500000e+000) (67, 3.97255718708038330000e-001) (68, -3.75299215316772460000e-001) (69, -6.68858885765075680000e-002) (70, -1.33676826953887940000e-001) (71, 1.82153367996215820000e+000) (72, -2.02088522911071780000e+000) (73, 4.93041932582855220000e-001) (74, -2.86365389823913570000e-001) (75, -1.29540503025054930000e-001) (76, -7.45123028755187990000e-001) (77, -2.25702285766601560000e+000) (78, -3.91516000032424930000e-001) (79, -4.38623785972595210000e-001) (80, -7.63140916824340820000e-001) (81, 1.29397022724151610000e+000) (82, -5.07728815078735350000e-001) (83, 5.81453323364257810000e-001) (84, -2.61713051795959470000e+000) (85, -6.79583251476287840000e-001) (86, 5.11022901535034180000e+000) (87, -2.12835836410522460000e+000) (88, 6.39427721500396730000e-001) (89, -1.05917081236839290000e-002) (90, 5.45533709228038790000e-002) (91, -2.26757860183715820000e+000) (92, 9.57036986947059630000e-002) (93, -1.07236206531524660000e-001) (94, 1.39390778541564940000e+000) (95, -2.64206266403198240000e+000) (96, -1.27372717857360840000e+000) (97, -1.31790444254875180000e-001) (98, -7.42577537894248960000e-002) (99, -4.51703500747680660000e+000) (100, -2.67715245485305790000e-001) (101, 5.84546804428100590000e-001) (102, 7.24177658557891850000e-002) (103, -4.62254476547241210000e+000) (104, -9.57082509994506840000e-001) (105, 1.15493754856288430000e-003) (106, -2.41009521484375000000e+000) (107, 2.42835807800292970000e+000) (108, 6.53694570064544680000e-001) (109, -8.70147347450256350000e-001) (110, -2.56352927535772320000e-002) (111, -3.79117548465728760000e-001) (112, -6.97628200054168700000e-001) (113, -2.15674185752868650000e+000) (114, -1.39553523063659670000e+000) (115, -8.88635069131851200000e-002) (116, -1.04790329933166500000e+000) (117, -1.68196201324462890000e+000) (118, 1.84636580944061280000e+000) (119, -7.45078101754188540000e-002) (120, -1.54087460041046140000e+000) (121, 1.46685492992401120000e+000) (122, 6.71476244926452640000e-001) (123, -3.02821367979049680000e-001) (124, 4.86076503992080690000e-001) (125, 5.78941464424133300000e-001) (0, -1.00476968288421630000e+000) (1, -1.05543422698974610000e+000) (2, 1.32772684097290040000e+000) (3, -3.06898593902587890000e-001) (4, 2.48329210281372070000e+000) (5, -1.70547530055046080000e-001) (6, -3.33743643760681150000e+000) (7, 2.61603283882141110000e+000) (8, 1.83677780628204350000e+000) (9, 3.75806063413620000000e-001) (10, -7.18915402889251710000e-001) (11, 8.76271009445190430000e-001) (12, 2.44142460823059080000e+000) (13, 6.84008955955505370000e-001) (14, 1.96667516231536870000e+000) (15, -1.91346809267997740000e-001) (16, 1.44807815551757810000e-001) (17, -1.04702830314636230000e+000) (18, -1.15979862213134770000e+000) (19, 1.03120958805084230000e+000) (20, 8.59824419021606450000e-001) (21, -1.07014022767543790000e-001) (22, -3.12838792800903320000e-001) (23, 2.40385556221008300000e+000) (24, 2.16236114501953130000e+000) (25, -4.11106795072555540000e-001) (26, -1.42752623558044430000e+000) (27, -1.71539261937141420000e-002) (28, -1.36696740984916690000e-001) (29, 1.20181381702423100000e+000) (30, -3.90453428030014040000e-001) (31, -1.11279094219207760000e+000) (32, -1.28918325901031490000e+000) (33, 5.17328214645385740000e+000) (34, -2.62310892343521120000e-001) (35, 4.22499209642410280000e-001) (36, -4.54777687788009640000e-001) (37, 6.07835578918457030000e+000) (38, 1.61644399166107180000e+000) (39, 1.90079212188720700000e+000) (40, 1.84529018402099610000e+000) (41, 5.92669725418090820000e+000) (42, 8.80856394767761230000e-001) (43, 2.55568194389343260000e+000) (44, 3.75366806983947750000e-001) (45, 1.58648943901062010000e+000) (46, -2.47946977615356450000e+000) (47, 9.33539927005767820000e-001) (48, -5.10389059782028200000e-002) (49, 1.16753971576690670000e+000) (50, -1.02030381560325620000e-001) (51, 2.46646314859390260000e-001) (52, 1.15116095542907710000e+000) (53, 7.91277587413787840000e-001) (54, 2.52400231361389160000e+000) (55, -5.26626706123352050000e-001) (56, 1.16601419448852540000e+000) (57, -3.16062629222869870000e-001) (58, 3.26540946960449220000e+000) (59, 1.09167528152465820000e+000) (60, -1.01985432207584380000e-001) (61, 1.91060912609100340000e+000) (62, 1.12858905792236330000e+001) (63, 1.04240999221801760000e+001) (64, 1.04204058647155760000e+000) (65, 6.22687458992004390000e-001) (66, -5.88799595832824710000e-001) (67, 2.14418902993202210000e-001) (68, 5.92772662639617920000e-002) (69, 7.15333759784698490000e-001) (70, 6.82519078254699710000e-001) (71, 5.24883680045604710000e-002) (72, 1.19786894321441650000e+000) (73, 1.31015544757246970000e-002) (74, 7.46189653873443600000e-001) (75, -2.69660782814025880000e+000) (76, -2.27811408042907710000e+000) (77, -2.34436178207397460000e+000) (78, 1.59116423130035400000e+000) (79, -3.32893943786621090000e+000) (80, -3.90821486711502080000e-001) (81, 2.90189459919929500000e-002) (82, -9.39058482646942140000e-001) (83, 1.18756465613842010000e-001) (84, 7.38738834857940670000e-001) (85, 7.04050302505493160000e-001) (86, -1.46634376049041750000e+000) (87, 3.01914644241333010000e+000) (88, -3.00185680389404300000e+000) (89, 4.59856130182743070000e-002) (90, 5.81559896469116210000e-001) (91, -4.08269524574279790000e-001) (92, -9.46155339479446410000e-002) (93, -1.79574775695800780000e+000) (94, 1.80811810493469240000e+000) (95, 4.71772193908691410000e-001) (96, 1.53968667984008790000e+000) (97, -6.43316805362701420000e-001) (98, 5.96426844596862790000e-001) (99, 1.20523083209991460000e+000) (100, -4.78135347366333010000e-001) (101, 7.41775155067443850000e-001) (102, -2.06055790185928340000e-001) (103, 9.24726128578186040000e-002) (104, 7.58584678173065190000e-001) (105, 8.38020518422126770000e-002) (106, -7.55555450916290280000e-001) (107, -5.38700401782989500000e-001) (108, -5.45886866748332980000e-002) (109, 1.86787652969360350000e+000) (110, 3.41722190380096440000e-001) (111, -2.32127594947814940000e+000) (112, -3.39662998914718630000e-001) (113, 2.90691995620727540000e+000) (114, 1.52617740631103520000e+000) (115, 1.41948893666267400000e-001) (116, 6.51976093649864200000e-002) (117, 2.60950732231140140000e+000) (118, 2.40706607699394230000e-001) (119, 8.72424125671386720000e-001) (120, 5.24633049964904790000e-001) (121, -5.16990840435028080000e-001) (122, 2.31510972976684570000e+000) (123, 1.45710361003875730000e+000) (124, 1.24000513553619380000e+000) (125, 3.17329287528991700000e-001) (0, 5.03903448581695560000e-001) (1, 7.93592989444732670000e-001) (2, 7.75064647197723390000e-001) (3, 1.06801286339759830000e-001) (4, 4.69451308250427250000e-001) (5, 1.75309211015701290000e-001) (6, -1.34428417682647710000e+000) (7, -2.91356801986694340000e+000) (8, 2.21798822283744810000e-001) (9, 5.16840934753417970000e-001) (10, 6.00700497627258300000e-001) (11, 3.78335475921630860000e-001) (12, -5.83050668239593510000e-001) (13, -4.49470132589340210000e-001) (14, -9.44261923432350160000e-002) (15, 3.58733177185058590000e-001) (16, -1.26357030868530270000e+000) (17, 2.02181547880172730000e-001) (18, 1.04045939445495610000e+000) (19, 1.61538994312286380000e+000) (20, -6.36270344257354740000e-002) (21, 1.18499779701232910000e+000) (22, -7.49815762042999270000e-001) (23, 1.79137849807739260000e+000) (24, 8.40874671936035160000e-001) (25, 3.61990600824356080000e-001) (26, -1.69784176349639890000e+000) (27, -5.25240838527679440000e-001) (28, 3.25722575187683110000e-001) (29, 7.48139560222625730000e-001) (30, 9.36784073710441590000e-002) (31, -9.57374393939971920000e-001) (32, 1.50816237926483150000e+000) (33, -1.29337692260742190000e+000) (34, 1.54471516609191890000e-001) (35, -8.35423395037651060000e-002) (36, -3.36456358432769780000e-001) (37, 4.40285980701446530000e-001) (38, 3.14586490392684940000e-001) (39, -3.96336793899536130000e-001) (40, 9.92081522941589360000e-001) (41, 6.89830362796783450000e-001) (42, 3.90521228313446040000e-001) (43, 5.92663526535034180000e-001) (44, -5.06436467170715330000e-001) (45, -1.92049771547317500000e-001) (46, -1.84029400348663330000e+000) (47, -1.17158746719360350000e+000) (48, -9.78752523660659790000e-002) (49, 2.31641530990600590000e-001) (50, 2.40873441100120540000e-001) (51, -3.27171564102172850000e+000) (52, -1.06844997406005860000e+000) (53, -3.53822857141494750000e-002) (54, 1.21168839931488040000e+000) (55, 9.36331599950790410000e-002) (56, 9.70198094844818120000e-001) (57, 5.48530183732509610000e-002) (58, -3.16837698221206670000e-001) (59, 9.11094367504119870000e-001) (60, -5.74479214847087860000e-002) (61, -2.45938229560852050000e+000) (62, -4.48926631361246110000e-003) (63, 1.48657274246215820000e+000) (64, 3.22134107351303100000e-001) (65, 1.28779485821723940000e-002) (66, -1.52144777774810790000e+000) (67, 1.40592408180236820000e+000) (68, 6.37462425231933590000e+000) (69, -4.06966120004653930000e-001) (70, -3.09870451688766480000e-001) (71, -2.68908083438873290000e-001) (72, 1.18452973663806920000e-001) (73, 1.93628537654876710000e+000) (74, 1.84368252754211430000e+000) (75, -5.14168977737426760000e-001) (76, 8.18266987800598140000e-001) (77, -1.67553007602691650000e+000) (78, -3.03513109683990480000e-001) (79, -9.15319770574569700000e-002) (80, -1.07305121421813960000e+000) (81, -1.24695077538490300000e-001) (82, -1.14505362510681150000e+000) (83, 8.87152016162872310000e-001) (84, -4.80283558368682860000e-001) (85, -1.00320231914520260000e+000) (86, -3.98812830448150630000e-001) (87, -3.26571106910705570000e-001) (88, -2.22961211204528810000e+000) (89, 7.93939828872680660000e-001) (90, -3.34116443991661070000e-002) (91, -2.25364470481872560000e+000) (92, -1.66401825845241550000e-002) (93, 2.58306241035461430000e+000) (94, -1.68233311176300050000e+000) (95, -1.30060315132141110000e+000) (96, -5.98463952541351320000e-001) (97, 6.75453897565603260000e-003) (98, 7.13661313056945800000e-001) (99, 4.61650609970092770000e-001) (100, 3.44784408807754520000e-001) (101, 1.31526994705200200000e+000) (102, -8.50844264030456540000e-001) (103, -4.27249044179916380000e-001) (104, 4.21701520681381230000e-001) (105, 1.84598624706268310000e-001) (106, 1.70905363559722900000e+000) (107, -1.34411442279815670000e+000) (108, -1.04912519454956050000e-001) (109, -6.53341114521026610000e-002) (110, -1.16670548915863040000e-001) (111, -4.79711126536130910000e-003) (112, -1.12393939495086670000e+000) (113, 1.26504588127136230000e+000) (114, 2.03092169761657710000e+000) (115, 9.08188372850418090000e-002) (116, -2.59428441524505620000e-001) (117, -8.70384052395820620000e-002) (118, -1.48478627204895020000e+000) (119, -2.33575001358985900000e-001) (120, -1.48837372660636900000e-001) (121, -3.55685144662857060000e-001) (122, 2.05388963222503660000e-001) (123, 2.14704394340515140000e+000) (124, 1.06768584251403810000e+000) (125, 1.25460982322692870000e+000) (0, -3.13852190971374510000e-001) (1, 2.27686572074890140000e+000) (2, 1.11745750904083250000e+000) (3, -3.27698493003845210000e+000) (4, 6.31289303302764890000e-001) (5, 6.45356714725494380000e-001) (6, 1.96120965480804440000e+000) (7, 6.60804808139801030000e-001) (8, -4.35561209917068480000e-001) (9, 1.07835078239440920000e+000) (10, 1.20247936248779300000e+000) (11, -3.02739471197128300000e-001) (12, -1.01484346389770510000e+000) (13, -1.65432739257812500000e+000) (14, 6.65307223796844480000e-001) (15, 2.37522506713867190000e+000) (16, 4.78327810764312740000e-001) (17, -3.40598374605178830000e-001) (18, 9.48856413364410400000e-001) (19, -1.74201595783233640000e+000) (20, 1.11423385143280030000e+000) (21, -8.31603407859802250000e-001) (22, -4.15971326828002930000e+000) (23, 3.17448765039443970000e-001) (24, 1.09637188911437990000e+000) (25, -2.72827237844467160000e-001) (26, 9.16928172111511230000e-001) (27, 6.60879075527191160000e-001) (28, 3.85463786125183110000e+000) (29, 1.91506135463714600000e+000) (30, 1.87926128506660460000e-001) (31, -2.09831118583679200000e+000) (32, 1.40144133567810060000e+000) (33, -7.81970247626304630000e-002) (34, 2.05308771133422850000e+000) (35, 8.40596199035644530000e-001) (36, -1.19540810585021970000e-001) (37, 2.13395023345947270000e+000) (38, -1.00753474235534670000e+000) (39, 1.98867273330688480000e+000) (40, 4.81452846527099610000e+000) (41, -1.83156597614288330000e+000) (42, -3.41722130775451660000e+000) (43, 5.64906418323516850000e-001) (44, -8.70637521147727970000e-002) (45, 7.39749789237976070000e-001) (46, -1.54968214035034180000e+000) (47, -1.54526352882385250000e+000) (48, -1.51012375950813290000e-001) (49, -1.26405417919158940000e+000) (50, 2.48465508222579960000e-001) (51, 1.44759225845336910000e+000) (52, -2.86705762147903440000e-001) (53, -8.23175013065338130000e-002) (54, 4.31549131870269780000e-001) (55, -1.26660287380218510000e-001) (56, 2.61531639099121090000e+000) (57, -1.09504318237304690000e+000) (58, 3.02082717418670650000e-001) (59, 1.39039409160614010000e+000) (60, 5.19291281700134280000e-001) (61, -1.26012048721313480000e+001) (62, -2.42464736104011540000e-001) (63, -8.16514730453491210000e-001) (64, 1.61161756515502930000e+000) (65, 6.18108928203582760000e-001) (66, -8.60801982879638670000e+000) (67, 4.94125038385391240000e-001) (68, 4.53088283538818360000e-001) (69, 1.21698021888732910000e+000) (70, 1.11257493495941160000e-001) (71, 1.77601814270019530000e-001) (72, -2.14825963973999020000e+000) (73, -2.16348385810852050000e+000) (74, 3.19221407175064090000e-001) (75, -2.88345426321029660000e-001) (76, 1.96619614958763120000e-001) (77, -3.09080696105957030000e+000) (78, 3.31429064273834230000e-001) (79, 4.07941520214080810000e-001) (80, -5.23462116718292240000e-001) (81, -9.57734584808349610000e-002) (82, -2.86657524108886720000e+000) (83, -2.11622071266174320000e+000) (84, 1.88394933938980100000e-001) (85, -2.08160713315010070000e-001) (86, 5.72206318378448490000e-001) (87, 1.32324206829071040000e+000) (88, 4.50710916519165040000e+000) (89, 1.59608817100524900000e+000) (90, 7.26367354393005370000e-001) (91, 1.97086417675018310000e+000) (92, 3.47981452941894530000e+000) (93, 2.03427648544311520000e+000) (94, 1.27286291122436520000e+000) (95, 6.49920344352722170000e-001) (96, 2.24947944283485410000e-001) (97, -2.02796435356140140000e+000) (98, -1.30441343784332280000e+000) (99, -8.71732481755316260000e-004) (100, 1.94722130894660950000e-001) (101, 9.98763263225555420000e-001) (102, -1.60083699226379390000e+000) (103, 2.04598474502563480000e+000) (104, 1.64601063728332520000e+000) (105, 1.73622965812683110000e-001) (106, 8.48494619131088260000e-002) (107, 7.21635937690734860000e-001) (108, -3.72628748416900630000e-001) (109, 9.11198675632476810000e-001) (110, 5.47320485115051270000e-001) (111, -8.02848637104034420000e-001) (112, 1.52221560478210450000e+000) (113, 5.95641076564788820000e-001) (114, 4.99998033046722410000e-001) (115, 6.42858564853668210000e-001) (116, 1.17887854576110840000e+000) (117, -1.25257587432861330000e+000) (118, 5.79023063182830810000e-001) (119, 5.61689198017120360000e-001) (120, 1.13471336662769320000e-001) (121, -1.75726079940795900000e+000) (122, -7.48497188091278080000e-001) (123, -4.24454510211944580000e-001) (124, -5.04335537552833560000e-002) (125, -5.31555986404418950000e+000) (0, 9.55454289913177490000e-001) (1, -2.02998340129852290000e-001) (2, -1.18127024173736570000e+000) (3, 8.15470337867736820000e-001) (4, 1.04343223571777340000e+000) (5, 8.34303140640258790000e-001) (6, 1.07452058792114260000e+000) (7, 2.50597834587097170000e-001) (8, 1.24471879005432130000e+000) (9, 2.12797090411186220000e-001) (10, 1.85250252485275270000e-001) (11, 4.89891171455383300000e-001) (12, -3.35984915494918820000e-001) (13, -4.14624881744384770000e+000) (14, 5.23382246494293210000e-001) (15, 2.40757197141647340000e-001) (16, -4.09814298152923580000e-001) (17, -4.73666816949844360000e-001) (18, -2.56535315513610840000e+000) (19, 2.08596542477607730000e-001) (20, 2.12746277451515200000e-001) (21, -2.85214483737945560000e-001) (22, -7.76470363140106200000e-001) (23, 2.38570499420166020000e+000) (24, 2.36548632383346560000e-001) (25, 3.12484145164489750000e-001) (26, -1.10794819891452790000e-001) (27, 1.46106815338134770000e+000) (28, 1.25926673412323000000e+000) (29, -1.66943401098251340000e-001) (30, 7.10275709629058840000e-001) (31, 1.53977501392364500000e+000) (32, -5.39177298545837400000e-001) (33, -4.21045839786529540000e-001) (34, -1.96339631080627440000e+000) (35, 1.50580883026123050000e-001) (36, -4.67263221740722660000e-001) (37, 1.00347125530242920000e+000) (38, -1.22751033306121830000e+000) (39, 1.24237525463104250000e+000) (40, -5.92454314231872560000e-001) (41, -7.16138660907745360000e-001) (42, -3.62887233495712280000e-001) (43, 9.48051095008850100000e-001) (44, 1.54329940676689150000e-001) (45, 1.17760328575968740000e-002) (46, 8.10843944549560550000e-001) (47, -2.55556732416152950000e-001) (48, -3.73851478099823000000e-001) (49, 3.69864284992218020000e-001) (50, 1.01571214199066160000e+000) (51, 4.92808580398559570000e-001) (52, -3.57114821672439580000e-001) (53, 1.77392268180847170000e+000) (54, 9.25109148025512700000e-001) (55, 9.88491773605346680000e-001) (56, 6.34238272905349730000e-002) (57, -1.75850003957748410000e-001) (58, 6.46926343441009520000e-001) (59, 1.05967307090759280000e+000) (60, 1.30530610680580140000e-001) (61, 8.28020334243774410000e-001) (62, 3.83991909027099610000e+000) (63, -8.68573963642120360000e-001) (64, 1.92487633228302000000e+000) (65, 3.28659623861312870000e-001) (66, -5.41357696056365970000e-001) (67, 4.62667137384414670000e-001) (68, 1.99386596679687500000e+000) (69, 8.30716490745544430000e-001) (70, 2.78442978858947750000e-001) (71, -6.70541465282440190000e-001) (72, -1.20455455780029300000e+000) (73, 1.38257229328155520000e+000) (74, 1.16180634498596190000e+000) (75, 9.55972611904144290000e-001) (76, 2.28084057569503780000e-001) (77, 1.87426304817199710000e+000) (78, -9.76095378398895260000e-001) (79, 1.30032336711883540000e+000) (80, 5.89991211891174320000e-001) (81, 2.03733220696449280000e-001) (82, -4.35612082481384280000e-001) (83, -1.22619390487670900000e+000) (84, -3.78732621669769290000e-001) (85, 2.08767175674438480000e-001) (86, 4.25487756729125980000e-002) (87, 2.16272640228271480000e+000) (88, 9.14144217967987060000e-001) (89, 1.05429863929748540000e+000) (90, 3.14280390739440920000e-001) (91, -8.62076640129089360000e-001) (92, -2.16138744354248050000e+000) (93, 1.22943449020385740000e+000) (94, 2.93087035417556760000e-001) (95, 1.28225684165954590000e-001) (96, 7.73014649748802190000e-002) (97, 1.82946360111236570000e+000) (98, 4.09702122211456300000e-001) (99, 2.96680301427841190000e-001) (100, 4.38141405582427980000e-001) (101, 1.03413581848144530000e+000) (102, 4.64639872312545780000e-001) (103, -1.12543594837188720000e+000) (104, 4.15592432022094730000e-001) (105, 2.32237145304679870000e-001) (106, 6.63859307765960690000e-001) (107, 6.96412682533264160000e-001) (108, -2.03456282615661620000e+000) (109, -4.84722971916198730000e-001) (110, -1.81133255362510680000e-001) (111, 1.06885063648223880000e+000) (112, -3.72053682804107670000e-002) (113, -3.60668987035751340000e-001) (114, 3.40867847204208370000e-001) (115, 1.75549000501632690000e-001) (116, -1.44096624851226810000e+000) (117, 7.19376921653747560000e-001) (118, -2.99990081787109380000e+000) (119, 1.03554174304008480000e-001) (120, 3.24026376008987430000e-001) (121, 3.30558151006698610000e-001) (122, -3.87403190135955810000e-001) (123, -6.49535775184631350000e-001) (124, -9.32906031608581540000e-001) (125, -3.80779534578323360000e-001) (0, 3.91258716583251950000e-001) (1, -7.90577292442321780000e-001) (2, -5.52565157413482670000e-001) (3, 1.40104725956916810000e-001) (4, 1.01090013980865480000e-001) (5, 3.45058292150497440000e-001) (6, 1.13082242012023930000e+000) (7, -4.63320046663284300000e-001) (8, 1.43165931105613710000e-001) (9, -6.06649160385131840000e-001) (10, -7.95082822442054750000e-002) (11, -1.09772253036499020000e+000) (12, 5.10489702224731450000e-001) (13, -1.93287146091461180000e+000) (14, -4.44446027278900150000e-001) (15, -9.23222750425338750000e-002) (16, -6.51281476020812990000e-001) (17, -3.78292977809906010000e-001) (18, -2.35060977935791020000e+000) (19, -6.83027625083923340000e-001) (20, 5.00472962856292720000e-001) (21, -5.17686247825622560000e-001) (22, 1.03219978511333470000e-001) (23, 2.70447265356779100000e-002) (24, -7.10194945335388180000e-001) (25, 2.83240616321563720000e-001) (26, -1.63170203566551210000e-001) (27, 5.70576250553131100000e-001) (28, -1.11518561840057370000e+000) (29, -1.72585833072662350000e+000) (30, 4.91138637065887450000e-001) (31, 1.71315622329711910000e+000) (32, 5.77842652797698970000e-001) (33, 4.13408935070037840000e-001) (34, -5.01084661483764650000e+000) (35, -8.83324816823005680000e-002) (36, -5.55946826934814450000e-001) (37, -1.16450048983097080000e-001) (38, -5.55575937032699580000e-002) (39, -4.07553815841674800000e+000) (40, -2.22287792712450030000e-002) (41, 9.96560096740722660000e-001) (42, 7.14320912957191470000e-002) (43, -1.17531633377075200000e+000) (44, -1.20206367969512940000e+000) (45, -6.54730647802352910000e-002) (46, -1.51806187629699710000e+000) (47, -3.03837746381759640000e-001) (48, -2.79534637928009030000e-001) (49, 8.53024601936340330000e-001) (50, 1.84602290391922000000e-001) (51, 6.27841770648956300000e-001) (52, -9.46278989315032960000e-001) (53, -2.55126565694808960000e-001) (54, -1.37402093410491940000e+000) (55, 4.28232043981552120000e-001) (56, -6.35630846023559570000e-001) (57, 5.44622123241424560000e-001) (58, -1.19785211980342860000e-001) (59, -7.99024724960327150000e+000) (60, -2.82201379537582400000e-001) (61, -2.33053207397460940000e+000) (62, -5.20842134952545170000e-001) (63, -2.16831350326538090000e+000) (64, -4.41600418090820310000e+000) (65, -3.45390051603317260000e-001) (66, -1.83523583412170410000e+000) (67, 6.11555352807044980000e-002) (68, 5.48624813556671140000e-001) (69, -6.89550042152404790000e-001) (70, -2.86850839853286740000e-001) (71, -1.70091462135314940000e+000) (72, -7.23914206027984620000e-001) (73, 4.00987774133682250000e-001) (74, -2.87215918302536010000e-001) (75, 1.33973695337772370000e-002) (76, 1.04044365882873540000e+000) (77, 4.94867742061614990000e-001) (78, 7.66948997974395750000e-001) (79, 4.72410768270492550000e-002) (80, 1.02569848299026490000e-001) (81, 4.94147181510925290000e-001) (82, 3.05241078138351440000e-001) (83, -1.02230691909790040000e+000) (84, -2.14342808723449710000e+000) (85, -1.13518573343753810000e-001) (86, 2.66517549753189090000e-001) (87, 4.51953649520874020000e-001) (88, 1.14767026901245120000e+000) (89, -3.64551258087158200000e+000) (90, -3.08656096458435060000e-001) (91, -3.94612669944763180000e-001) (92, -6.46614849567413330000e-001) (93, 1.70921117067337040000e-001) (94, -1.02689850330352780000e+000) (95, 1.06967464089393620000e-001) (96, 2.54099965095520020000e-001) (97, -4.65148240327835080000e-001) (98, -5.30507862567901610000e-001) (99, -4.13483493030071260000e-002) (100, 2.34205931425094600000e-001) (101, -9.87101554870605470000e-001) (102, -3.25895488262176510000e-001) (103, -6.15428686141967770000e-001) (104, -1.47600635886192320000e-001) (105, 4.15648669004440310000e-001) (106, -4.67353105545043950000e-001) (107, 7.70322918891906740000e-001) (108, -2.04908132553100590000e+000) (109, -1.00832715630531310000e-001) (110, -1.31166696548461910000e-001) (111, -9.63005721569061280000e-001) (112, -9.82468128204345700000e-001) (113, 2.75299340486526490000e-001) (114, -3.39649915695190430000e-001) (115, -1.66309818625450130000e-001) (116, 8.19086730480194090000e-001) (117, -7.63329505920410160000e-001) (118, -5.94268023967742920000e-001) (119, 5.97904622554779050000e-001) (120, -5.58701038360595700000e-001) (121, -3.71115744113922120000e-001) (122, -8.84482041001319890000e-002) (123, -1.96091663837432860000e+000) (124, 5.79555928707122800000e-001) (125, -1.41612514853477480000e-001) (0, -1.34304881095886230000e+000) (1, 2.72922784090042110000e-001) (2, -3.34175467491149900000e-001) (3, 1.94132983684539790000e-001) (4, 5.86682796478271480000e-001) (5, -2.22137093544006350000e+000) (6, -1.50923144817352290000e+000) (7, -1.02808880805969240000e+000) (8, -7.14356184005737300000e-001) (9, -6.07401132583618160000e-001) (10, 4.71243914216756820000e-003) (11, 4.91655558347702030000e-001) (12, 4.80284512042999270000e-001) (13, 5.72051703929901120000e-001) (14, 1.59711033105850220000e-001) (15, -8.42248722910881040000e-002) (16, 5.41142463684082030000e-001) (17, 6.77684545516967770000e-001) (18, 4.24824327230453490000e-001) (19, -6.81436896324157710000e-001) (20, 1.28021165728569030000e-001) (21, -4.54556226730346680000e-001) (22, 4.81265373528003690000e-002) (23, 1.91443824768066410000e+000) (24, -4.01689298450946810000e-002) (25, -5.59546828269958500000e-001) (26, 5.65372467041015630000e-001) (27, 3.24952900409698490000e-001) (28, -6.03010058403015140000e-001) (29, -5.15684902667999270000e-001) (30, -3.22742724418640140000e+000) (31, -1.80617913603782650000e-001) (32, 3.35347235202789310000e-001) (33, -6.31548166275024410000e-001) (34, -2.46543549001216890000e-002) (35, -1.57800186425447460000e-002) (36, 6.50762736797332760000e-001) (37, 2.19353422522544860000e-001) (38, 2.02314019203186040000e+000) (39, 1.02755534648895260000e+000) (40, 1.08602738380432130000e+000) (41, 2.88503229618072510000e-001) (42, 6.22830033302307130000e-001) (43, 5.90752005577087400000e-001) (44, 2.68872588872909550000e-001) (45, 6.74406886100769040000e-001) (46, -4.30486440658569340000e-001) (47, 6.79530918598175050000e-001) (48, -1.72646272182464600000e+000) (49, 1.47165358066558840000e-001) (50, -6.06210231781005860000e-001) (51, 1.09793162345886230000e+000) (52, -3.83060157299041750000e-001) (53, 1.32445514202117920000e+000) (54, 9.50858294963836670000e-002) (55, -1.88238286972045900000e+000) (56, 7.61085212230682370000e-001) (57, 4.12228316068649290000e-001) (58, 2.28253722190856930000e-001) (59, 2.24576234817504880000e-001) (60, 2.24305585026741030000e-001) (61, 1.70616078376770020000e+000) (62, 1.02545428276062010000e+000) (63, 1.44568598270416260000e+000) (64, 1.86775600910186770000e+000) (65, 1.27965465188026430000e-001) (66, 2.41968899965286250000e-001) (67, 1.57561957836151120000e-001) (68, 1.64999115467071530000e+000) (69, -4.63500693440437320000e-002) (70, -2.91513502597808840000e-001) (71, 1.40844666957855220000e+000) (72, -1.72371315956115720000e+000) (73, -4.55567836761474610000e-001) (74, 1.60820946097373960000e-001) (75, -4.04671818017959590000e-001) (76, 4.15112167596817020000e-001) (77, 1.12085483968257900000e-001) (78, -1.31768599152565000000e-001) (79, 2.51388311386108400000e-001) (80, -7.15632498264312740000e-001) (81, 7.69161939620971680000e-001) (82, 1.13705885410308840000e+000) (83, 1.00849342346191410000e+000) (84, 4.14792418479919430000e-001) (85, 2.08097755908966060000e-001) (86, 4.82806563377380370000e-001) (87, -1.20083495974540710000e-001) (88, 1.37444543838500980000e+000) (89, 2.12667798995971680000e+000) (90, 1.79128304123878480000e-001) (91, -3.20464640855789180000e-001) (92, -5.10025978088378910000e-001) (93, 7.75938749313354490000e-001) (94, 4.26482707262039180000e-001) (95, 1.69480636715888980000e-001) (96, 2.93785095214843750000e-001) (97, 2.76722013950347900000e-001) (98, -8.43897700309753420000e-001) (99, 5.83440005779266360000e-001) (100, -1.07452046871185300000e+000) (101, -5.61878383159637450000e-002) (102, 3.80449406802654270000e-002) (103, 2.08900189399719240000e+000) (104, 2.10761558264493940000e-002) (105, -1.41408431529998780000e+000) (106, -2.89902865886688230000e-001) (107, 9.39111888408660890000e-001) (108, 6.30011498928070070000e-001) (109, 6.65045110508799550000e-003) (110, -3.01637679338455200000e-001) (111, 9.52357873320579530000e-002) (112, -1.60252976417541500000e+000) (113, -8.62832665443420410000e-001) (114, 2.62517571449279790000e-001) (115, 1.65354311466217040000e-001) (116, 1.55625820159912110000e-001) (117, -9.82789322733879090000e-002) (118, -4.89756584167480470000e-001) (119, -4.28819149732589720000e-001) (120, 7.20730185508728030000e-001) (121, 9.05190348625183110000e-001) (122, -3.39902341365814210000e-001) (123, 7.56186723709106450000e-001) (124, 8.91476213932037350000e-001) (125, 2.92178130149841310000e+000) (0, 3.53495329618453980000e-001) (1, 7.09598898887634280000e-001) (2, 1.25809764862060550000e+000) (3, -1.86237835884094240000e+000) (4, -1.43902397155761720000e+000) (5, 2.40285828709602360000e-001) (6, 8.11021178960800170000e-002) (7, 6.20069563388824460000e-001) (8, 1.29096508026123050000e+000) (9, -2.13883146643638610000e-001) (10, -1.53829649090766910000e-001) (11, 7.07191675901412960000e-002) (12, 3.47308844327926640000e-001) (13, -3.73998671770095830000e-001) (14, 2.28403672575950620000e-001) (15, -2.37339705228805540000e-001) (16, 5.99863648414611820000e-001) (17, 6.52249902486801150000e-002) (18, -7.57298544049263000000e-002) (19, -1.64253741502761840000e-001) (20, 4.72511611878871920000e-002) (21, -9.54762995243072510000e-002) (22, -7.18947052955627440000e-001) (23, -1.43701529502868650000e+000) (24, 7.55195617675781250000e-002) (25, 6.93375393748283390000e-002) (26, 8.00043821334838870000e-001) (27, -7.21042871475219730000e-001) (28, -2.36930465698242190000e+000) (29, -3.82926195859909060000e-001) (30, -4.74608093500137330000e-001) (31, -7.60882556438446040000e-001) (32, -1.74305558204650880000e+000) (33, -2.02431529760360720000e-002) (34, -1.98273789882659910000e+000) (35, -5.59578478336334230000e-001) (36, -2.84228414297103880000e-001) (37, -2.61409640312194820000e-001) (38, 1.03990232944488530000e+000) (39, -2.71115154027938840000e-001) (40, -1.74843931198120120000e+000) (41, 8.62165391445159910000e-001) (42, -8.57166469097137450000e-001) (43, 5.32480299472808840000e-001) (44, 2.39758610725402830000e-001) (45, -5.71487009525299070000e-001) (46, 1.59589186310768130000e-001) (47, 2.15281546115875240000e-001) (48, -1.83279678225517270000e-001) (49, 1.52111142873764040000e-001) (50, 1.97895746678113940000e-002) (51, -8.28105092048645020000e-001) (52, -3.67165893316268920000e-001) (53, -6.16605043411254880000e-001) (54, 1.04660856723785400000e+000) (55, 2.27622419595718380000e-001) (56, 5.67913711071014400000e-001) (57, -2.77353763580322270000e-001) (58, -2.39512777328491210000e+000) (59, 1.27154123783111570000e+000) (60, -2.52355724573135380000e-001) (61, 2.49823188781738280000e+000) (62, -1.77155601978302000000e+000) (63, -8.49998283386230470000e+000) (64, -1.88877835869789120000e-001) (65, -3.99844408035278320000e-001) (66, 4.12228536605834960000e+000) (67, -1.03997564315795900000e+000) (68, 8.64260077476501460000e-001) (69, -2.87379652261734010000e-001) (70, -2.95130133628845210000e-001) (71, 2.36663252115249630000e-001) (72, 3.38119059801101680000e-001) (73, 1.24006211757659910000e-001) (74, 1.72288864850997920000e-001) (75, -5.37837505340576170000e-001) (76, 1.23945999145507810000e+000) (77, -1.42977401614189150000e-001) (78, -8.97808134555816650000e-001) (79, -1.19584572315216060000e+000) (80, -5.81109263002872470000e-002) (81, -1.90037548542022710000e+000) (82, -1.42725288867950440000e+000) (83, -9.98598992824554440000e-001) (84, 1.25505197048187260000e+000) (85, -4.66814160346984860000e-001) (86, -7.76363492012023930000e-001) (87, -1.26851511001586910000e+000) (88, -1.16873550415039060000e+000) (89, -5.52780590951442720000e-002) (90, -9.51334953308105470000e-001) (91, 1.30133843421936040000e+000) (92, -3.43343108892440800000e-001) (93, 1.07183074951171870000e+000) (94, -5.86427390575408940000e-001) (95, -6.63176774978637700000e-001) (96, -2.27363920211791990000e+000) (97, 3.95365029573440550000e-001) (98, 1.15079319477081300000e+000) (99, -4.22460883855819700000e-001) (100, -3.26283425092697140000e-002) (101, -1.71171203255653380000e-001) (102, 6.14491879940032960000e-001) (103, -6.37295663356781010000e-001) (104, 4.42774146795272830000e-001) (105, 3.39644886553287510000e-002) (106, 9.25824344158172610000e-001) (107, 1.59552674740552900000e-002) (108, 2.55001473426818850000e+000) (109, 1.07810068130493160000e+000) (110, -5.41179239749908450000e-001) (111, 1.88116323947906490000e+000) (112, -1.36220663785934450000e-001) (113, -3.45306217670440670000e-001) (114, 4.77089881896972660000e-001) (115, 2.21613973379135130000e-001) (116, -9.11080718040466310000e-001) (117, 1.52069044113159180000e+000) (118, 1.93040117621421810000e-001) (119, 5.03135681152343750000e-001) (120, 3.72186869382858280000e-001) (121, 2.15195253491401670000e-001) (122, -2.51697991043329240000e-002) (123, 1.56171643733978270000e+000) (124, 2.14407026767730710000e-001) (125, 2.13960719108581540000e+000) (0, 1.60775795578956600000e-001) (1, -3.56591284275054930000e-001) (2, -3.95507723093032840000e-001) (3, 3.82121473550796510000e-001) (4, 3.19426059722900390000e-001) (5, -2.71575987339019780000e-001) (6, -4.48706269264221190000e-001) (7, -1.33267685770988460000e-001) (8, 6.34261453524231910000e-003) (9, 1.21174299716949460000e+000) (10, -4.76922273635864260000e-001) (11, -1.36492240428924560000e+000) (12, 1.62211328744888310000e-001) (13, -6.33722603321075440000e-001) (14, -9.10387039184570310000e-001) (15, -1.23231041431427000000e+000) (16, -1.44998133182525630000e+000) (17, -1.61436557769775390000e+000) (18, -2.18300700187683110000e+000) (19, -1.10951411724090580000e+000) (20, -1.50366818904876710000e+000) (21, 4.52880002558231350000e-002) (22, -4.14792805910110470000e-001) (23, 1.07756984233856200000e+000) (24, -4.64868396520614620000e-001) (25, 2.79002547264099120000e-001) (26, 4.56340312957763670000e-002) (27, -1.15765273571014400000e-001) (28, 8.08424949645996090000e-002) (29, 1.45589518547058110000e+000) (30, -4.02934491634368900000e-001) (31, 1.37795671820640560000e-001) (32, 4.29105699062347410000e-001) (33, 1.34318697452545170000e+000) (34, 7.16751098632812500000e-001) (35, -2.43056733161211010000e-002) (36, 6.95660591125488280000e-001) (37, 1.02849388122558590000e+000) (38, 1.27259194850921630000e-001) (39, -1.34962916374206540000e-001) (40, -6.69164299964904790000e-001) (41, 3.67361843585968020000e-001) (42, -1.96628272533416750000e-001) (43, 1.95263534784317020000e-001) (44, 1.08287811279296880000e-001) (45, 2.68660759925842290000e+000) (46, 1.38936734199523930000e+000) (47, 3.35649728775024410000e-001) (48, 6.34921550750732420000e-001) (49, 7.91488885879516600000e-001) (50, 1.37953281402587890000e-001) (51, -3.51447463035583500000e-001) (52, 1.49043902754783630000e-001) (53, -7.49146819114685060000e-001) (54, 4.52386230230331420000e-001) (55, -3.90461161732673650000e-002) (56, 7.40097343921661380000e-001) (57, 7.98263669013977050000e-001) (58, -2.58774250745773320000e-001) (59, 4.79043394327163700000e-001) (60, -3.49247545003890990000e-001) (61, 8.39928150177001950000e+000) (62, -2.15820461511611940000e-001) (63, 7.53911733627319340000e+000) (64, 3.40697050094604490000e+000) (65, -6.26061141490936280000e-001) (66, 1.94647419452667240000e+000) (67, -1.67299461364746090000e+000) (68, 2.00112128257751460000e+000) (69, -6.92174062132835390000e-002) (70, -4.35115724802017210000e-001) (71, 1.29659152030944820000e+000) (72, -6.64024174213409420000e-001) (73, -4.95460741221904750000e-002) (74, 2.11615815758705140000e-001) (75, 2.61176407337188720000e-001) (76, -3.99481952190399170000e-001) (77, -2.41317927837371830000e-001) (78, -7.00431704521179200000e-001) (79, 1.26585125923156740000e-001) (80, 2.78432704508304600000e-002) (81, -2.00597774237394330000e-002) (82, -1.65502560138702390000e+000) (83, 2.31424868106842040000e-002) (84, 6.10982835292816160000e-001) (85, 4.05110418796539310000e-001) (86, 6.54746115207672120000e-001) (87, -6.72742784023284910000e-001) (88, 1.76739096641540530000e+000) (89, 2.52633661031723020000e-001) (90, -1.13965205848217010000e-001) (91, -4.02495354413986210000e-001) (92, -2.90735810995101930000e-001) (93, 1.34206724166870120000e+000) (94, 8.72580468654632570000e-001) (95, -9.50389981269836430000e-001) (96, -2.63834089040756230000e-001) (97, 3.78516286611557010000e-001) (98, 2.26024961471557620000e+000) (99, -1.54101133346557620000e-001) (100, 8.20165097713470460000e-001) (101, 1.02593541145324710000e+000) (102, 2.11111113429069520000e-001) (103, 5.59880137443542480000e-001) (104, 3.78296613693237300000e-001) (105, -2.41421446204185490000e-001) (106, -2.50852733850479130000e-001) (107, 5.27798295021057130000e-001) (108, -6.45102858543396000000e-002) (109, 1.43924713134765630000e+000) (110, -1.09310650825500490000e+000) (111, -2.15183258056640620000e+000) (112, 6.37564361095428470000e-002) (113, 1.00877428054809570000e+000) (114, 7.20075130462646480000e-001) (115, -3.24133276939392090000e-001) (116, -7.77703881263732910000e-001) (117, 4.06655400991439820000e-001) (118, -4.04942959547042850000e-001) (119, 8.08832705020904540000e-001) (120, -2.57404899597167970000e+000) (121, -1.02922869846224780000e-002) (122, -6.51540756225585940000e-001) (123, 1.79106378555297850000e+000) (124, 8.17803919315338130000e-001) (125, 4.47620868682861330000e+000) (0, 1.72243249416351320000e+000) (1, 7.39449083805084230000e-001) (2, 4.12721127271652220000e-001) (3, 7.67547309398651120000e-001) (4, -7.25922465324401860000e-001) (5, 2.56367397308349610000e+000) (6, -1.15290610119700430000e-002) (7, 1.25191092491149900000e-001) (8, 7.26033210754394530000e-001) (9, -1.75231128931045530000e-001) (10, 1.41451036930084230000e+000) (11, 7.59749233722686770000e-001) (12, -3.23298238217830660000e-002) (13, -1.58109700679779050000e+000) (14, -1.94946214556694030000e-001) (15, 7.02657401561737060000e-001) (16, -1.44676101207733150000e+000) (17, -2.02707290649414060000e+000) (18, -7.56601631641387940000e-001) (19, -1.38618841767311100000e-001) (20, 8.37122380733489990000e-001) (21, 1.10795289278030400000e-001) (22, 3.93580868840217590000e-002) (23, 1.19731616973876950000e+000) (24, 6.25105440616607670000e-001) (25, 1.27736663818359370000e+000) (26, -6.19640886783599850000e-001) (27, 1.58936440944671630000e-001) (28, -1.56405842304229740000e+000) (29, -3.57069671154022220000e-001) (30, 1.59820640087127690000e+000) (31, 1.38847514986991880000e-001) (32, -5.76030254364013670000e-001) (33, 2.55880355834960940000e-001) (34, -4.81301754713058470000e-001) (35, 7.22548305988311770000e-001) (36, 1.86978471279144290000e+000) (37, 1.87694084644317630000e+000) (38, 2.35497832298278810000e+000) (39, 1.27519637346267700000e-001) (40, 2.80375719070434570000e-001) (41, 2.61654400825500490000e+000) (42, -1.44375133514404300000e+000) (43, 4.94834482669830320000e-001) (44, 2.27295383810997010000e-001) (45, 1.99091210961341860000e-001) (46, 1.05581521987915040000e+000) (47, 6.38248175382614140000e-002) (48, -1.72795522212982180000e+000) (49, 6.83992028236389160000e-001) (50, 1.82185959815979000000e+000) (51, 2.78711080551147460000e-001) (52, 7.08931609988212590000e-002) (53, 3.75876367092132570000e-001) (54, 4.19286108016967770000e+000) (55, 1.21291744709014890000e+000) (56, 8.74539792537689210000e-001) (57, -3.93568336963653560000e-001) (58, 2.41569831967353820000e-001) (59, -1.37505531311035160000e+000) (60, 5.71487367153167720000e-001) (61, -5.09752690792083740000e-001) (62, 2.78907394409179690000e+000) (63, -1.55129206180572510000e+000) (64, 1.64109423756599430000e-001) (65, 5.96704185009002690000e-001) (66, -8.02527010440826420000e-001) (67, -4.58117961883544920000e-001) (68, 1.46715760231018070000e+000) (69, 1.10218919813632970000e-001) (70, 3.35194259881973270000e-001) (71, 5.67234575748443600000e-001) (72, -8.96127700805664060000e-001) (73, 9.50669467449188230000e-001) (74, 7.11872220039367680000e-001) (75, 7.48794972896575930000e-001) (76, 2.02932715415954590000e+000) (77, 3.09506766498088840000e-002) (78, -1.35468989610672000000e-001) (79, 9.20535326004028320000e-001) (80, -6.37621819972991940000e-001) (81, -1.85811471939086910000e+000) (82, -6.13663911819458010000e-001) (83, 2.38330215215682980000e-001) (84, -2.19841527938842770000e+000) (85, 2.36705616116523740000e-001) (86, 1.01286673545837400000e+000) (87, 7.01810240745544430000e-001) (88, 5.72084367275238040000e-001) (89, 1.40773785114288330000e+000) (90, 7.49852120876312260000e-001) (91, 3.08293234556913380000e-002) (92, -2.58194708824157710000e+000) (93, 1.75776451826095580000e-001) (94, 1.14767052233219150000e-001) (95, 3.15879017114639280000e-001) (96, -3.85943055152893070000e-002) (97, -3.34813380241394040000e+000) (98, -4.48042079806327820000e-002) (99, 7.40350425243377690000e-001) (100, 2.68143236637115480000e-001) (101, 2.81547695398330690000e-001) (102, -6.62337124347686770000e-001) (103, 2.82406985759735110000e-001) (104, -6.16137146949768070000e-001) (105, 7.61492729187011720000e-001) (106, 1.06132052838802340000e-001) (107, 1.72999538481235500000e-002) (108, -1.00793808698654170000e-001) (109, 4.55141663551330570000e-001) (110, 5.22978603839874270000e-001) (111, 4.89772051572799680000e-001) (112, 1.53297364711761470000e+000) (113, 1.52527272701263430000e+000) (114, 1.61095708608627320000e-001) (115, 5.53504467010498050000e-001) (116, 2.48001432418823240000e+000) (117, -6.83768391609191890000e-001) (118, 1.09460055828094480000e+000) (119, 7.40309178829193120000e-001) (120, 4.15380835533142090000e-001) (121, -2.39512062072753910000e+000) (122, -1.70016586780548100000e-001) (123, 2.30451747775077820000e-001) (124, 1.03858135640621190000e-001) (125, -2.23520308732986450000e-001) (0, -3.59142988920211790000e-001) (1, -2.39163190126419070000e-001) (2, 7.66329705715179440000e-001) (3, -4.23436425626277920000e-002) (4, 1.21316909790039060000e-001) (5, -3.67314785718917850000e-001) (6, -5.44401228427886960000e-001) (7, -2.76903718709945680000e-001) (8, -3.74689280986785890000e-001) (9, -3.70560199022293090000e-001) (10, -1.95651520043611530000e-002) (11, -8.53094696998596190000e-001) (12, -2.34985560178756710000e-001) (13, -5.61686575412750240000e-001) (14, 1.05717174708843230000e-001) (15, -1.74756348133087160000e-001) (16, -2.81044125556945800000e-001) (17, 9.66310799121856690000e-001) (18, -7.33468495309352870000e-003) (19, -1.07896372675895690000e-001) (20, 2.60205000638961790000e-001) (21, -1.27216911315917970000e+000) (22, -6.60965025424957280000e-001) (23, 1.10943007469177250000e+000) (24, 1.65225878357887270000e-001) (25, -4.29573267698287960000e-001) (26, 1.39555726200342180000e-002) (27, -6.31108105182647710000e-001) (28, -3.24801266193389890000e-001) (29, 5.53949654102325440000e-001) (30, -3.21916770935058590000e+000) (31, -2.55502194166183470000e-001) (32, 5.38196027278900150000e-001) (33, -1.35099127888679500000e-001) (34, -5.09404838085174560000e-001) (35, 4.52032238245010380000e-001) (36, 6.98366343975067140000e-001) (37, 4.46579074859619140000e+000) (38, 3.31035882234573360000e-001) (39, 4.17345225811004640000e-001) (40, -1.99457228183746340000e-001) (41, 5.30314731597900390000e+000) (42, 2.59272766113281250000e+000) (43, -1.50808095932006840000e-001) (44, 8.24141874909400940000e-002) (45, 1.63436666131019590000e-001) (46, -5.10368645191192630000e-001) (47, -4.07855153083801270000e-001) (48, -1.62543177604675290000e-001) (49, -2.41287901997566220000e-001) (50, -2.60855793952941890000e-001) (51, 8.44342354685068130000e-003) (52, 4.92781013250350950000e-001) (53, 2.18465968966484070000e-001) (54, -3.62756878137588500000e-001) (55, 8.83220374584198000000e-001) (56, -7.71382808685302730000e-001) (57, 4.53961230814456940000e-002) (58, -6.05028569698333740000e-001) (59, -1.59081149101257320000e+000) (60, -1.28284588456153870000e-001) (61, 8.60287380218505860000e+000) (62, 3.19609947204589840000e+001) (63, 1.33687555789947510000e+000) (64, 2.69011497497558590000e-001) (65, -3.93645428121089940000e-002) (66, 2.93149542808532710000e+000) (67, -5.83255648612976070000e-001) (68, 1.06566679477691650000e+000) (69, 1.08467829227447510000e+000) (70, -1.56556710600852970000e-001) (71, -4.69334088265895840000e-002) (72, 2.02752351760864260000e+000) (73, 8.38171184062957760000e-001) (74, -3.21621239185333250000e-001) (75, 1.24754190444946290000e+000) (76, 1.28399506211280820000e-001) (77, -3.55953305959701540000e-001) (78, -2.79914498329162600000e-001) (79, 9.70492288470268250000e-002) (80, -2.47570061683654790000e+000) (81, 1.41312873363494870000e+000) (82, 3.32397788763046260000e-001) (83, 2.92622834444046020000e-001) (84, -5.30385494232177730000e-001) (85, 6.76452755928039550000e-001) (86, -3.34931343793869020000e-001) (87, 2.97869420051574710000e+000) (88, 4.89908599853515630000e+000) (89, 3.53691220283508300000e-001) (90, -3.69161292910575870000e-002) (91, -4.99467521905899050000e-001) (92, -9.85227346420288090000e-001) (93, -1.24448180198669430000e+000) (94, 4.74121049046516420000e-002) (95, 1.12050630152225490000e-001) (96, 6.70683562755584720000e-001) (97, -9.75413918495178220000e-001) (98, -5.63005566596984860000e-001) (99, 2.99081474542617800000e-001) (100, 3.69411498308181760000e-001) (101, -4.92086589336395260000e-001) (102, 4.91460651159286500000e-001) (103, -6.64918780326843260000e-001) (104, 9.71121072769165040000e-001) (105, -1.65281489491462710000e-001) (106, -2.10361227393150330000e-001) (107, 9.10232663154602050000e-001) (108, 1.47035717964172360000e+000) (109, 3.95542293787002560000e-001) (110, -1.48905560374259950000e-001) (111, 3.80150139331817630000e-001) (112, -2.39164710044860840000e+000) (113, 1.26440942287445070000e+000) (114, 5.54319657385349270000e-002) (115, -1.07830524444580080000e-001) (116, -2.95869797468185420000e-001) (117, -5.62291979789733890000e-001) (118, -4.07531768083572390000e-001) (119, -8.13831567764282230000e-001) (120, -2.12726816534996030000e-001) (121, 1.02104321122169490000e-001) (122, -9.66202855110168460000e-001) (123, 1.06723749637603760000e+000) (124, 9.81256216764450070000e-002) (125, 7.86592149734497070000e+000) (0, -2.23125159740448000000e-001) (1, -2.01538115739822390000e-001) (2, 1.62166976928710940000e+000) (3, 2.50807225704193120000e-001) (4, -4.19406563043594360000e-001) (5, -1.03084966540336610000e-001) (6, 9.77002322673797610000e-001) (7, 4.55313742160797120000e-001) (8, 3.22696834802627560000e-001) (9, 1.02674245834350590000e-001) (10, 7.36160755157470700000e-001) (11, 2.30118536949157710000e+000) (12, 5.30340433120727540000e-001) (13, 8.86139750480651860000e-001) (14, 1.07834637165069580000e+000) (15, 9.23143029212951660000e-001) (16, 9.21786904335021970000e-001) (17, -4.17603939771652220000e-001) (18, 8.01591753959655760000e-001) (19, 1.35851907730102540000e+000) (20, 9.99866366386413570000e-001) (21, -3.97832065820693970000e-001) (22, 1.60403144359588620000e+000) (23, -2.17314367182552810000e-003) (24, 1.42628824710845950000e+000) (25, -1.27366498112678530000e-001) (26, -2.98592209815979000000e-001) (27, 1.06792442500591280000e-001) (28, -2.53659248352050780000e-001) (29, 1.69401252269744870000e+000) (30, -1.74597427248954770000e-001) (31, -2.29849767684936520000e+000) (32, -5.11969566345214840000e-001) (33, 2.68835520744323730000e+000) (34, 3.72241407632827760000e-001) (35, 4.57979440689086910000e-001) (36, 6.77454292774200440000e-001) (37, 1.85345649719238280000e+000) (38, 2.03331694006919860000e-001) (39, -1.53595125675201420000e+000) (40, 7.34740197658538820000e-001) (41, -5.41334450244903560000e-001) (42, 3.64638805389404300000e-001) (43, 2.08032414317131040000e-001) (44, -1.38061678409576420000e+000) (45, 8.77331972122192380000e-001) (46, -1.51770915836095810000e-002) (47, 1.89069473743438720000e+000) (48, -1.76822137832641600000e+000) (49, 5.38831710815429690000e-001) (50, -1.42852604389190670000e-001) (51, -5.86741566658020020000e-001) (52, 3.29400849342346190000e+000) (53, 1.13070929050445560000e+000) (54, 2.87899494171142580000e-001) (55, 1.23223356902599330000e-001) (56, 7.30533421039581300000e-001) (57, 1.09347379207611080000e+000) (58, 9.87815916538238530000e-001) (59, 1.36326706409454350000e+000) (60, 7.19893574714660640000e-001) (61, 6.44057989120483400000e-001) (62, 8.09275388717651370000e-001) (63, 1.43633437156677250000e+000) (64, 5.70183336734771730000e-001) (65, 5.75086116790771480000e-001) (66, 4.40253108739852910000e-001) (67, -3.92227880656719210000e-002) (68, -2.38705825805664060000e+000) (69, 7.21248090267181400000e-001) (70, 6.53452098369598390000e-001) (71, 6.93801268935203550000e-002) (72, 6.49856984615325930000e-001) (73, 3.61782741546630860000e+000) (74, 1.09317958354949950000e+000) (75, -3.77424925565719600000e-001) (76, 3.08295679092407230000e+000) (77, -4.53643292188644410000e-001) (78, 1.84657001495361330000e+000) (79, -1.48490405082702640000e+000) (80, -2.72537946701049800000e-001) (81, 3.24916839599609380000e-001) (82, 1.38823881745338440000e-001) (83, 3.65123331546783450000e-001) (84, 7.31885075569152830000e-001) (85, 7.48490869998931880000e-001) (86, -4.63638395071029660000e-001) (87, 4.21287119388580320000e-001) (88, -2.22332984209060670000e-001) (89, 9.49571013450622560000e-001) (90, 7.71528363227844240000e-001) (91, 3.67801934480667110000e-001) (92, -3.53623747825622560000e-001) (93, 6.06076538562774660000e-001) (94, 1.61257493495941160000e+000) (95, 8.02981913089752200000e-001) (96, -1.33918467909097670000e-002) (97, 1.94962584972381590000e+000) (98, 8.95606935024261470000e-001) (99, 8.13353836536407470000e-001) (100, -1.39147698879241940000e-001) (101, 2.01058387756347660000e-001) (102, -3.79755467176437380000e-001) (103, 1.52407312393188480000e+000) (104, 1.74081730842590330000e+000) (105, -1.48719847202301030000e-001) (106, -1.35648977756500240000e+000) (107, -3.22302579879760740000e-001) (108, -1.04249499738216400000e-001) (109, 6.05843007564544680000e-001) (110, 4.37178313732147220000e-001) (111, -4.16701659560203550000e-003) (112, 4.14896428585052490000e-001) (113, 1.87982702255249020000e+000) (114, 1.59584450721740720000e+000) (115, 7.62275040149688720000e-001) (116, -4.83119517564773560000e-001) (117, 3.05081754922866820000e-001) (118, 6.52943253517150880000e-001) (119, 1.52934062480926510000e+000) (120, 1.14703321456909180000e+000) (121, 2.99103915691375730000e-001) (122, -6.09057068824768070000e-001) (123, -5.45157909393310550000e-001) (124, 2.53789949417114260000e+000) (125, -5.78268468379974370000e-001) (0, 3.25606465339660640000e-001) (1, -5.90890347957611080000e-001) (2, -1.16477288305759430000e-001) (3, 5.01489043235778810000e-001) (4, -6.98497891426086430000e-002) (5, 2.48759165406227110000e-001) (6, 6.20505034923553470000e-001) (7, 5.24031221866607670000e-001) (8, 1.04120695590972900000e+000) (9, 2.61522829532623290000e-001) (10, 2.23699435591697690000e-001) (11, -3.93913537263870240000e-001) (12, 2.01199397444725040000e-001) (13, 5.66161036491394040000e-001) (14, -1.75875708460807800000e-001) (15, 1.11577428877353670000e-001) (16, -4.29635435342788700000e-001) (17, 5.89706152677536010000e-002) (18, 7.32945442199707030000e-001) (19, -3.16567532718181610000e-002) (20, 6.40662983059883120000e-002) (21, -3.06825190782547000000e-001) (22, -2.33110845088958740000e-001) (23, -4.60760533809661870000e-001) (24, -1.65978297591209410000e-001) (25, -3.07939648628234860000e-001) (26, 1.28179296851158140000e-001) (27, 1.84475600719451900000e-001) (28, -5.18400788307189940000e-001) (29, -7.08902776241302490000e-001) (30, 3.63601714372634890000e-001) (31, 2.63901442289352420000e-001) (32, 5.09254515171051030000e-001) (33, -6.22023284435272220000e-001) (34, -7.45106697082519530000e-001) (35, 4.93449687957763670000e-001) (36, 2.82079935073852540000e-001) (37, 2.71912097930908200000e-001) (38, 4.62871521711349490000e-001) (39, -5.80697476863861080000e-001) (40, 4.50617186725139620000e-002) (41, 8.61410975456237790000e-001) (42, -1.11985516548156740000e+000) (43, 6.33534312248229980000e-001) (44, -1.58557012677192690000e-001) (45, -4.06351536512374880000e-001) (46, -1.37775349617004390000e+000) (47, 1.47281378507614140000e-001) (48, 3.64978462457656860000e-001) (49, -9.04248952865600590000e-001) (50, -5.40499985218048100000e-001) (51, -1.37928098440170290000e-001) (52, 1.15369036793708800000e-001) (53, 1.41502761840820310000e+000) (54, -4.43190276622772220000e-001) (55, -2.87289731204509740000e-002) (56, -8.55819046497344970000e-001) (57, -1.72073912620544430000e+000) (58, -1.22178328037261960000e+000) (59, -9.25633132457733150000e-001) (60, 1.98259744793176650000e-002) (61, -2.33193612098693850000e+000) (62, -5.49966216087341310000e-001) (63, 4.51091432571411130000e+000) (64, -3.12100201845169070000e-001) (65, -8.07690471410751340000e-002) (66, -1.89463138580322270000e-001) (67, 5.00911533832550050000e-001) (68, 7.40832760930061340000e-002) (69, -1.83794844150543210000e+000) (70, -2.00904548168182370000e-001) (71, 1.08158850669860840000e+000) (72, -1.41233548521995540000e-001) (73, 5.30170261859893800000e-001) (74, -7.34529078006744380000e-001) (75, -8.39088737964630130000e-001) (76, -8.49127411842346190000e-001) (77, -5.21357774734497070000e-001) (78, -2.25148335099220280000e-001) (79, 4.16487902402877810000e-001) (80, -1.39005959033966060000e+000) (81, -7.97124803066253660000e-001) (82, 7.04001709818840030000e-002) (83, -6.65463447570800780000e-001) (84, 9.95714366436004640000e-001) (85, -1.66522765159606930000e+000) (86, -2.67478406429290770000e-001) (87, -2.41818949580192570000e-001) (88, -7.15534538030624390000e-002) (89, 4.47371341288089750000e-002) (90, 4.57676172256469730000e-001) (91, 4.46271091699600220000e-001) (92, 8.92099916934967040000e-001) (93, -1.86473965644836430000e-001) (94, 7.47276395559310910000e-002) (95, -9.61023494601249690000e-002) (96, 2.88198530673980710000e-001) (97, -1.06992495059967040000e+000) (98, 2.05324605107307430000e-001) (99, -7.73635029792785640000e-001) (100, -7.72833406925201420000e-001) (101, -7.59000122547149660000e-001) (102, -1.23661625385284420000e+000) (103, 7.13953077793121340000e-001) (104, -1.83232039213180540000e-001) (105, -2.44419559836387630000e-001) (106, 3.96842956542968750000e-001) (107, -4.95820432901382450000e-001) (108, 9.33387637138366700000e-001) (109, -8.30112695693969730000e-001) (110, -3.21792900562286380000e-001) (111, 4.37867462635040280000e-001) (112, 6.73251330852508540000e-001) (113, 8.31358313560485840000e-001) (114, 4.62115287780761720000e-001) (115, 2.55591291934251790000e-002) (116, 5.80037534236907960000e-001) (117, 2.49644741415977480000e-002) (118, -1.99026715755462650000e+000) (119, -1.86338829994201660000e+000) (120, 7.46400421485304830000e-003) (121, 5.48873133957386020000e-002) (122, 3.38959693908691410000e-001) (123, -5.70597052574157710000e-001) (124, 2.20068320631980900000e-001) (125, 5.57710349559783940000e-001) (0, 1.27610099315643310000e+000) (1, 1.46353304386138920000e+000) (2, -1.07911944389343260000e+000) (3, 8.20786237716674800000e-001) (4, -6.50168284773826600000e-002) (5, 1.10639584064483640000e+000) (6, 2.67556691169738770000e+000) (7, 5.48116981983184810000e-001) (8, 1.02814531326293950000e+000) (9, 1.02462160587310790000e+000) (10, 7.33811557292938230000e-001) (11, -1.09027564525604250000e+000) (12, 5.03263235092163090000e-001) (13, 2.59157347679138180000e+000) (14, -6.70710802078247070000e-002) (15, 1.12298381328582760000e+000) (16, 1.03632164001464840000e+000) (17, -7.99063086509704590000e-001) (18, 1.20296692475676540000e-002) (19, -8.30736875534057620000e-001) (20, -2.82606035470962520000e-001) (21, 2.10593080520629880000e+000) (22, -7.14673936367034910000e-001) (23, 7.37817287445068360000e-002) (24, -1.91455900669097900000e-001) (25, 4.82453078031539920000e-001) (26, -1.82002222537994380000e+000) (27, -1.46978068351745610000e+000) (28, -6.90716654062271120000e-002) (29, -4.49869483709335330000e-002) (30, 2.78643876314163210000e-001) (31, -3.00817561149597170000e+000) (32, 2.51257157325744630000e+000) (33, 5.30769407749176030000e-001) (34, -4.27217446267604830000e-002) (35, 5.33350527286529540000e-001) (36, -3.82025837898254390000e-001) (37, 5.91786980628967290000e-001) (38, -4.90783125162124630000e-001) (39, -6.77996948361396790000e-002) (40, 4.98673009872436520000e+000) (41, 9.22273695468902590000e-001) (42, 9.53206956386566160000e-001) (43, 8.33990633487701420000e-001) (44, 1.37837365269660950000e-001) (45, 3.66339385509490970000e-001) (46, 5.15282630920410160000e-001) (47, -4.92015123367309570000e-001) (48, 4.62913244962692260000e-001) (49, 6.55968964099884030000e-001) (50, 1.10862398147583010000e+000) (51, -1.00421285629272460000e+000) (52, 6.23966932296752930000e-001) (53, 1.20787012577056880000e+000) (54, 4.60253059864044190000e-002) (55, -2.85729140043258670000e-001) (56, -7.82316267490386960000e-001) (57, 3.15622043609619140000e+000) (58, 1.48551571369171140000e+000) (59, -6.31644427776336670000e-001) (60, 3.14695298671722410000e-001) (61, -8.49338531494140620000e+000) (62, 9.50698971748352050000e-001) (63, -4.13121551275253300000e-001) (64, -1.28303676843643190000e-001) (65, 3.52260082960128780000e-001) (66, -4.79608178138732910000e-002) (67, 2.29287669062614440000e-001) (68, -9.57685291767120360000e-001) (69, -2.27054810523986820000e+000) (70, 2.62215644121170040000e-001) (71, -2.16937851905822750000e+000) (72, -2.91784524917602540000e+000) (73, -3.65312933921813960000e-001) (74, -8.75822663307189940000e-001) (75, 1.93717747926712040000e-001) (76, 2.06821203231811520000e+000) (77, -8.51157128810882570000e-001) (78, -9.10059213638305660000e-001) (79, 1.41451418399810790000e-001) (80, 2.47387811541557310000e-001) (81, 1.78750312328338620000e+000) (82, -1.02292269468307500000e-001) (83, -9.33346629142761230000e-001) (84, 6.70133948326110840000e-001) (85, -8.18174481391906740000e-001) (86, 3.92040848731994630000e-001) (87, 1.79452621936798100000e+000) (88, -8.93705636262893680000e-002) (89, -1.21203690767288210000e-001) (90, -2.63605684041976930000e-001) (91, -4.32563591003417970000e+000) (92, 3.61103534698486330000e-001) (93, 1.27141380310058590000e+000) (94, -9.98703241348266600000e-002) (95, -1.29700899124145510000e+000) (96, -1.20670127868652340000e+000) (97, 2.39721536636352540000e+000) (98, 9.79471862316131590000e-001) (99, 3.60796689987182620000e-001) (100, 1.13312077522277830000e+000) (101, 2.30755257606506350000e+000) (102, 2.03566527366638180000e+000) (103, 2.23173335194587710000e-001) (104, -4.79270815849304200000e-001) (105, 8.72949063777923580000e-001) (106, 3.43255662918090820000e+000) (107, 5.88802397251129150000e-001) (108, -8.18687081336975100000e-001) (109, -1.52232989668846130000e-001) (110, -1.10853657126426700000e-001) (111, 1.45884954929351810000e+000) (112, -5.54020309448242190000e+000) (113, 3.01130032539367680000e+000) (114, -1.17001399397850040000e-001) (115, 3.62313508987426760000e-001) (116, -6.31734490394592290000e-001) (117, 6.35793387889862060000e-001) (118, 2.15472650527954100000e+000) (119, 3.86526972055435180000e-001) (120, -1.57814443111419680000e-001) (121, 2.73443162441253660000e-001) (122, -1.77782213687896730000e+000) (123, -8.38695406913757320000e-001) (124, 8.90810191631317140000e-002) (125, -2.45291203260421750000e-001) (0, 3.59715312719345090000e-001) (1, -1.35232281684875490000e+000) (2, -6.90177977085113530000e-001) (3, -2.39341542124748230000e-001) (4, 1.19355070590972900000e+000) (5, 2.61170685291290280000e-001) (6, -1.42298054695129390000e+000) (7, 5.61677634716033940000e-001) (8, 3.82942944765090940000e-001) (9, -2.43108630180358890000e+000) (10, -8.71141999959945680000e-002) (11, -9.55636262893676760000e-001) (12, -5.91388251632452010000e-003) (13, 2.42466902732849120000e+000) (14, 6.49161815643310550000e-001) (15, -1.84977030754089360000e+000) (16, 1.53444886207580570000e-001) (17, 1.46151959896087650000e+000) (18, 2.87169575691223140000e-001) (19, -1.68940830230712890000e+000) (20, -8.97781848907470700000e-002) (21, 3.03916811943054200000e-001) (22, -8.91874611377716060000e-001) (23, -2.78305530548095700000e-001) (24, -7.88890242576599120000e-001) (25, 3.71109515428543090000e-001) (26, -1.46349000930786130000e+000) (27, 5.85630416870117190000e-001) (28, 9.08433794975280760000e-001) (29, -3.53905521333217620000e-002) (30, 4.78682041168212890000e-001) (31, 1.16022181510925290000e+000) (32, 9.71518278121948240000e-001) (33, 1.11023461818695070000e+000) (34, -2.01523955911397930000e-002) (35, 1.14017195999622340000e-001) (36, -1.10730968415737150000e-001) (37, -2.05255478620529170000e-001) (38, -1.11591684818267820000e+000) (39, -1.28637695312500000000e+000) (40, -7.15419828891754150000e-001) (41, 1.84559178352355960000e+000) (42, -6.27480626106262210000e-001) (43, 5.69439470767974850000e-001) (44, -8.16684007644653320000e-001) (45, -5.07030785083770750000e-001) (46, -1.53147518634796140000e+000) (47, 6.22306525707244870000e-001) (48, -9.69764053821563720000e-001) (49, 4.75317358970642090000e-001) (50, 2.43095353245735170000e-001) (51, -8.84280383586883540000e-001) (52, 1.51998788118362430000e-001) (53, 3.27837020158767700000e-001) (54, -5.11738598346710210000e-001) (55, 2.80084878206253050000e-001) (56, -2.46766757965087890000e+000) (57, -4.47863727807998660000e-001) (58, 6.00714504718780520000e-001) (59, -2.06495094299316410000e+000) (60, -6.82105779647827150000e-001) (61, -6.98737764358520510000e+000) (62, 8.68048071861267090000e-002) (63, 7.01735448837280270000e+000) (64, -2.65026497840881350000e+000) (65, -1.41041904687881470000e-001) (66, 1.48876392841339110000e+000) (67, 3.37719082832336430000e-001) (68, 2.43906331062316890000e+000) (69, -3.06426310539245610000e+000) (70, -1.34452843666076660000e+000) (71, 1.45405757427215580000e+000) (72, 3.60217303037643430000e-001) (73, 1.32983398437500000000e+000) (74, 1.06661155819892880000e-001) (75, 9.57371592521667480000e-002) (76, -1.30235314369201660000e+000) (77, 4.96664382517337800000e-002) (78, 3.17458450794219970000e-001) (79, 5.07813215255737300000e-001) (80, -1.11477551981806760000e-002) (81, 7.16710865497589110000e-001) (82, 3.19067984819412230000e-001) (83, 1.09580707550048830000e+000) (84, 8.11670064926147460000e-001) (85, -1.01639844477176670000e-001) (86, -7.40060433745384220000e-002) (87, -1.59201443195343020000e-001) (88, 4.25793200731277470000e-001) (89, -8.28359484672546390000e-001) (90, -6.03928387165069580000e-001) (91, 2.20501516014337540000e-002) (92, 1.54855251312255860000e+000) (93, -8.16168338060379030000e-002) (94, -9.32060062885284420000e-001) (95, -7.90659040212631230000e-002) (96, 5.38070380687713620000e-001) (97, -1.64335831999778750000e-001) (98, 7.32003569602966310000e-001) (99, 7.81824409961700440000e-001) (100, 3.26992034912109380000e-001) (101, 7.10404962301254270000e-002) (102, -5.81040494143962860000e-002) (103, 8.51472198963165280000e-001) (104, -2.44433447718620300000e-001) (105, 2.66878008842468260000e-001) (106, 1.36345893144607540000e-001) (107, -4.13987010717391970000e-001) (108, 3.30785244703292850000e-001) (109, -5.98360478878021240000e-001) (110, -5.21710157394409180000e-001) (111, 3.24579507112503050000e-001) (112, -1.31192505359649660000e+000) (113, 8.91005516052246090000e-001) (114, -1.85320508480072020000e+000) (115, -8.39585244655609130000e-001) (116, -9.18818354606628420000e-001) (117, -2.08342814445495610000e+000) (118, 3.21131944656372070000e+000) (119, -4.07336443662643430000e-001) (120, -1.80130153894424440000e-001) (121, 1.86661744117736820000e+000) (122, 1.59634447097778320000e+000) (123, -2.71171379089355470000e+000) (124, 1.14270173013210300000e-001) (125, -4.42335486412048340000e-001) (0, -2.43022799491882320000e-001) (1, -2.21471476554870610000e+000) (2, 2.19058203697204590000e+000) (3, 3.58245402574539180000e-001) (4, 1.64964199066162110000e+000) (5, -4.04348582029342650000e-001) (6, -1.24946653842926030000e+000) (7, 1.01137435436248780000e+000) (8, 2.01894998550415040000e+000) (9, -3.50267916917800900000e-001) (10, -5.54547607898712160000e-001) (11, 1.89891374111175540000e+000) (12, 5.53493857383728030000e-001) (13, 1.27312874794006350000e+000) (14, 9.03126895427703860000e-001) (15, -1.01643514633178710000e+000) (16, 2.40863531827926640000e-001) (17, -2.14538407325744630000e+000) (18, -7.76264727115631100000e-001) (19, 1.61882531642913820000e+000) (20, 9.57394689321517940000e-002) (21, -3.16206789016723630000e+000) (22, -1.29212272167205810000e+000) (23, -5.22605180740356450000e-001) (24, 2.40522432327270510000e+000) (25, -4.21720206737518310000e-001) (26, 3.57599139213562010000e+000) (27, 1.23208141326904300000e+000) (28, 1.80227708816528320000e+000) (29, 1.99064946174621580000e+000) (30, -3.84268075227737430000e-001) (31, -1.59505414962768550000e+000) (32, 4.49763917922973630000e+000) (33, 1.40356314182281490000e+000) (34, -5.64790606498718260000e-001) (35, -7.58560234680771830000e-003) (36, -3.43416303396224980000e-001) (37, 3.73043596744537350000e-001) (38, -2.43092894554138180000e+000) (39, -4.11457926034927370000e-001) (40, 4.51791524887084960000e+000) (41, 1.71592295169830320000e+000) (42, 2.47270607948303220000e+000) (43, 2.52148330211639400000e-001) (44, 8.36977735161781310000e-002) (45, 4.93800997734069820000e-001) (46, -7.30453372001647950000e-001) (47, -1.61755359172821040000e+000) (48, -1.03324711322784420000e+000) (49, 1.41040039062500000000e+000) (50, -3.25493395328521730000e-001) (51, -2.67897653579711910000e+000) (52, 1.33285415172576900000e+000) (53, -3.13706815242767330000e-001) (54, 1.24797560274600980000e-001) (55, -4.36383903026580810000e-001) (56, -5.67712604999542240000e-001) (57, 1.27063393592834470000e+000) (58, 1.11524391174316410000e+000) (59, 3.38896322250366210000e+000) (60, 3.98166626691818240000e-001) (61, -1.69304502010345460000e+000) (62, 4.31990337371826170000e+000) (63, 3.18426918983459470000e+000) (64, 3.26035690307617190000e+000) (65, -5.74775896966457370000e-002) (66, 5.66370189189910890000e-001) (67, 2.57722772657871250000e-002) (68, 1.42742663621902470000e-001) (69, 4.26861810684204100000e+000) (70, -9.35149490833282470000e-002) (71, 1.51095792651176450000e-001) (72, 1.26550424098968510000e+000) (73, 3.12892824411392210000e-001) (74, -2.09278774261474610000e+000) (75, -4.45484429597854610000e-001) (76, -2.37296715378761290000e-001) (77, -1.79478323459625240000e+000) (78, 1.47929942607879640000e+000) (79, -2.86875295639038090000e+000) (80, -3.25554519891738890000e-001) (81, 5.87988138198852540000e-001) (82, 2.49509751796722410000e-001) (83, 2.90182471275329590000e-001) (84, 1.14423120021820070000e+000) (85, 3.28315168619155880000e-001) (86, 9.32434737682342530000e-001) (87, 3.71112346649169920000e+000) (88, 1.84499025344848630000e+000) (89, 9.72698152065277100000e-001) (90, 1.24263584613800050000e+000) (91, 4.74170595407485960000e-002) (92, -1.46535992622375490000e+000) (93, 2.89716315269470210000e+000) (94, 6.85351991653442380000e+000) (95, 1.42185354232788090000e+000) (96, 8.73793810606002810000e-002) (97, 2.75368094444274900000e-001) (98, -1.03203892707824710000e+000) (99, 6.53117656707763670000e-001) (100, -4.36394304037094120000e-001) (101, 5.53528904914855960000e-001) (102, 1.02990615367889400000e+000) (103, -9.87999811768531800000e-002) (104, 1.12075507640838620000e+000) (105, -2.45426744222640990000e-001) (106, 1.68857499957084660000e-001) (107, -1.32400107383728030000e+000) (108, 9.60303992033004760000e-002) (109, 1.12577915191650390000e+000) (110, -3.38174015283584590000e-001) (111, 6.87743008136749270000e-001) (112, -4.10380601882934570000e-001) (113, 2.05277514457702640000e+000) (114, -1.13690316677093510000e+000) (115, -9.00447964668273930000e-002) (116, -2.33743214607238770000e+000) (117, 2.64154386520385740000e+000) (118, 4.98213797807693480000e-001) (119, 4.21708059310913090000e+000) (120, -2.49602690339088440000e-001) (121, 3.34965497255325320000e-001) (122, 1.57439625263214110000e+000) (123, 1.21815335750579830000e+000) (124, 1.19827175140380860000e+000) (125, 7.38986670970916750000e-001) (0, 5.67624390125274660000e-001) (1, -1.64677596092224120000e+000) (2, -6.00094974040985110000e-001) (3, -4.13399308919906620000e-001) (4, -3.06212484836578370000e-001) (5, 3.04241359233856200000e-001) (6, 2.19517159461975100000e+000) (7, 1.57295894622802730000e+000) (8, -2.68735647201538090000e+000) (9, 1.18137396872043610000e-001) (10, 1.55523478984832760000e+000) (11, -7.17367410659790040000e-001) (12, 2.41079664230346680000e+000) (13, 1.89517617225646970000e+000) (14, 1.21300530433654790000e+000) (15, 2.30024695396423340000e+000) (16, 1.56202161312103270000e+000) (17, 1.31258535385131840000e+000) (18, -1.72561228275299070000e+000) (19, 4.00202274322509770000e-002) (20, 3.01230549812316890000e-001) (21, 1.02805006504058840000e+000) (22, 1.71776723861694340000e+000) (23, 3.49833905696868900000e-001) (24, 1.99969494342803960000e+000) (25, 1.23394139111042020000e-001) (26, 1.81583642959594730000e-001) (27, 1.28043249249458310000e-001) (28, -8.68159160017967220000e-003) (29, 1.12409806251525880000e+000) (30, -4.44336906075477600000e-002) (31, -1.38037014007568360000e+000) (32, -3.33868920803070070000e-001) (33, 6.09306804835796360000e-002) (34, 5.16362130641937260000e-001) (35, -8.69396984577178960000e-001) (36, 4.11636859178543090000e-001) (37, 7.06597208976745610000e-001) (38, 7.32608842849731450000e+000) (39, 6.39969348907470700000e-001) (40, 5.36362934112548830000e+000) (41, 3.39955925941467290000e+000) (42, 2.58834630250930790000e-001) (43, 5.77634632587432860000e-001) (44, -1.17926192283630370000e+000) (45, 1.53979253768920900000e+000) (46, 2.95820450782775880000e+000) (47, -1.69932532310485840000e+000) (48, -3.23527216911315920000e-001) (49, -8.52654993534088130000e-001) (50, 1.03757882118225100000e+000) (51, -1.04182624816894530000e+000) (52, -2.54590320587158200000e+000) (53, 2.86115527153015140000e+000) (54, -1.10363888740539550000e+000) (55, 1.34877383708953860000e-001) (56, -2.40477061271667480000e+000) (57, -1.01235997676849370000e+000) (58, 1.51775312423706050000e+000) (59, 2.06644248962402340000e+000) (60, 1.50536000728607180000e+000) (61, 2.22597852349281310000e-001) (62, 1.33422338962554930000e+000) (63, 6.68947267532348630000e+000) (64, 5.59500169754028320000e+000) (65, 4.61253929138183590000e+000) (66, 4.39730323851108550000e-002) (67, 1.42653703689575200000e+000) (68, 2.31194353103637700000e+000) (69, -1.08249211311340330000e+000) (70, 4.27652215957641600000e+000) (71, 2.72796396166086200000e-002) (72, -9.49043393135070800000e-001) (73, 1.39675319194793700000e+000) (74, -1.84775519371032710000e+000) (75, 2.14012527465820310000e+000) (76, -6.25357806682586670000e-001) (77, 2.85389971733093260000e+000) (78, 3.00826334953308110000e+000) (79, 8.37277948856353760000e-001) (80, -2.09075957536697390000e-001) (81, 1.67970585823059080000e+000) (82, -2.89749316871166230000e-002) (83, -4.57277968525886540000e-002) (84, 4.79063367843627930000e+000) (85, -1.79608535766601560000e+000) (86, 1.06694889068603520000e+000) (87, -1.79477322101593020000e+000) (88, -2.51413440704345700000e+000) (89, 2.62069892883300780000e+000) (90, 7.98833787441253660000e-001) (91, -3.22352737188339230000e-001) (92, 2.18680405616760250000e+000) (93, -1.88685584068298340000e+000) (94, -2.78234750032424930000e-001) (95, 3.13154816627502440000e+000) (96, -9.42022278904914860000e-002) (97, -5.76676167547702790000e-002) (98, -4.32739925384521480000e+000) (99, -1.63087069988250730000e+000) (100, 1.17351782321929930000e+000) (101, 1.40445515513420100000e-001) (102, 4.63344812393188480000e+000) (103, 2.92926311492919920000e+000) (104, -2.02820952981710430000e-002) (105, 1.40910282731056210000e-001) (106, -1.23307511210441590000e-001) (107, 3.30710858106613160000e-001) (108, 4.94196462631225590000e+000) (109, 8.69581878185272220000e-001) (110, 1.34795320034027100000e+000) (111, 1.42094540596008300000e+000) (112, 2.69702482223510740000e+000) (113, 2.37044110894203190000e-001) (114, 1.24304659664630890000e-001) (115, 4.87752199172973630000e+000) (116, 6.68255209922790530000e-001) (117, 1.48218953609466550000e+000) (118, -2.56351995468139650000e+000) (119, -6.07114493846893310000e-001) (120, 3.72181057929992680000e+000) (121, 2.71917128562927250000e+000) (122, 1.04101169109344480000e+000) (123, 2.67105388641357420000e+000) (124, -1.08286511898040770000e+000) (125, -3.12291193008422850000e+000) (0, -3.56341272592544560000e-001) (1, 9.03853893280029300000e-001) (2, -4.31349635124206540000e-001) (3, 4.90529596805572510000e-001) (4, 1.39832270145416260000e+000) (5, -4.18972551822662350000e-001) (6, 1.24248838424682620000e+000) (7, 7.52610206604003910000e-001) (8, 2.79948544502258300000e+000) (9, 1.10338711738586430000e+000) (10, -6.78091570734977720000e-002) (11, 2.82233548164367680000e+000) (12, 6.61017060279846190000e-001) (13, 4.83925819396972660000e+000) (14, 7.41245627403259280000e-001) (15, 2.19549268484115600000e-001) (16, -1.21396040916442870000e+000) (17, -1.31621932983398440000e+000) (18, 6.79125165939331050000e+000) (19, 6.28242909908294680000e-001) (20, -7.13154375553131100000e-001) (21, -3.32392692565917970000e+000) (22, 3.45176744461059570000e+000) (23, -6.09147727489471440000e-001) (24, -7.08864152431488040000e-001) (25, -3.42330992221832280000e-001) (26, -5.99543809890747070000e-001) (27, 1.07929062843322750000e+000) (28, 4.98754262924194340000e-001) (29, 3.19162189960479740000e-001) (30, -1.72541085630655290000e-002) (31, 1.72645020484924320000e+000) (32, 2.26162657141685490000e-001) (33, -2.19167923927307130000e+000) (34, 4.87721003592014310000e-002) (35, 6.98713183403015140000e-001) (36, 2.54260492324829100000e+000) (37, 5.21468639373779300000e+000) (38, 1.55202746391296390000e+000) (39, 3.11348706483840940000e-001) (40, -3.11656683683395390000e-001) (41, 2.82468891143798830000e+000) (42, -3.91345906257629390000e+000) (43, -3.50212186574935910000e-001) (44, 2.15568852424621580000e+000) (45, -9.41138923168182370000e-001) (46, 3.66772085428237920000e-001) (47, 3.35131645202636720000e+000) (48, 5.98737001419067380000e-001) (49, 4.56720730289816860000e-003) (50, 2.05944180488586430000e-001) (51, -2.85741400718688960000e+000) (52, 2.19658517837524410000e+000) (53, -9.16128158569335940000e-001) (54, -3.67176324129104610000e-001) (55, 1.74817517399787900000e-001) (56, -2.43926382064819340000e+000) (57, -5.28990089893341060000e-001) (58, 3.40817451477050780000e-001) (59, -6.54527962207794190000e-001) (60, 2.35273987054824830000e-001) (61, -2.96666030883789060000e+001) (62, 1.45989351272583010000e+001) (63, 3.70720291137695310000e+000) (64, 5.39691925048828130000e-001) (65, -5.77523469924926760000e-001) (66, -2.63028955459594730000e+000) (67, -2.69640350341796870000e+000) (68, -4.71830785274505620000e-001) (69, 4.29357647895812990000e-001) (70, -4.19009780883789060000e+000) (71, 1.76794362068176270000e+000) (72, 1.77225220203399660000e+000) (73, 8.44426453113555910000e-001) (74, -1.61312270164489750000e+000) (75, -1.99721002578735350000e+000) (76, -1.78964424133300780000e+000) (77, -2.39967942237854000000e+000) (78, 7.20828413963317870000e-001) (79, 1.63068938255310060000e+000) (80, -1.58654868602752690000e+000) (81, -3.62564349174499510000e+000) (82, 5.48249423503875730000e-001) (83, 6.49510741233825680000e-001) (84, -3.89204382896423340000e-001) (85, -4.15272206068038940000e-001) (86, 1.15408194065093990000e+000) (87, 1.85764682292938230000e+000) (88, -2.49728277325630190000e-001) (89, -3.70473086833953860000e-001) (90, -1.27457946538925170000e-001) (91, 2.07821536064147950000e+000) (92, 9.04959976673126220000e-001) (93, 1.82417654991149900000e+000) (94, 8.26422214508056640000e-001) (95, -7.40699544548988340000e-002) (96, 6.89421832561492920000e-001) (97, -1.15509760379791260000e+000) (98, 2.00298714637756350000e+000) (99, 5.98816335201263430000e-001) (100, -9.73606050014495850000e-001) (101, 1.04246985912323000000e+000) (102, 5.55170297622680660000e-001) (103, -1.06497049331665040000e+000) (104, -2.19529891014099120000e+000) (105, -2.91368633508682250000e-001) (106, -3.43911767005920410000e-001) (107, 1.92226245999336240000e-001) (108, -3.83929520845413210000e-001) (109, -3.85999351739883420000e-001) (110, 2.21983656287193300000e-001) (111, 3.71796280145645140000e-001) (112, 7.81458497047424320000e-001) (113, 1.33510398864746090000e+000) (114, 9.68242883682250980000e-001) (115, 2.37527146935462950000e-001) (116, 6.09151303768157960000e-001) (117, -1.16291236877441410000e+000) (118, 2.71341234445571900000e-001) (119, 8.31972420215606690000e-001) (120, -9.40787374973297120000e-001) (121, 1.72121763229370120000e+000) (122, -9.38561320304870610000e-001) (123, 1.85372006893157960000e+000) (124, 1.27205634117126460000e+000) (125, -1.25528311729431150000e+000) (0, -8.06531846523284910000e-001) (1, -2.87276655435562130000e-001) (2, 2.30845764279365540000e-001) (3, 8.24101030826568600000e-001) (4, 9.31154966354370120000e-001) (5, -7.03961551189422610000e-001) (6, 2.08037042617797850000e+000) (7, 1.04471290111541750000e+000) (8, 8.18234145641326900000e-001) (9, 4.01342213153839110000e-001) (10, -3.54680791497230530000e-002) (11, 8.88199269771575930000e-001) (12, 4.79116082191467290000e-001) (13, 1.28612041473388670000e+000) (14, 6.66334211826324460000e-001) (15, -6.57453298568725590000e-001) (16, 2.53969454206526280000e-003) (17, 1.70704171061515810000e-001) (18, 1.73999297618865970000e+000) (19, -5.02665638923645020000e-001) (20, -1.77019089460372920000e-001) (21, -4.69901382923126220000e-001) (22, 2.08408400416374210000e-001) (23, -9.07465696334838870000e-001) (24, -5.64322769641876220000e-001) (25, -5.33803343772888180000e-001) (26, 1.21803271770477290000e+000) (27, -3.07149235159158710000e-002) (28, -3.61625343561172490000e-001) (29, 1.98413789272308350000e+000) (30, 1.30229339003562930000e-001) (31, -1.03848326206207280000e+000) (32, 6.69550776481628420000e-001) (33, 4.58746016025543210000e-001) (34, 9.82238113880157470000e-001) (35, 3.32156091928482060000e-001) (36, 1.12082958221435550000e+000) (37, 7.21663594245910640000e-001) (38, -1.07722544670104980000e+000) (39, 5.61390817165374760000e-001) (40, 5.58389686048030850000e-002) (41, 1.24952554702758790000e-001) (42, -1.01460909843444820000e+000) (43, 1.29262435436248780000e+000) (44, -6.84775292873382570000e-001) (45, -4.53519374132156370000e-001) (46, -8.06337475776672360000e-001) (47, 7.36617386341094970000e-001) (48, -1.30337893962860110000e-001) (49, 7.02746883034706120000e-002) (50, -8.36855828762054440000e-001) (51, -3.06001394987106320000e-001) (52, -9.73046362400054930000e-001) (53, 3.68262752890586850000e-002) (54, 5.71593642234802250000e-001) (55, -7.57195234298706050000e-001) (56, -4.71099108457565310000e-001) (57, 6.19905233383178710000e-001) (58, 2.08195567131042480000e+000) (59, 1.49257278442382810000e+000) (60, 5.61453290283679960000e-002) (61, -7.66823005676269530000e+000) (62, 3.73578339815139770000e-001) (63, 1.41544079780578610000e+000) (64, 5.55318593978881840000e-001) (65, -1.25649213790893550000e-001) (66, -1.94942340254783630000e-001) (67, -4.96492326259613040000e-001) (68, -3.42060834169387820000e-001) (69, 5.03961205482482910000e-001) (70, -4.18034136295318600000e-001) (71, -1.14208197593688960000e+000) (72, -8.76602411270141600000e-001) (73, 1.16821026802062990000e+000) (74, 3.81132245063781740000e-001) (75, -6.60727858543396000000e-001) (76, -3.45002204179763790000e-001) (77, 1.04045200347900390000e+000) (78, 1.55766677856445310000e+000) (79, 8.69459509849548340000e-002) (80, -7.43390500545501710000e-001) (81, 7.60042309761047360000e-001) (82, 8.81995558738708500000e-001) (83, 1.76056694984436040000e+000) (84, 2.00785920023918150000e-001) (85, -3.64803485572338100000e-002) (86, 1.28433465957641600000e-001) (87, 1.18053507804870610000e+000) (88, -3.67498606443405150000e-001) (89, 3.29142868518829350000e-001) (90, -2.26540163159370420000e-001) (91, -1.10417091846466060000e+000) (92, -3.08795452117919920000e-001) (93, -5.28531312942504880000e-001) (94, 3.05200695991516110000e-001) (95, 5.57831935584545140000e-002) (96, 3.24220567941665650000e-001) (97, 2.94942903518676760000e+000) (98, -9.54561829566955570000e-002) (99, 7.78004825115203860000e-002) (100, -8.77411425113677980000e-001) (101, 1.68854355812072750000e+000) (102, 8.20095181465148930000e-001) (103, 7.18243420124053960000e-001) (104, -2.26464986801147460000e+000) (105, -7.43234753608703610000e-001) (106, 6.94707155227661130000e-001) (107, 5.46850383281707760000e-001) (108, 2.85748600959777830000e-001) (109, 4.62770491838455200000e-001) (110, -1.06501579284667970000e-001) (111, -7.33922600746154790000e-001) (112, 6.91112339496612550000e-001) (113, 1.55636858940124510000e+000) (114, 4.37081098556518550000e-001) (115, -1.81247219443321230000e-001) (116, 3.17343562841415410000e-001) (117, 3.72283279895782470000e-001) (118, 8.69596898555755620000e-001) (119, 3.99222195148468020000e-001) (120, -6.22227825224399570000e-002) (121, 7.74334609508514400000e-001) (122, -5.10080099105834960000e-001) (123, -5.19016683101654050000e-001) (124, 2.05545037984848020000e-001) (125, -7.59591311216354370000e-002) (0, -3.30710696289315820000e-004) (1, -5.70639789104461670000e-001) (2, 8.82737338542938230000e-001) (3, -1.64101645350456240000e-001) (4, -2.42184132337570190000e-001) (5, 4.55939531326293950000e-001) (6, 6.64820909500122070000e-001) (7, -1.22861154377460480000e-001) (8, -4.66506093740463260000e-001) (9, -1.50194144248962400000e+000) (10, 3.45109313726425170000e-001) (11, -1.38337016105651860000e+000) (12, 3.06454688310623170000e-001) (13, -8.40214431285858150000e-001) (14, -1.50956225395202640000e+000) (15, 3.22884678840637210000e-001) (16, 2.62979221343994140000e+000) (17, -3.47921323776245120000e+000) (18, -1.90702688694000240000e+000) (19, -1.93789571523666380000e-001) (20, 2.52290070056915280000e-001) (21, -1.62145781517028810000e+000) (22, -3.18834614753723140000e+000) (23, -2.55284810066223140000e+000) (24, -9.21001210808753970000e-002) (25, 1.42980229854583740000e+000) (26, -3.17628741264343260000e-001) (27, 2.25253343582153320000e-001) (28, 2.34053388237953190000e-001) (29, -9.88030374050140380000e-001) (30, 3.12639760971069340000e+000) (31, -2.82229274511337280000e-001) (32, -8.18672299385070800000e-001) (33, -2.51195877790451050000e-002) (34, -2.90391176939010620000e-001) (35, 5.08515119552612300000e-001) (36, 3.85178327560424800000e-001) (37, -5.46565763652324680000e-002) (38, -3.50095123052597050000e-001) (39, -1.89453572034835820000e-001) (40, 3.27078819274902340000e-001) (41, -2.21976220607757570000e-001) (42, -1.56428325176239010000e+000) (43, -3.92789095640182500000e-001) (44, 5.01070469617843630000e-002) (45, 3.52714471518993380000e-002) (46, -3.47916066646575930000e-001) (47, -9.22170355916023250000e-002) (48, -1.68827319145202640000e+000) (49, 2.05235272645950320000e-001) (50, 9.45243060588836670000e-001) (51, -9.55384016036987300000e-001) (52, -1.08452033996582030000e+000) (53, 7.94797003269195560000e-001) (54, 7.36451968550682070000e-002) (55, 9.08137083053588870000e-001) (56, -2.76390492916107180000e-001) (57, -2.73160666227340700000e-001) (58, -1.31192171573638920000e+000) (59, -1.27428352832794190000e+000) (60, 4.55227017402648930000e-001) (61, 5.63104391098022460000e-001) (62, 6.07300139963626860000e-002) (63, -3.33043050765991210000e+000) (64, 8.53604972362518310000e-002) (65, 2.36523270606994630000e-001) (66, 1.13030767440795900000e+000) (67, -1.58753716945648190000e+000) (68, -6.94293677806854250000e-001) (69, 5.09007930755615230000e-001) (70, 1.38090744614601140000e-001) (71, -1.94026732444763180000e+000) (72, 3.54401946067810060000e-001) (73, 6.04451783001422880000e-002) (74, 6.45703971385955810000e-001) (75, 1.90325009822845460000e+000) (76, -7.26632595062255860000e-001) (77, -2.17687666416168210000e-001) (78, -8.41587603092193600000e-001) (79, -3.04944097995758060000e-001) (80, 8.59016835689544680000e-001) (81, -1.04105484485626220000e+000) (82, -1.14770305156707760000e+000) (83, -1.04515397548675540000e+000) (84, -2.55980372428894040000e-001) (85, 9.08574834465980530000e-002) (86, 5.30700445175170900000e-001) (87, -1.51844406127929690000e+000) (88, 3.46464723348617550000e-001) (89, 1.80209353566169740000e-001) (90, 3.06175619363784790000e-001) (91, 7.10050165653228760000e-001) (92, -7.58490741252899170000e-001) (93, -9.19739782810211180000e-001) (94, 5.65628170967102050000e-001) (95, 2.57808774709701540000e-001) (96, 1.36338829994201660000e-001) (97, 8.37662041187286380000e-001) (98, -4.82146330177783970000e-002) (99, 1.36841034889221190000e+000) (100, 1.02315878868103030000e+000) (101, 5.32118044793605800000e-002) (102, -2.26918768882751460000e+000) (103, -7.94322669506073000000e-001) (104, 1.97577023506164550000e+000) (105, 1.61762535572052000000e+000) (106, -2.20491692423820500000e-001) (107, -2.08914339542388920000e-001) (108, -3.03522753715515140000e+000) (109, 1.97272300720214840000e+000) (110, 3.03160846233367920000e-001) (111, -5.03109872341156010000e-001) (112, 2.22712248563766480000e-001) (113, -2.53560721874237060000e-001) (114, 3.30691933631896970000e-001) (115, 4.38095897436141970000e-001) (116, 2.43621645495295520000e-003) (117, -1.34653121232986450000e-001) (118, -1.08826947212219240000e+000) (119, 2.31876134872436520000e+000) (120, 1.53255119919776920000e-001) (121, -8.45929622650146480000e-001) (122, -7.40036249160766600000e-001) (123, -1.04438745975494380000e+000) (124, -6.85159921646118160000e-001) (125, -6.68243706226348880000e-001) (0, 2.44268327951431270000e-001) (1, -7.14891612529754640000e-001) (2, -4.45368051528930660000e-001) (3, 8.16396355628967290000e-001) (4, -1.04491972923278810000e+000) (5, 3.29370237886905670000e-002) (6, -1.03494070470333100000e-001) (7, 4.11551922559738160000e-001) (8, 2.11164975166320800000e+000) (9, -1.44527643918991090000e-001) (10, -9.39366161823272710000e-001) (11, -3.57145816087722780000e-001) (12, 1.25103628635406490000e+000) (13, -1.12874305248260500000e+000) (14, -1.94155015051364900000e-002) (15, -4.51856404542922970000e-001) (16, 2.25131916999816890000e+000) (17, 1.94510293006896970000e+000) (18, 7.41120874881744380000e-001) (19, -2.94707477092742920000e-001) (20, 2.84930706024169920000e-001) (21, 2.16017916798591610000e-001) (22, -1.05047011375427250000e+000) (23, 1.47864949703216550000e+000) (24, -5.88136255741119380000e-001) (25, 2.25336790084838870000e-001) (26, 1.18988668918609620000e+000) (27, -2.05999597907066350000e-001) (28, -7.89992392063140870000e-001) (29, -9.68780636787414550000e-001) (30, 5.26719450950622560000e-001) (31, 9.73693013191223140000e-001) (32, 1.12270690500736240000e-001) (33, 3.89675498008728030000e+000) (34, -1.42723894119262700000e+000) (35, -3.05098980665206910000e-001) (36, 3.10920536518096920000e-001) (37, 4.40023273229599000000e-001) (38, 5.56368708610534670000e-001) (39, 2.29476839303970340000e-002) (40, -2.82342471182346340000e-002) (41, 8.86654406785964970000e-002) (42, 1.63088512420654300000e+000) (43, 6.47813618183135990000e-001) (44, 7.46996402740478520000e-001) (45, -3.51952295750379560000e-003) (46, 5.85229918360710140000e-002) (47, -1.59945666790008540000e-001) (48, -5.63937891274690630000e-003) (49, -5.01356303691864010000e-001) (50, 3.87264341115951540000e-001) (51, 1.27860534191131590000e+000) (52, -5.82767903804779050000e-001) (53, -1.12483012676239010000e+000) (54, 6.32225513458251950000e-001) (55, 4.73844289779663090000e-001) (56, 7.14409053325653080000e-001) (57, -1.35383856296539310000e+000) (58, 8.85940074920654300000e-001) (59, -3.23176908493041990000e+000) (60, -4.24179404973983760000e-001) (61, -1.08114019036293030000e-001) (62, 3.02927970886230470000e+000) (63, 6.90284824371337890000e+000) (64, -7.22287535667419430000e-001) (65, -2.09423959255218510000e-001) (66, 3.02915906906127930000e+000) (67, 6.38113379478454590000e-001) (68, 8.91278445720672610000e-001) (69, -2.59875029325485230000e-001) (70, -3.01700681447982790000e-001) (71, -2.11191415786743160000e+000) (72, 5.29438614845275880000e-001) (73, -1.39124488830566410000e+000) (74, 8.00353348255157470000e-001) (75, -3.32000076770782470000e-001) (76, 1.20029401779174800000e+000) (77, -4.05779153108596800000e-001) (78, -1.46028339862823490000e-001) (79, -1.58834064006805420000e+000) (80, 9.62246730923652650000e-002) (81, 3.33654940128326420000e-001) (82, 2.25645333528518680000e-001) (83, -3.43450367450714110000e-001) (84, 4.52983289957046510000e-001) (85, -7.51283884048461910000e-001) (86, 7.10826098918914790000e-001) (87, 5.96991300582885740000e-001) (88, 2.04578828811645510000e+000) (89, -7.15968489646911620000e-001) (90, -6.58569531515240670000e-003) (91, -1.14914871752262120000e-001) (92, 1.47219192981719970000e+000) (93, -3.20354312658309940000e-001) (94, -4.58828061819076540000e-001) (95, -5.00997543334960940000e-001) (96, -2.66952276229858400000e-001) (97, 2.05990880727767940000e-001) (98, 1.00345993041992190000e+000) (99, 1.07094037532806400000e+000) (100, 5.55787160992622380000e-002) (101, 3.32174599170684810000e-001) (102, -9.99606430530548100000e-001) (103, 3.98815602064132690000e-001) (104, -1.75523795187473300000e-002) (105, 2.00922176241874690000e-001) (106, -5.94377696514129640000e-001) (107, 2.46561411768198010000e-002) (108, -5.27731239795684810000e-001) (109, -6.00967109203338620000e-001) (110, -6.17181599140167240000e-001) (111, -1.78294384479522710000e+000) (112, -7.04777657985687260000e-001) (113, -4.49675202369689940000e-001) (114, -3.66430461406707760000e-001) (115, -6.98965191841125490000e-001) (116, -1.69747543334960940000e+000) (117, 5.03528058528900150000e-001) (118, 3.80652174353599550000e-002) (119, -1.27711355686187740000e+000) (120, -3.04801225662231450000e-001) (121, -2.10990935564041140000e-001) (122, -2.06569910049438480000e-001) (123, -5.77736198902130130000e-001) (124, -1.78992733359336850000e-001) (125, 3.55358928442001340000e-001) (0, 1.57639133930206300000e+000) (1, 1.17742061614990230000e+000) (2, 1.30800867080688480000e+000) (3, -4.21313375234603880000e-001) (4, 4.41098833084106450000e+000) (5, 2.33882069587707520000e+000) (6, 1.13840985298156740000e+000) (7, 2.08263367414474490000e-001) (8, -2.03124552965164180000e-001) (9, 2.15950345993041990000e+000) (10, 1.54975831508636470000e-001) (11, 3.56541633605957030000e-001) (12, 8.21751475334167480000e-001) (13, 1.28732049465179440000e+000) (14, 1.93578100204467770000e+000) (15, 4.19650375843048100000e-001) (16, -1.96000432968139650000e+000) (17, -1.41409611701965330000e+000) (18, -1.29111516475677490000e+000) (19, 2.47202563285827640000e+000) (20, 9.79917943477630620000e-002) (21, -6.37091457843780520000e-001) (22, -6.87290430068969730000e-002) (23, 8.66531655192375180000e-002) (24, 1.66557326912879940000e-001) (25, 1.32714247703552250000e+000) (26, 1.02541351318359370000e+000) (27, -6.81987181305885310000e-002) (28, -3.92011366784572600000e-002) (29, 9.22381937503814700000e-001) (30, -9.54202175140380860000e-001) (31, 8.20774853229522710000e-001) (32, -2.51253638416528700000e-002) (33, -1.95457264780998230000e-001) (34, -2.62961912155151370000e+000) (35, 7.02883481979370120000e-001) (36, -7.52315104007720950000e-001) (37, 4.01303023099899290000e-001) (38, -3.18064737319946290000e+000) (39, 2.40172613412141800000e-002) (40, 2.17999696731567380000e-001) (41, 1.06969952583312990000e+000) (42, 5.71289896965026860000e-001) (43, -1.25697994232177730000e+000) (44, -1.88238173723220830000e-001) (45, 1.13297857344150540000e-001) (46, 6.84706270694732670000e-002) (47, 7.36355066299438480000e-001) (48, 3.12410712242126460000e-001) (49, 1.22075474262237550000e+000) (50, 1.68676578998565670000e+000) (51, -1.00508880615234370000e+000) (52, 4.46655541658401490000e-001) (53, 5.86381793022155760000e-001) (54, -1.27851068973541260000e+000) (55, 3.47330594062805180000e+000) (56, -7.02533721923828130000e-001) (57, -3.56556355953216550000e-001) (58, -5.65144002437591550000e-001) (59, -1.57746040821075440000e+000) (60, 4.97965633869171140000e-001) (61, 8.82719874382019040000e-001) (62, 1.71702933311462400000e+000) (63, -3.99019074440002440000e+000) (64, 1.55933582782745360000e+000) (65, 3.98767471313476560000e-001) (66, 5.80749392509460450000e-001) (67, 6.17503046989440920000e-001) (68, 8.51192772388458250000e-001) (69, 2.63867378234863280000e-001) (70, 6.51302486658096310000e-002) (71, 9.17703449726104740000e-001) (72, -9.86436069011688230000e-001) (73, 3.52104812860488890000e-001) (74, 3.40425223112106320000e-001) (75, 5.59000492095947270000e-001) (76, 7.80705690383911130000e-001) (77, 1.49561345577239990000e+000) (78, 4.25925925374031070000e-002) (79, 5.24272173643112180000e-002) (80, 7.76157259941101070000e-001) (81, 1.22880804538726810000e+000) (82, -1.12191843986511230000e+000) (83, -1.58277380466461180000e+000) (84, 1.44240796566009520000e+000) (85, 2.50846982002258300000e-001) (86, 1.64309471845626830000e-001) (87, -7.87564665079116820000e-002) (88, -2.44426608085632320000e+000) (89, 3.20859372615814210000e-001) (90, 1.05839520692825320000e-001) (91, -5.35656571388244630000e-001) (92, -1.73865824937820430000e-001) (93, -4.28483039140701290000e-001) (94, 3.02413254976272580000e-001) (95, 6.15716502070426940000e-002) (96, 1.12151157855987550000e+000) (97, 2.58645939826965330000e+000) (98, -2.49975591897964480000e-001) (99, -1.31729090213775630000e+000) (100, -4.44198727607727050000e-001) (101, 1.90539836883544920000e+000) (102, -1.21286952495574950000e+000) (103, 9.69150900840759280000e-001) (104, 2.67479991912841800000e+000) (105, 1.43987679481506350000e+000) (106, 4.73749358206987380000e-004) (107, -2.41772666573524480000e-001) (108, -4.01726365089416500000e-001) (109, 6.33703172206878660000e-001) (110, -1.90160721540451050000e-001) (111, 9.49017822742462160000e-001) (112, 1.13852322101593020000e+000) (113, -2.63684439659118650000e+000) (114, 9.85184907913208010000e-002) (115, 1.68281078338623050000e-001) (116, -3.56007486581802370000e-001) (117, 3.72100591659545900000e-001) (118, 5.66719889640808110000e-001) (119, 2.44094431400299070000e-001) (120, 2.30343312025070190000e-001) (121, 1.27310609817504880000e+000) (122, -2.80735880136489870000e-001) (123, 3.43183055520057680000e-002) (124, 1.03765881061553960000e+000) (125, 7.90350258350372310000e-001) (0, -5.84241747856140140000e-001) (1, -3.21106344461441040000e-001) (2, -5.78586578369140630000e-001) (3, 1.34339869022369380000e-001) (4, 2.48380705714225770000e-001) (5, -6.84069395065307620000e-001) (6, 7.73521006107330320000e-001) (7, -2.25838446617126460000e+000) (8, 5.36055088043212890000e-001) (9, 5.33609271049499510000e-001) (10, -1.69910714030265810000e-001) (11, 2.75257974863052370000e-001) (12, -9.77394163608551030000e-001) (13, -2.41560864448547360000e+000) (14, 4.44854199886322020000e-001) (15, -1.34766340255737300000e-001) (16, -1.03643512725830080000e+000) (17, 2.78189611434936520000e+000) (18, 6.34762883186340330000e-001) (19, 1.58125504851341250000e-001) (20, -3.86289283633232120000e-002) (21, 1.13617408275604250000e+000) (22, 1.30245840549468990000e+000) (23, -2.49172687530517580000e-001) (24, -2.53237426280975340000e-001) (25, -2.05856978893280030000e-001) (26, 1.44994223117828370000e+000) (27, 5.09400904178619380000e-001) (28, -2.97679901123046880000e-001) (29, 3.15374910831451420000e-001) (30, -9.32826474308967590000e-002) (31, -5.48200070858001710000e-001) (32, 1.67480063438415530000e+000) (33, -7.39029109477996830000e-001) (34, 6.78056538105010990000e-001) (35, 9.92437526583671570000e-002) (36, 4.63015377521514890000e-001) (37, 3.11928963661193850000e+000) (38, 8.00457775592803960000e-001) (39, 5.37861704826354980000e-001) (40, 3.13108675181865690000e-002) (41, 1.21047830581665040000e+000) (42, 6.83780252933502200000e-001) (43, 1.32784336805343630000e-001) (44, 1.18988323211669920000e+000) (45, 1.00903853774070740000e-001) (46, -3.18744853138923650000e-002) (47, 1.24484705924987790000e+000) (48, -1.56320378184318540000e-001) (49, 1.36050772666931150000e+000) (50, -2.36552238464355470000e-001) (51, -3.11165630817413330000e-001) (52, 2.21742123365402220000e-001) (53, 6.05734229087829590000e-001) (54, -1.88265085220336910000e+000) (55, -2.24794104695320130000e-001) (56, 2.03756880760192870000e+000) (57, 8.45995247364044190000e-001) (58, 2.94188916683197020000e-001) (59, 7.53622829914093020000e-001) (60, 9.85945463180541990000e-002) (61, 1.05452656745910640000e+000) (62, -1.00469195842742920000e+000) (63, 4.13256978988647460000e+000) (64, 9.26487326622009280000e-001) (65, -2.21921056509017940000e-002) (66, 2.87742948532104490000e+000) (67, 1.59899890422821040000e-001) (68, 1.23905348777771000000e+000) (69, -1.20602566748857500000e-002) (70, -1.71184092760086060000e-002) (71, 9.70771431922912600000e-001) (72, -9.03465986251831050000e-001) (73, 5.63279390335083010000e-001) (74, -5.84316611289978030000e-001) (75, 1.54069915413856510000e-001) (76, 2.83433556556701660000e-001) (77, 1.01709783077239990000e+000) (78, -3.81146103143692020000e-001) (79, -1.56517118215560910000e-001) (80, 1.14017176628112790000e+000) (81, 2.68339604139328000000e-001) (82, 1.45766043663024900000e+000) (83, 2.22097945213317870000e+000) (84, 9.40963387489318850000e-001) (85, 6.30171597003936770000e-001) (86, 5.05469918251037600000e-001) (87, 1.56911861896514890000e+000) (88, 3.08340573310852050000e+000) (89, 1.09354972839355470000e+000) (90, 9.63409364223480220000e-001) (91, -9.06006395816802980000e-002) (92, 2.20191672444343570000e-001) (93, -3.14125955104827880000e-001) (94, 2.84660477191209790000e-002) (95, 3.31014722585678100000e-001) (96, 1.27137392759323120000e-001) (97, -6.61615133285522460000e-001) (98, 1.31643331050872800000e+000) (99, 4.11141037940979000000e-001) (100, -3.02889496088027950000e-001) (101, 6.88798367977142330000e-001) (102, 1.34106382727622990000e-001) (103, 7.22288846969604490000e-001) (104, 3.87686669826507570000e-001) (105, -5.53045272827148440000e-001) (106, -4.36535298824310300000e-001) (107, -2.70445048809051510000e-001) (108, 3.67799186706542970000e+000) (109, 2.26636439561843870000e-001) (110, 1.09860926866531370000e-001) (111, -1.03975307941436770000e+000) (112, -8.41334640979766850000e-001) (113, 2.43772029876708980000e+000) (114, 8.13176572322845460000e-001) (115, -1.10771581530570980000e-001) (116, -1.55792972072958950000e-002) (117, -1.05086529254913330000e+000) (118, 5.86424112319946290000e-001) (119, -3.94949793815612790000e-001) (120, -1.05138748884201050000e-001) (121, 8.86664509773254390000e-001) (122, -1.17687952518463130000e+000) (123, 1.64793467521667480000e+000) (124, 9.52249825000762940000e-001) (125, -8.28989088535308840000e-001) (0, 3.89010369777679440000e-001) (1, 3.37422060966491700000e+000) (2, 6.88568711280822750000e-001) (3, 4.07243996858596800000e-001) (4, 2.15606379508972170000e+000) (5, 8.99169981479644780000e-001) (6, -1.20613408088684080000e+000) (7, 2.51993715763092040000e-001) (8, -1.35886609554290770000e+000) (9, 1.19614136219024660000e+000) (10, 9.82804894447326660000e-001) (11, -1.60831391811370850000e-001) (12, 2.65895080566406250000e+000) (13, 8.69785845279693600000e-001) (14, 1.47833585739135740000e+000) (15, 5.07621407508850100000e-001) (16, 8.08373034000396730000e-001) (17, 8.24451863765716550000e-001) (18, 1.78495395183563230000e+000) (19, 5.66565036773681640000e-001) (20, 6.13621175289154050000e-001) (21, -8.77204537391662600000e-001) (22, -1.43484699726104740000e+000) (23, -2.01707935333251950000e+000) (24, -3.36152255535125730000e-001) (25, -4.86820459365844730000e-001) (26, 2.05440139770507810000e+000) (27, 8.77670705318450930000e-001) (28, -9.70050096511840820000e-001) (29, 1.32749724388122560000e+000) (30, 4.62289541959762570000e-001) (31, 2.85126179456710820000e-001) (32, 1.97354406118392940000e-001) (33, 4.34659576416015620000e+000) (34, 2.73350417613983150000e-001) (35, 6.82387650012969970000e-001) (36, -5.78795611858367920000e-001) (37, 8.02777290344238280000e-001) (38, 2.69038391113281250000e+000) (39, -1.75321519374847410000e+000) (40, 9.38086092472076420000e-001) (41, 5.87567758560180660000e+000) (42, -1.30659878253936770000e-001) (43, 9.79721724987030030000e-001) (44, 1.23978471755981450000e+000) (45, 1.04780614376068120000e+000) (46, 7.86787085235118870000e-003) (47, -2.79357641935348510000e-001) (48, 5.44661819934844970000e-001) (49, -7.01297283172607420000e-001) (50, -3.37640382349491120000e-002) (51, -2.71561950445175170000e-001) (52, -8.52081060409545900000e-001) (53, -4.38958793878555300000e-001) (54, -6.23206377029418950000e-001) (55, 6.20127797126770020000e-001) (56, -6.83144271373748780000e-001) (57, -9.74598586559295650000e-001) (58, -4.50978666543960570000e-001) (59, 1.27492058277130130000e+000) (60, 7.27564871311187740000e-001) (61, -2.37044906616210940000e+000) (62, 3.08561515808105470000e+000) (63, 8.32506561279296870000e+000) (64, 2.53038859367370610000e+000) (65, 1.69897115230560300000e+000) (66, -9.53786671161651610000e-001) (67, -9.00555491447448730000e-001) (68, 2.13416576385498050000e+000) (69, -4.73047077655792240000e-001) (70, 6.33045434951782230000e-001) (71, 5.14592170715332030000e-001) (72, 5.06430864334106450000e-001) (73, -5.90013504028320310000e-001) (74, 3.55675756931304930000e-001) (75, -1.75357744097709660000e-001) (76, -1.33826482295989990000e+000) (77, 9.45431888103485110000e-001) (78, 5.45550286769866940000e-001) (79, 2.29172736406326290000e-001) (80, 2.66606688499450680000e-001) (81, -3.84067088365554810000e-001) (82, -8.54454159736633300000e-001) (83, 1.37153610587120060000e-001) (84, 1.83326768875122070000e+000) (85, -7.64861628413200380000e-002) (86, 1.33845067024230960000e+000) (87, -4.48222517967224120000e-001) (88, 2.30207920074462890000e+000) (89, -5.51747754216194150000e-002) (90, 9.29999470710754390000e-001) (91, -4.75559502840042110000e-001) (92, 9.47812676429748540000e-001) (93, 9.58535354584455490000e-003) (94, 3.87507289648056030000e-001) (95, 3.62547844648361210000e-001) (96, -7.60280966758728030000e-001) (97, -3.58119755983352660000e-001) (98, -1.18482100963592530000e+000) (99, -1.26159024238586430000e+000) (100, 7.63642609119415280000e-001) (101, -1.75214385986328120000e+000) (102, 1.54599499702453610000e+000) (103, 4.76500570774078370000e-001) (104, 5.27324140071868900000e-001) (105, 1.24012184143066410000e+000) (106, 9.99531567096710210000e-001) (107, -2.17229843139648440000e+000) (108, 2.25102201104164120000e-001) (109, 2.70125865936279300000e-001) (110, 1.00764739513397220000e+000) (111, -6.84270381927490230000e-001) (112, 2.69948765635490420000e-002) (113, 7.61207461357116700000e-001) (114, -3.96173715591430660000e-001) (115, 2.17887759208679200000e+000) (116, -7.49741613864898680000e-001) (117, -1.12934720516204830000e+000) (118, -1.12202894687652590000e+000) (119, -5.71993172168731690000e-001) (120, 7.95106709003448490000e-001) (121, 4.21977281570434570000e-001) (122, -2.00761961936950680000e+000) (123, 1.32520651817321780000e+000) (124, -4.95309740304946900000e-001) (125, 1.18610739707946780000e+000) (0, 1.01322092115879060000e-001) (1, 7.99174606800079350000e-001) (2, 1.13209327682852750000e-002) (3, 9.13560837507247920000e-002) (4, 7.04173207283020020000e-001) (5, 4.02837395668029790000e-001) (6, 4.17266100645065310000e-001) (7, 9.27426993846893310000e-001) (8, 3.44042229652404790000e+000) (9, 2.24603271484375000000e+000) (10, 5.17040371894836430000e-001) (11, 6.01841621100902560000e-002) (12, -1.51855063438415530000e+000) (13, 1.04642188549041750000e+000) (14, 4.79991495609283450000e-001) (15, 9.46968555450439450000e-001) (16, -4.06787067651748660000e-001) (17, 9.62134599685668950000e-001) (18, 4.52276587486267090000e-001) (19, 4.30393606424331670000e-001) (20, 6.30143046379089360000e-001) (21, -8.66704642772674560000e-001) (22, -8.41472670435905460000e-002) (23, -6.18833526968955990000e-002) (24, -7.60747417807579040000e-002) (25, -1.59509551525115970000e+000) (26, 8.28467011451721190000e-001) (27, 2.76736944913864140000e-001) (28, -1.15553832054138180000e+000) (29, -2.30206465721130370000e+000) (30, 3.74351322650909420000e-001) (31, -5.37544131278991700000e-001) (32, 7.09547519683837890000e-001) (33, -2.29717922210693360000e+000) (34, 4.69709128141403200000e-001) (35, -1.64693370461463930000e-001) (36, 1.71555066108703610000e+000) (37, 1.73019468784332280000e+000) (38, 1.42559635639190670000e+000) (39, 4.32945370674133300000e-001) (40, 1.34507203102111820000e+000) (41, 1.77266526222229000000e+000) (42, -1.41247844696044920000e+000) (43, 1.54029536247253420000e+000) (44, 1.23182964324951170000e+000) (45, -3.35630029439926150000e-002) (46, -6.37901604175567630000e-001) (47, 1.26367819309234620000e+000) (48, 1.05083620548248290000e+000) (49, 3.08105908334255220000e-002) (50, 1.55841574072837830000e-001) (51, 1.06575405597686770000e+000) (52, -2.00430989265441890000e+000) (53, -3.30640941858291630000e-001) (54, -2.06020310521125790000e-001) (55, 3.43175411224365230000e-001) (56, -3.22837561368942260000e-001) (57, -1.29376173019409180000e+000) (58, 1.05174267292022710000e+000) (59, 2.56626534461975100000e+000) (60, 8.48819553852081300000e-001) (61, 1.39297735691070560000e+000) (62, -3.61655175685882570000e-001) (63, 4.97471094131469730000e+000) (64, 4.78170752525329590000e-001) (65, 1.88006877899169920000e+000) (66, 5.18526971340179440000e-001) (67, 5.31337745487689970000e-002) (68, 1.00572776794433590000e+000) (69, 1.96847915649414060000e-001) (70, 3.93326163291931150000e-001) (71, 7.23028898239135740000e-001) (72, -6.65299594402313230000e-001) (73, 5.21200895309448240000e-001) (74, 7.69957304000854490000e-001) (75, 2.27356299757957460000e-001) (76, 5.61492979526519780000e-001) (77, -2.39463955163955690000e-001) (78, 5.02039007842540740000e-002) (79, -5.61308562755584720000e-001) (80, 2.62940615415573120000e-001) (81, -1.63746452331542970000e+000) (82, 1.70222008228302000000e+000) (83, 6.13719224929809570000e-001) (84, 3.00831890106201170000e+000) (85, 2.87437975406646730000e-001) (86, 5.43611645698547360000e-001) (87, 1.01772201061248780000e+000) (88, 9.45695042610168460000e-001) (89, 4.90473896265029910000e-001) (90, 5.94396972656250000000e+000) (91, 1.61607384681701660000e+000) (92, -3.22311520576477050000e-001) (93, -7.19954967498779300000e-001) (94, -8.51593673229217530000e-001) (95, 8.78446474671363830000e-002) (96, 1.04540944099426270000e+000) (97, -2.71012187004089360000e-002) (98, -6.98098421096801760000e-001) (99, -7.07418859004974370000e-001) (100, 7.43205428123474120000e-001) (101, -9.48664546012878420000e-003) (102, 1.80835831165313720000e+000) (103, -5.07701158523559570000e-001) (104, -4.91545051336288450000e-001) (105, 4.44636970758438110000e-001) (106, -2.69990742206573490000e-001) (107, -7.59665668010711670000e-001) (108, 6.03795409202575680000e-001) (109, 5.17813682556152340000e-001) (110, 1.08760106563568120000e+000) (111, 7.35851749777793880000e-002) (112, -1.18716478347778320000e-001) (113, 2.68902480602264400000e-001) (114, 1.45669206976890560000e-001) (115, 3.54911351203918460000e+000) (116, -1.82329189777374270000e+000) (117, 7.79017686843872070000e-001) (118, 1.19758236408233640000e+000) (119, 6.17147862911224370000e-001) (120, -1.92636287212371830000e+000) (121, -8.89045953750610350000e-001) (122, -1.15929627418518070000e+000) (123, -7.46494233608245850000e-001) (124, 6.97844428941607480000e-003) (125, -2.19279098510742190000e+000) (0, 5.40306031703948970000e-001) (1, 4.08815383911132810000e-001) (2, 8.35195422172546390000e-001) (3, 1.76997470855712890000e+000) (4, -1.45495265722274780000e-001) (5, 3.19877326488494870000e-001) (6, -7.55311608314514160000e-001) (7, 5.16595542430877690000e-001) (8, 1.98244228959083560000e-001) (9, -2.21111744642257690000e-001) (10, -1.25560879707336430000e-001) (11, -4.27665710449218750000e+000) (12, 3.17348033189773560000e-001) (13, -7.51642644405364990000e-001) (14, -1.66329458355903630000e-001) (15, -6.73727393150329590000e-002) (16, 2.96033740043640140000e-001) (17, -6.09969973564147950000e-001) (18, -3.68902087211608890000e-002) (19, -4.77354794740676880000e-001) (20, -1.77969470620155330000e-001) (21, 1.02646231651306150000e+000) (22, -9.15059745311737060000e-001) (23, -5.23475587368011470000e-001) (24, -1.57966744899749760000e+000) (25, 4.52757209539413450000e-001) (26, -8.20778787136077880000e-001) (27, -6.14698566496372220000e-002) (28, 1.66146039962768550000e-001) (29, -1.89762938022613530000e+000) (30, 4.50198978185653690000e-001) (31, -9.38495457172393800000e-001) (32, -1.13198626041412350000e+000) (33, -6.45850419998168950000e-001) (34, 1.18087232112884520000e+000) (35, -4.34213221073150630000e-001) (36, 6.51338100433349610000e+000) (37, -3.74760866165161130000e-001) (38, -1.52285724878311160000e-001) (39, -3.41352075338363650000e-001) (40, -1.86051630973815920000e+000) (41, -1.28784835338592530000e+000) (42, 4.94369447231292720000e-001) (43, -2.62618374824523930000e+000) (44, -8.83689522743225100000e-001) (45, -1.05343210697174070000e+000) (46, -1.11737757921218870000e-001) (47, 9.74459424614906310000e-002) (48, 7.57387220859527590000e-001) (49, 6.34628355503082280000e-001) (50, 4.53205704689025880000e-001) (51, 1.02801871299743650000e+000) (52, 8.69197428226470950000e-001) (53, -5.01281619071960450000e-001) (54, -2.60283172130584720000e-001) (55, 5.93631386756896970000e-001) (56, -7.07402467727661130000e-001) (57, 5.91723024845123290000e-001) (58, -3.81432086229324340000e-001) (59, -2.93190908432006840000e+000) (60, -6.67153745889663700000e-002) (61, 2.99807691574096680000e+000) (62, -1.06140937805175780000e+001) (63, -1.23270785808563230000e+000) (64, -2.25722596049308780000e-001) (65, -3.08894664049148560000e-001) (66, 1.99864119291305540000e-001) (67, 2.87193536758422850000e-001) (68, 1.85013294219970700000e-001) (69, -2.77570992708206180000e-001) (70, -3.46828073263168330000e-001) (71, 1.27707049250602720000e-001) (72, 1.45498365163803100000e-001) (73, 4.08028811216354370000e-001) (74, 1.85478925704956050000e-001) (75, 4.25814718008041380000e-001) (76, 3.30908671021461490000e-002) (77, -2.95000195503234860000e-001) (78, -4.21391546726226810000e-001) (79, -9.15534257888793950000e-001) (80, 4.10434514284133910000e-001) (81, -1.04410074651241300000e-001) (82, -9.12163972854614260000e-001) (83, -1.10694861412048340000e+000) (84, -2.81219124794006350000e+000) (85, -2.95834362506866460000e-001) (86, 2.57659435272216800000e-001) (87, 9.25675570964813230000e-001) (88, 3.31384271383285520000e-001) (89, -1.82585313916206360000e-001) (90, -5.54241061210632320000e-001) (91, 5.27497053146362300000e-001) (92, 2.66329556703567500000e-001) (93, 9.27600920200347900000e-001) (94, -4.68248635530471800000e-001) (95, -2.75495201349258420000e-001) (96, -5.56074380874633790000e-001) (97, -8.01299214363098140000e-001) (98, 1.25945806503295900000e-001) (99, -1.37301236391067500000e-001) (100, 5.85555076599121090000e-001) (101, -1.78360059857368470000e-001) (102, -9.27210599184036250000e-002) (103, -9.53594624996185300000e-001) (104, -1.69257417321205140000e-001) (105, 3.14872533082962040000e-001) (106, 8.42342197895050050000e-001) (107, -7.27520823478698730000e-001) (108, 4.41683441400527950000e-001) (109, -5.48392474651336670000e-001) (110, -3.61594468355178830000e-001) (111, 2.07150727510452270000e-001) (112, 3.82051616907119750000e-001) (113, 7.58768856525421140000e-001) (114, -7.18717694282531740000e-001) (115, -9.79429557919502260000e-002) (116, -5.25270283222198490000e-001) (117, -6.87697410583496090000e-001) (118, -1.48461133241653440000e-001) (119, -7.67988741397857670000e-001) (120, -2.50514924526214600000e-001) (121, 1.12901255488395690000e-001) (122, -5.38587331771850590000e-001) (123, 1.64781355857849120000e+000) (124, -3.24807018041610720000e-002) (125, 7.71568119525909420000e-002) (0, -2.58529514074325560000e-001) (1, 2.38411769270896910000e-001) (2, -1.86721922364085910000e-003) (3, 4.95437681674957280000e-001) (4, 6.24947734177112580000e-002) (5, 2.25594267249107360000e-001) (6, -2.95893251895904540000e-001) (7, 3.38248163461685180000e-002) (8, 4.10723924636840820000e-001) (9, -1.92518666386604310000e-001) (10, -3.05963307619094850000e-001) (11, 8.72399061918258670000e-002) (12, 2.37504839897155760000e-001) (13, -3.32583338022232060000e-001) (14, -2.72561609745025630000e-001) (15, -2.58730143308639530000e-001) (16, 9.81698989868164060000e-001) (17, 3.35767477750778200000e-001) (18, -2.39102348685264590000e-001) (19, -2.73738391697406770000e-002) (20, -3.79648745059967040000e-001) (21, -1.61188945174217220000e-001) (22, 4.06881570816040040000e-001) (23, -5.80349147319793700000e-001) (24, 7.65492916107177730000e-002) (25, -2.35114485025405880000e-001) (26, -3.31181809306144710000e-002) (27, -4.01744782924652100000e-001) (28, -7.59465157985687260000e-001) (29, 6.58487081527709960000e-002) (30, 2.95977562665939330000e-001) (31, 1.48792797699570660000e-002) (32, 7.45953917503356930000e-002) (33, -3.03989350795745850000e-001) (34, -3.53742957115173340000e-001) (35, -1.33491337299346920000e-001) (36, 2.20248326659202580000e-002) (37, -2.55328565835952760000e-001) (38, -2.14344358444213870000e+000) (39, -2.95327484607696530000e-001) (40, -1.41627073287963870000e-001) (41, 3.66652458906173710000e-001) (42, 8.98887574672698970000e-001) (43, 1.83972511440515520000e-002) (44, 4.53821346163749690000e-002) (45, -1.10363617539405820000e-001) (46, 2.40378975868225100000e-002) (47, 5.78530170023441310000e-002) (48, -9.08721089363098140000e-002) (49, -1.02660790085792540000e-001) (50, 1.65247455239295960000e-001) (51, 7.58634030818939210000e-001) (52, -3.55010062456130980000e-001) (53, 3.70616436004638670000e-001) (54, 1.45943209528923030000e-001) (55, -4.78173382580280300000e-002) (56, -8.71587023138999940000e-002) (57, -1.36935159564018250000e-001) (58, -3.98567289113998410000e-001) (59, -5.68270146846771240000e-001) (60, -4.22196298837661740000e-001) (61, 2.77656346559524540000e-001) (62, -2.19817206263542180000e-001) (63, -1.83235573768615720000e+000) (64, -3.47208231687545780000e-001) (65, -8.66479575634002690000e-001) (66, -1.49466350674629210000e-001) (67, 1.79818630218505860000e-001) (68, -1.42076864838600160000e-001) (69, -1.59053519368171690000e-001) (70, -8.12338769435882570000e-001) (71, 1.60057276487350460000e-001) (72, 6.72526180744171140000e-001) (73, -1.77662283182144170000e-001) (74, -1.29578813910484310000e-001) (75, -4.78702723979949950000e-001) (76, 6.25007748603820800000e-001) (77, 2.34877064824104310000e-001) (78, -2.45097070932388310000e-001) (79, 1.57904505729675290000e-001) (80, 4.01111841201782230000e-002) (81, 2.03843250870704650000e-001) (82, 4.76775795221328740000e-001) (83, -9.67705130577087400000e-001) (84, 1.90705642104148860000e-001) (85, -5.63433289527893070000e-001) (86, 8.31606984138488770000e-002) (87, -4.43300098180770870000e-001) (88, -2.19095706939697270000e-001) (89, -3.47808122634887700000e-001) (90, -3.00603389739990230000e-001) (91, 9.30041372776031490000e-001) (92, -2.64591246843338010000e-001) (93, 9.60574209690093990000e-001) (94, 1.86089247465133670000e-001) (95, 2.70175039768218990000e-001) (96, 6.17632389068603520000e-001) (97, 9.83505025506019590000e-002) (98, -6.10667943954467770000e-001) (99, 1.67501136660575870000e-001) (100, -6.02600350975990300000e-002) (101, 1.83626189827919010000e-001) (102, -1.42278298735618590000e-001) (103, 2.00768813490867610000e-001) (104, -5.14229893684387210000e-001) (105, 3.69567513465881350000e-001) (106, -2.00132001191377640000e-002) (107, 8.08860808610916140000e-002) (108, 1.10075667500495910000e-001) (109, 1.96739695966243740000e-002) (110, -2.59080469608306880000e-001) (111, 1.46903051063418390000e-002) (112, 2.10887148976325990000e-001) (113, -7.45710432529449460000e-001) (114, 1.90144151449203490000e-001) (115, -3.19850832223892210000e-001) (116, -3.42969119548797610000e-001) (117, 1.73705175518989560000e-001) (118, -1.35063812136650090000e-001) (119, -5.46005010604858400000e-001) (120, -6.81989312171936040000e-001) (121, 4.59213346242904660000e-001) (122, 3.61875176429748540000e-001) (123, -9.91344600915908810000e-002) (124, -3.08287441730499270000e-001) (125, -5.62626302242279050000e-001) (0, 6.72378122806549070000e-001) (1, 3.31589996814727780000e-001) (2, -1.80719113349914550000e+000) (3, 1.44540762901306150000e+000) (4, -1.28528273105621340000e+000) (5, 5.72756886482238770000e-001) (6, 7.11794257164001460000e-001) (7, 7.57537722587585450000e-001) (8, -4.30837333202362060000e-001) (9, 1.37531983852386470000e+000) (10, 4.32512968778610230000e-001) (11, 1.51384204626083370000e-001) (12, 1.03787779808044430000e+000) (13, 2.63281702995300290000e+000) (14, 1.56801915168762210000e+000) (15, 6.71451330184936520000e-001) (16, -6.42303466796875000000e-001) (17, -2.54640793800354000000e+000) (18, -1.33815383911132810000e+000) (19, 8.42728793621063230000e-001) (20, 1.66857123374938960000e-001) (21, -2.22807455062866210000e+000) (22, 1.48516583442687990000e+000) (23, -5.11007070541381840000e-001) (24, 6.25696837902069090000e-001) (25, 5.07490932941436770000e-002) (26, -1.52443170547485350000e+000) (27, 3.75179380178451540000e-001) (28, -4.42740261554718020000e-001) (29, 2.65004187822341920000e-001) (30, 1.00550663471221920000e+000) (31, -5.58653622865676880000e-002) (32, 4.29880261421203610000e-001) (33, -5.98647594451904300000e+000) (34, 3.13918447494506840000e+000) (35, 2.17294618487358090000e-001) (36, -1.04339754581451420000e+000) (37, -1.17767119407653810000e+000) (38, -4.46818304061889650000e+000) (39, 3.68687224388122560000e+000) (40, -3.64881008863449100000e-002) (41, -5.05472362041473390000e-001) (42, -1.45310437679290770000e+000) (43, -8.65505114197731020000e-002) (44, -8.14659059047698970000e-001) (45, -3.08917045593261720000e-001) (46, -3.15488904714584350000e-001) (47, 2.00919055938720700000e+000) (48, 6.64308667182922360000e-002) (49, -1.84126228094100950000e-001) (50, -5.13363957405090330000e-001) (51, 1.00471234321594240000e+000) (52, -7.31703460216522220000e-001) (53, -2.18155801296234130000e-001) (54, 9.93502214550971980000e-002) (55, 8.46744179725646970000e-002) (56, 3.87349039316177370000e-001) (57, 1.61080050468444820000e+000) (58, -9.99767705798149110000e-002) (59, 4.07986253499984740000e-001) (60, 1.27647638320922850000e-001) (61, 7.78766989707946780000e-001) (62, -1.97253537178039550000e+000) (63, -7.08284282684326170000e+000) (64, -1.16305947303771970000e-001) (65, 6.71012699604034420000e-002) (66, -4.51525360345840450000e-001) (67, -6.05452418327331540000e-001) (68, -2.59194374084472660000e+000) (69, 1.33358597755432130000e-001) (70, -7.09163367748260500000e-001) (71, 6.98493719100952150000e-001) (72, 7.52170503139495850000e-001) (73, 1.55351662635803220000e+000) (74, 6.92182481288909910000e-001) (75, 4.67974811792373660000e-001) (76, 2.19925358891487120000e-001) (77, 4.24262851476669310000e-001) (78, -4.78910237550735470000e-001) (79, 3.19043576717376710000e-001) (80, 3.46132874488830570000e-001) (81, 1.60029256343841550000e+000) (82, 2.62987703084945680000e-001) (83, -5.10529391467571260000e-002) (84, 5.80463647842407230000e-001) (85, 1.08872503042221070000e-001) (86, 3.27895343303680420000e-001) (87, -1.22792577743530270000e+000) (88, -1.63782572746276860000e+000) (89, -4.43333446979522710000e-001) (90, -1.71462565660476680000e-001) (91, -2.31989592313766480000e-001) (92, -1.10533690452575680000e+000) (93, -1.19092810153961180000e+000) (94, -1.89780354499816890000e+000) (95, -2.68501877784729000000e-001) (96, 9.03545737266540530000e-001) (97, 1.14233386516571040000e+000) (98, 8.61895561218261720000e-001) (99, 2.88350129127502440000e+000) (100, 9.48462635278701780000e-002) (101, -8.75288069248199460000e-001) (102, -3.57392042875289920000e-001) (103, 2.58117765188217160000e-001) (104, 3.66664379835128780000e-001) (105, 1.02585017681121830000e+000) (106, 1.80052623152732850000e-001) (107, 6.21321916580200200000e-001) (108, 1.20970773696899410000e+000) (109, -1.05226919054985050000e-001) (110, 2.09484979510307310000e-001) (111, 1.17670476436614990000e-001) (112, -4.59985822439193730000e-001) (113, -1.26698717474937440000e-001) (114, 1.04187750816345210000e+000) (115, -3.92578333616256710000e-001) (116, 1.76713839173316960000e-001) (117, -7.21893489360809330000e-001) (118, 1.44767254590988160000e-001) (119, 4.58048671483993530000e-001) (120, -1.34505283832550050000e+000) (121, 9.27962839603424070000e-001) (122, -5.78083872795104980000e-001) (123, -9.20523881912231450000e-001) (124, -3.52063566446304320000e-001) (125, -1.34945452213287350000e+000) (0, -6.44354760646820070000e-001) (1, 1.50699615478515630000e-001) (2, -7.56742954254150390000e-002) (3, 5.06518959999084470000e-001) (4, 3.80011826753616330000e-001) (5, -3.51872235536575320000e-001) (6, -1.27852296829223630000e+000) (7, 1.49628150463104250000e+000) (8, 2.76208519935607910000e-002) (9, 2.42140591144561770000e-001) (10, 7.74993002414703370000e-002) (11, 1.50016796588897710000e+000) (12, 3.58602404594421390000e-001) (13, 3.70731383562088010000e-001) (14, 8.66953194141387940000e-001) (15, 1.01290352642536160000e-001) (16, -5.18252134323120120000e-001) (17, 1.70094549655914310000e-001) (18, 7.87643432617187500000e-001) (19, -2.34236657619476320000e-001) (20, 1.67876645922660830000e-001) (21, 3.13635438680648800000e-001) (22, -1.11320428550243380000e-001) (23, 1.26683306694030760000e+000) (24, 3.86311471462249760000e-001) (25, 6.16294920444488530000e-001) (26, 5.90608827769756320000e-002) (27, 1.75768733024597170000e-001) (28, -1.12619578838348390000e+000) (29, 3.07067573070526120000e-001) (30, -2.07522213459014890000e-002) (31, -7.28604793548583980000e-001) (32, 1.26812386512756350000e+000) (33, -1.00553691387176510000e-001) (34, -1.10642397403717040000e+000) (35, 7.36401155591011050000e-002) (36, 1.59851834177970890000e-001) (37, -7.14918732643127440000e-001) (38, 4.42192703485488890000e-003) (39, 3.31939637660980220000e-001) (40, 1.67607951164245610000e+000) (41, -1.09394943714141850000e+000) (42, -9.40469741821289060000e-001) (43, 1.53605088591575620000e-001) (44, 4.88403812050819400000e-003) (45, 1.15535950660705570000e+000) (46, -1.14897340536117550000e-002) (47, -3.43530327081680300000e-002) (48, -1.64766585826873780000e+000) (49, 3.06733697652816770000e-002) (50, -6.11937701702117920000e-001) (51, 5.59747695922851560000e-001) (52, 2.83767253160476680000e-001) (53, -1.50117203593254090000e-001) (54, 2.39453166723251340000e-001) (55, -8.85676324367523190000e-001) (56, 1.67197394371032710000e+000) (57, 3.21932822465896610000e-001) (58, 6.39100432395935060000e-001) (59, 6.84595882892608640000e-001) (60, 1.27114653587341310000e-001) (61, 3.98156940937042240000e-001) (62, 1.54626667499542240000e+000) (63, 5.18589735031127930000e-001) (64, 1.95274218916893010000e-001) (65, 3.42692844569683070000e-002) (66, 1.25325214862823490000e+000) (67, 4.34805512428283690000e-001) (68, -1.84375357627868650000e+000) (69, -8.14866006374359130000e-001) (70, -4.43839887157082560000e-003) (71, 1.18829321861267090000e+000) (72, -3.97463411092758180000e-001) (73, 1.22100782394409180000e+000) (74, -1.04058468341827390000e+000) (75, -8.77979636192321780000e-001) (76, -6.73842430114746090000e-002) (77, -1.74195170402526860000e-001) (78, 2.58769869804382320000e+000) (79, 6.01109266281127930000e-001) (80, -8.35938572883605960000e-001) (81, 5.74191510677337650000e-001) (82, 1.43411242961883540000e+000) (83, 1.48881781101226810000e+000) (84, 3.48313897848129270000e-001) (85, -6.76054432988166810000e-002) (86, -5.90155541896820070000e-001) (87, 6.51935577392578130000e-001) (88, 5.24297952651977540000e+000) (89, 1.05671715736389160000e+000) (90, -4.44086790084838870000e-001) (91, -1.12326097488403320000e+000) (92, 5.56818358600139620000e-002) (93, 1.19382846355438230000e+000) (94, -1.19476914405822750000e+000) (95, 3.84140640497207640000e-001) (96, 3.25591623783111570000e-001) (97, 5.12970924377441410000e-001) (98, -1.24143993854522710000e+000) (99, 3.00371041521430020000e-003) (100, -5.14516472816467290000e-001) (101, 7.80917823314666750000e-001) (102, -1.65009379386901860000e-001) (103, -2.83505153656005860000e+000) (104, -1.11504554748535160000e+000) (105, -5.09889602661132810000e-001) (106, 1.92615520954132080000e+000) (107, -6.39615952968597410000e-001) (108, 1.29352474212646480000e+000) (109, -6.39064908027648930000e-001) (110, 1.88943862915039060000e-001) (111, 6.05166673660278320000e-001) (112, 8.52688029408454900000e-003) (113, 5.56674832478165630000e-003) (114, 3.96704912185668950000e-001) (115, 9.89821478724479680000e-002) (116, 1.50750350952148440000e+000) (117, -3.49498838186264040000e-001) (118, -2.11626514792442320000e-002) (119, 2.75973260402679440000e-001) (120, 1.49587959051132200000e-001) (121, 1.77395498752593990000e+000) (122, -1.29643821716308590000e+000) (123, 3.56242328882217410000e-001) (124, 5.95369517803192140000e-001) (125, 1.20126354694366460000e+000) (0, -6.36676967144012450000e-001) (1, -3.18215221166610720000e-001) (2, 1.46450388431549070000e+000) (3, 1.58602380752563480000e+000) (4, 1.02029895782470700000e+000) (5, 4.97058667242527010000e-002) (6, 5.96561729907989500000e-001) (7, 3.96390259265899660000e-001) (8, 2.19535779953002930000e+000) (9, -5.41857108473777770000e-002) (10, -4.64332073926925660000e-001) (11, 6.62558019161224370000e-001) (12, 2.36551856994628910000e+000) (13, -1.12955701351165770000e+000) (14, -2.14179706573486330000e+000) (15, -3.39703708887100220000e-001) (16, -4.91774111986160280000e-001) (17, 8.31153094768524170000e-001) (18, -3.58040601015090940000e-001) (19, -1.45311784744262700000e+000) (20, -4.55550581216812130000e-001) (21, 9.29778337478637700000e-001) (22, -4.77560818195343020000e-001) (23, -4.64964926242828370000e-001) (24, -8.16426336765289310000e-001) (25, 4.24898475408554080000e-001) (26, 7.37679541110992430000e-001) (27, 3.71883416175842290000e+000) (28, 1.21505901217460630000e-001) (29, -3.52499246597290040000e-001) (30, 1.69402584433555600000e-001) (31, 8.35240483283996580000e-001) (32, -1.91849857568740840000e-001) (33, 2.59594023227691650000e-001) (34, -4.30567413568496700000e-001) (35, -4.48966585099697110000e-002) (36, 2.81932830810546870000e+000) (37, 1.01504909992218020000e+000) (38, 2.47289776802062990000e+000) (39, -3.36449742317199710000e-001) (40, -5.07059693336486820000e-002) (41, 9.15274858474731450000e-001) (42, -1.32916045188903810000e+000) (43, 3.13813060522079470000e-001) (44, -1.31645992398262020000e-001) (45, -2.54227221012115480000e-001) (46, 2.60974717140197750000e+000) (47, 2.30038738250732420000e+000) (48, 1.02927124500274660000e+000) (49, 7.46427237987518310000e-001) (50, 4.77848529815673830000e-001) (51, 1.06167875230312350000e-001) (52, 3.98333996534347530000e-001) (53, 1.42110848426818850000e+000) (54, -1.46295499801635740000e+000) (55, -5.99975092336535450000e-003) (56, -3.79273235797882080000e-001) (57, 4.20033261179924010000e-002) (58, 3.05023252964019780000e-001) (59, -8.60047757625579830000e-001) (60, -1.64651155471801760000e-001) (61, -9.02904629707336430000e-001) (62, -3.53366518020629880000e+000) (63, 2.29373574256896970000e+000) (64, -3.73137056827545170000e-001) (65, -2.24369123578071590000e-001) (66, -4.90312129259109500000e-001) (67, 2.51090550422668460000e+000) (68, 1.93818521499633790000e+000) (69, -1.02772724628448490000e+000) (70, -1.44717276096343990000e-001) (71, -1.10594546794891360000e+000) (72, -4.01291579008102420000e-001) (73, 2.12329840660095210000e+000) (74, -1.79527783393859860000e+000) (75, 4.28675636649131770000e-002) (76, -7.70879983901977540000e-001) (77, -3.95744889974594120000e-001) (78, 1.57308071851730350000e-001) (79, 1.53509527444839480000e-001) (80, 3.50721746683120730000e-001) (81, -6.03980958461761470000e-001) (82, 2.23742052912712100000e-001) (83, 3.06619107723236080000e-001) (84, -3.19104957580566410000e+000) (85, -1.43087935447692870000e+000) (86, 9.64701697230339050000e-002) (87, -4.55580264329910280000e-001) (88, -2.57615089416503910000e+000) (89, -3.52455347776412960000e-001) (90, -4.31429147720336910000e-001) (91, 7.19644486904144290000e-001) (92, 7.45828866958618160000e-001) (93, -7.35012769699096680000e-001) (94, -7.85920619964599610000e-001) (95, -2.58469700813293460000e-001) (96, -1.05917310714721680000e+000) (97, 9.46591794490814210000e-001) (98, -1.78461778163909910000e+000) (99, 8.91740918159484860000e-001) (100, 9.34197604656219480000e-002) (101, -2.07660508155822750000e+000) (102, -7.72783815860748290000e-001) (103, -3.62091600894927980000e-001) (104, -6.23078681528568270000e-002) (105, 9.07100513577461240000e-002) (106, -1.98225639760494230000e-002) (107, 3.64891052246093750000e-001) (108, 1.06797769665718080000e-001) (109, -8.00535202026367190000e-001) (110, -3.04467231035232540000e-001) (111, 6.17109417915344240000e-001) (112, 1.14172637462615970000e+000) (113, 2.12415099143981930000e+000) (114, -1.22413086891174320000e+000) (115, -3.03165823221206670000e-001) (116, 1.50627231597900390000e+000) (117, -4.90263789892196660000e-001) (118, 9.15534794330596920000e-001) (119, -8.20967197418212890000e-001) (120, -1.50748431682586670000e+000) (121, -1.53421020507812500000e+000) (122, 4.95617359876632690000e-001) (123, 5.53359128534793850000e-002) (124, 6.78701996803283690000e-001) (125, -3.04887235164642330000e-001) (0, -3.66030335426330570000e-001) (1, 1.14898964762687680000e-001) (2, -1.75145104527473450000e-001) (3, -4.08217906951904300000e-001) (4, -5.29045201838016510000e-002) (5, -6.07775211334228520000e-001) (6, -7.22244799137115480000e-001) (7, 3.09972584247589110000e-001) (8, -1.30684435367584230000e+000) (9, -7.15989112854003910000e-001) (10, 2.86841779947280880000e-001) (11, 9.89023223519325260000e-002) (12, -3.40902477502822880000e-001) (13, -7.66842305660247800000e-001) (14, -7.85403668880462650000e-001) (15, 5.97914606332778930000e-002) (16, 6.89210236072540280000e-001) (17, 6.54205307364463810000e-002) (18, -1.40432655811309810000e+000) (19, -5.77766895294189450000e-001) (20, 1.63754507899284360000e-001) (21, 1.04206148535013200000e-002) (22, 2.51501649618148800000e-002) (23, 1.50343820452690120000e-001) (24, 2.05561697483062740000e-001) (25, -6.85121774673461910000e-001) (26, 6.18501603603363040000e-002) (27, -1.16830551624298100000e+000) (28, 1.18930137157440190000e+000) (29, -3.19817095994949340000e-001) (30, -6.51589632034301760000e-001) (31, 7.64716148376464840000e-001) (32, -1.69391304254531860000e-001) (33, 1.79600441455841060000e+000) (34, -4.74485069513320920000e-001) (35, -5.15509545803070070000e-001) (36, -2.93280124664306640000e-001) (37, -2.64729142189025880000e-001) (38, 1.20746701955795290000e-001) (39, -1.91498786211013790000e-001) (40, 4.52986732125282290000e-002) (41, 1.21700370311737060000e+000) (42, 8.49870741367340090000e-001) (43, -2.77344137430191040000e-001) (44, 1.93990692496299740000e-001) (45, 6.90615102648735050000e-002) (46, 1.70071017742156980000e+000) (47, -6.09310686588287350000e-001) (48, -4.75701987743377690000e-001) (49, 2.63870120048522950000e-001) (50, -3.15940558910369870000e-001) (51, 6.72409236431121830000e-001) (52, -4.38705414533615110000e-001) (53, 6.01933538913726810000e-001) (54, -1.11642060801386830000e-002) (55, -3.86940628290176390000e-001) (56, 2.38502430915832520000e+000) (57, 1.04468815028667450000e-001) (58, 4.45950698852539060000e+000) (59, 2.53410160541534420000e-001) (60, 1.89858227968215940000e-001) (61, -6.97063505649566650000e-001) (62, 1.23701465129852290000e+000) (63, 2.49744057655334470000e+000) (64, -1.80696975439786910000e-002) (65, 1.32735848426818850000e-001) (66, 6.91097259521484380000e-001) (67, -3.13478976488113400000e-001) (68, 9.53637182712554930000e-001) (69, -4.56543862819671630000e-001) (70, 1.42529487609863280000e-001) (71, -3.93930584192276000000e-001) (72, 1.47412106394767760000e-001) (73, -1.50889229774475100000e+000) (74, -2.38529458642005920000e-001) (75, -2.84589439630508420000e-001) (76, 2.75769978761672970000e-001) (77, -4.24130022525787350000e-001) (78, -1.15859067440032960000e+000) (79, 8.20240914821624760000e-001) (80, 4.34614777565002440000e-001) (81, 1.23251295089721680000e+000) (82, 1.74233770370483400000e+000) (83, 1.23830318450927730000e+000) (84, 2.72852718830108640000e-001) (85, 2.35187083482742310000e-001) (86, -1.87295019626617430000e+000) (87, -9.30851325392723080000e-002) (88, 1.40302228927612300000e+000) (89, -1.99266827106475830000e+000) (90, 3.42419415712356570000e-001) (91, -9.26460504531860350000e-001) (92, 1.67775496840476990000e-001) (93, 5.89771389961242680000e-001) (94, -1.92393124103546140000e-001) (95, 5.75852058827877040000e-002) (96, 3.60025733709335330000e-001) (97, 1.06139075756073000000e+000) (98, -2.06831157207489010000e-001) (99, 3.12498003244400020000e-001) (100, -4.73009139299392700000e-001) (101, -4.04830038547515870000e-001) (102, 2.92723793536424640000e-002) (103, 1.97782069444656370000e-001) (104, 5.81688344478607180000e-001) (105, -4.05371338129043580000e-001) (106, -4.65106934309005740000e-001) (107, 7.75159895420074460000e-001) (108, 4.03886318206787110000e-001) (109, -3.70828248560428620000e-002) (110, 1.60005763173103330000e-001) (111, -6.84498071670532230000e-001) (112, 1.99834108352661130000e-001) (113, 4.65344548225402830000e-001) (114, 4.07335497438907620000e-002) (115, 8.23412388563156130000e-002) (116, -3.94434720277786250000e-001) (117, -5.29326498508453370000e-002) (118, 1.21995174884796140000e+000) (119, 3.51661115884780880000e-001) (120, -8.70429947972297670000e-002) (121, -2.19361513853073120000e-001) (122, 2.73368895053863530000e-001) (123, -4.16551604866981510000e-002) (124, -3.13854962587356570000e-002) (125, -3.38323652744293210000e-001) (0, 1.86935812234878540000e-001) (1, -8.34648966789245610000e-001) (2, -6.40704333782196040000e-002) (3, 1.05022764205932620000e+000) (4, -1.48391082882881160000e-001) (5, 3.60947012901306150000e-001) (6, 2.25978827476501460000e+000) (7, -1.74543306231498720000e-001) (8, 3.00311386585235600000e-001) (9, 1.68391466140747070000e+000) (10, -2.32792884111404420000e-001) (11, -7.43379771709442140000e-001) (12, 1.27486002445220950000e+000) (13, -1.50353324413299560000e+000) (14, -6.69698238372802730000e-001) (15, -3.77465367317199710000e-001) (16, -4.39974039793014530000e-001) (17, -6.94797754287719730000e-001) (18, 1.27560663223266600000e+000) (19, 6.73786818981170650000e-001) (20, -3.46190124750137330000e-001) (21, 4.54845875501632690000e-002) (22, 1.65957343578338620000e+000) (23, -5.18284738063812260000e-001) (24, 5.13101935386657710000e-001) (25, 7.08691403269767760000e-002) (26, 9.60364878177642820000e-001) (27, 3.27305167913436890000e-001) (28, 5.65037667751312260000e-001) (29, 3.39012801647186280000e-001) (30, 3.42034995555877690000e-001) (31, 3.95789235830307010000e-001) (32, -1.03084206581115720000e-001) (33, -2.09875822067260740000e-001) (34, 1.90219115465879440000e-002) (35, -2.28961050510406490000e-001) (36, -3.89933919906616210000e+000) (37, -2.24966883659362790000e+000) (38, -1.26949787139892580000e-001) (39, 5.29222965240478520000e+000) (40, -6.00967550277709960000e+000) (41, -1.70665407180786130000e+000) (42, 1.71910369396209720000e+000) (43, -9.88298535346984860000e-001) (44, 8.95653128623962400000e-001) (45, -1.60223937034606930000e+000) (46, -7.25382506847381590000e-001) (47, 1.20633244514465330000e+000) (48, 3.49460631608963010000e-001) (49, 8.85347090661525730000e-003) (50, -6.71348422765731810000e-002) (51, 1.69178336858749390000e-001) (52, 2.54786819219589230000e-001) (53, 6.21989607810974120000e-001) (54, 8.86355996131896970000e-001) (55, -1.51633813977241520000e-001) (56, 5.36835730075836180000e-001) (57, -2.07044196128845210000e+000) (58, 4.41170215606689450000e-001) (59, 1.28720593452453610000e+000) (60, -4.54253554344177250000e-001) (61, 5.23577499389648440000e+000) (62, -3.95719909667968750000e+000) (63, -1.50134527683258060000e+000) (64, 4.35428649187088010000e-001) (65, -1.01946449279785160000e+000) (66, 9.56185758113861080000e-001) (67, 5.96070945262908940000e-001) (68, 7.81460106372833250000e-001) (69, -7.63154566287994380000e-001) (70, -9.75270211696624760000e-001) (71, 2.94390376657247540000e-002) (72, -3.47080230712890630000e-002) (73, 6.41514599323272710000e-001) (74, -5.79765513539314270000e-002) (75, -1.33475095033645630000e-001) (76, -2.66475975513458250000e-001) (77, 1.86816823482513430000e+000) (78, 7.68209993839263920000e-001) (79, 7.09518730640411380000e-001) (80, 6.91900029778480530000e-003) (81, 1.01272630691528320000e+000) (82, 9.30890083312988280000e-001) (83, 1.55099058151245120000e+000) (84, 1.15832018852233890000e+000) (85, -4.23626929521560670000e-001) (86, 3.50267291069030760000e+000) (87, 7.13196098804473880000e-002) (88, 5.29798328876495360000e-001) (89, 5.82588434219360350000e-001) (90, -1.75261008739471440000e+000) (91, 4.76538848876953130000e+000) (92, -2.92461276054382320000e-001) (93, -3.55563163757324220000e-001) (94, -3.60680848360061650000e-001) (95, -3.58790308237075810000e-002) (96, 2.63187575340271000000e+000) (97, -5.73093056678771970000e-001) (98, 1.07849705219268800000e+000) (99, 3.80511671304702760000e-001) (100, -1.71230107545852660000e-001) (101, 5.73643386363983150000e-001) (102, -4.57215428352355960000e-001) (103, 4.12597298622131350000e-001) (104, 2.99551963806152340000e-001) (105, -6.45309463143348690000e-002) (106, 2.50169664621353150000e-001) (107, 1.55849468708038330000e+000) (108, -5.57927966117858890000e-001) (109, 9.94627103209495540000e-002) (110, -1.89287006855010990000e-001) (111, -1.40415978431701660000e+000) (112, 1.55130600929260250000e+000) (113, 2.71735601127147670000e-002) (114, 4.70159709453582760000e-001) (115, -5.57073593139648440000e-001) (116, 8.43617677688598630000e-001) (117, -2.18441557884216310000e+000) (118, -5.67959189414978030000e-001) (119, -3.22931647300720210000e-001) (120, -6.26120209693908690000e-001) (121, -1.79512873291969300000e-001) (122, -9.05504941940307620000e-001) (123, -8.20473670959472660000e-001) (124, 3.18281292915344240000e-001) (125, 4.67920064926147460000e-001) (0, -4.63388919830322270000e-001) (1, -1.17244088649749760000e+000) (2, -7.28800669312477110000e-002) (3, -1.24315690994262700000e+000) (4, 5.93583919107913970000e-002) (5, 4.80470173060894010000e-002) (6, -2.07244053483009340000e-001) (7, 4.07176494598388670000e-001) (8, -4.08577442169189450000e+000) (9, 2.49973550438880920000e-001) (10, -3.99656072258949280000e-002) (11, -1.29403638839721680000e+000) (12, 1.04011285305023190000e+000) (13, -8.15892517566680910000e-001) (14, -1.23046994209289550000e+000) (15, -4.79100048542022710000e-001) (16, 8.26889276504516600000e-001) (17, 1.87509521842002870000e-001) (18, -5.56689500808715820000e-001) (19, 1.86897873878479000000e+000) (20, -1.23824730515480040000e-001) (21, -9.23031508922576900000e-001) (22, 1.27822029590606690000e+000) (23, -2.24847912788391110000e-001) (24, 5.36289438605308530000e-003) (25, -7.98739120364189150000e-002) (26, -1.01568198204040530000e+000) (27, 5.50571620464324950000e-001) (28, -1.87381222844123840000e-001) (29, 9.08962786197662350000e-002) (30, -2.07018494606018070000e-001) (31, -2.40165799856185910000e-001) (32, -4.06734168529510500000e-001) (33, 1.25494837760925290000e+000) (34, -5.02399444580078130000e-001) (35, 2.14866146445274350000e-001) (36, -1.52799487113952640000e+000) (37, 1.88214499503374100000e-002) (38, -2.92197793722152710000e-001) (39, 1.72002300620079040000e-001) (40, -5.91181039810180660000e-001) (41, 2.12633177638053890000e-001) (42, 4.42844718694686890000e-001) (43, -4.87411618232727050000e-001) (44, 1.93069726228713990000e-001) (45, 1.55010432004928590000e-001) (46, 7.24100649356842040000e-001) (47, 5.55397927761077880000e-001) (48, 1.55211329460144040000e-001) (49, 2.89412569999694820000e+000) (50, -1.68448746204376220000e-001) (51, -1.04206979274749760000e+000) (52, 3.80560666322708130000e-001) (53, 2.00468167662620540000e-001) (54, 2.39064526557922360000e+000) (55, -2.93543606996536250000e-001) (56, 7.59419023990631100000e-001) (57, 7.24038183689117430000e-001) (58, -6.31785392761230470000e-001) (59, 2.42438897490501400000e-001) (60, 6.67089045047760010000e-001) (61, 2.46676397323608400000e+000) (62, -7.83514916896820070000e-001) (63, -1.93028521537780760000e+000) (64, 2.79703438282012940000e-001) (65, 5.61351120471954350000e-001) (66, 4.55050677061080930000e-001) (67, -2.04278156161308290000e-001) (68, -1.10299181938171390000e+000) (69, 2.99319505691528320000e-001) (70, -3.07910203933715820000e-001) (71, -1.29579648375511170000e-001) (72, 9.65346515178680420000e-001) (73, 3.18560153245925900000e-001) (74, 3.00712752342224120000e+000) (75, -2.98883486539125440000e-002) (76, 6.42478466033935550000e-001) (77, -1.62523701786994930000e-001) (78, 1.11755847930908200000e+000) (79, 1.05990028381347660000e+000) (80, 5.18564164638519290000e-001) (81, -1.46027243137359620000e+000) (82, 1.00376260280609130000e+000) (83, 8.70276540517807010000e-002) (84, 9.33679044246673580000e-001) (85, 1.18275225162506100000e+000) (86, -3.84078770875930790000e-002) (87, -7.95331776142120360000e-001) (88, -1.18142831325531010000e+000) (89, 2.26082742214202880000e-001) (90, -1.96954846382141110000e-001) (91, -6.83841854333877560000e-002) (92, -7.40805864334106450000e-001) (93, 2.67277956008911130000e-001) (94, -9.73877668380737300000e-001) (95, -2.22266048192977910000e-001) (96, 1.31005001068115230000e+000) (97, 1.01070713996887210000e+000) (98, 3.31110298633575440000e-001) (99, 2.10937604308128360000e-001) (100, 2.52289623022079470000e-001) (101, 8.41727495193481450000e-001) (102, -3.00206303596496580000e-001) (103, -6.97383701801300050000e-001) (104, -1.04968726634979250000e-001) (105, 2.62489736080169680000e-001) (106, 3.54493260383605960000e-001) (107, -7.04931840300560000000e-002) (108, -7.76556968688964840000e-001) (109, 7.82644987106323240000e-001) (110, 1.12442418932914730000e-001) (111, -1.68172395229339600000e+000) (112, -3.53255629539489750000e-001) (113, -1.06663870811462400000e+000) (114, 1.71106493473052980000e+000) (115, -2.01738551259040830000e-001) (116, 6.37963116168975830000e-001) (117, -6.24549627304077150000e-001) (118, -8.40565562248229980000e-001) (119, -5.32213151454925540000e-001) (120, 1.43380537629127500000e-001) (121, 1.34115234017372130000e-001) (122, -6.26291096210479740000e-001) (123, 5.88778913021087650000e-001) (124, 1.53382271528244020000e-001) (125, -3.49125117063522340000e-001) (0, 2.76351749897003170000e-001) (1, -1.69503524899482730000e-001) (2, 9.45816218852996830000e-001) (3, 9.05872106552124020000e-001) (4, -1.34189283847808840000e+000) (5, 6.47954761981964110000e-001) (6, -2.46376186609268190000e-001) (7, 5.43206512928009030000e-001) (8, -8.86912882328033450000e-001) (9, 2.69749611616134640000e-001) (10, 1.07359266281127930000e+000) (11, -1.04745721817016600000e+000) (12, 3.70283842086791990000e-001) (13, 1.08188712596893310000e+000) (14, 5.95618486404418950000e-001) (15, 5.01895427703857420000e-001) (16, -1.04879382997751240000e-002) (17, 7.28646200150251390000e-003) (18, 1.19674241542816160000e+000) (19, -2.34029024839401250000e-001) (20, 1.16061401367187500000e+000) (21, -1.39143705368041990000e+000) (22, -6.85471594333648680000e-001) (23, 8.32286298274993900000e-001) (24, -1.01843583583831790000e+000) (25, -1.13432869315147400000e-001) (26, 2.01886129379272460000e+000) (27, -2.27221655845642090000e+000) (28, 4.32706922292709350000e-001) (29, -2.79381852596998210000e-002) (30, 3.67189437150955200000e-001) (31, 2.24214887619018550000e+000) (32, 8.60467731952667240000e-001) (33, 9.84787106513977050000e-001) (34, 8.00644695758819580000e-001) (35, 1.21540904045104980000e+000) (36, 1.13695299625396730000e+000) (37, 8.80872905254364010000e-001) (38, 3.83560568094253540000e-001) (39, -2.83682823181152340000e-001) (40, 6.67702496051788330000e-001) (41, 8.29672336578369140000e-001) (42, 4.57859218120574950000e-001) (43, -1.40971660614013670000e-001) (44, -1.68271139264106750000e-001) (45, 1.24648384749889370000e-001) (46, -7.93539285659790040000e-001) (47, -4.34415400028228760000e-001) (48, 1.09428621828556060000e-001) (49, -5.45747458934783940000e-001) (50, 7.59431481361389160000e-001) (51, 7.55994439125061040000e-001) (52, 1.77563571929931640000e+000) (53, -2.34891697764396670000e-001) (54, 1.30206733942031860000e-001) (55, 6.32535636425018310000e-001) (56, -6.42611086368560790000e-001) (57, -4.51600313186645510000e-001) (58, -1.90051925182342530000e+000) (59, 4.97600644826889040000e-001) (60, 1.68486702442169190000e+000) (61, 8.99672567844390870000e-001) (62, 3.07678699493408200000e-001) (63, 4.06702041625976560000e+000) (64, 1.35705590248107910000e-001) (65, 1.46670579910278320000e+000) (66, -9.77801084518432620000e-001) (67, -3.24451595544815060000e-001) (68, 6.39112472534179690000e+000) (69, 4.51148986816406250000e-001) (70, 2.19055950641632080000e-001) (71, -5.37278428673744200000e-002) (72, -7.31990098953247070000e-001) (73, 6.27995848655700680000e-001) (74, -6.67769312858581540000e-001) (75, 9.41388681530952450000e-002) (76, 5.10987281799316410000e-001) (77, 7.51788020133972170000e-001) (78, 1.46393632888793950000e+000) (79, -8.94778668880462650000e-002) (80, 1.28396064043045040000e-001) (81, -2.01342082023620610000e+000) (82, -4.73305612802505490000e-001) (83, 2.41846203804016110000e+000) (84, -4.94974046945571900000e-001) (85, -2.44583889842033390000e-001) (86, -9.40137505531311040000e-001) (87, 2.09824657440185550000e+000) (88, 8.43532085418701170000e+000) (89, -1.40220403671264650000e+000) (90, 6.29511892795562740000e-001) (91, -5.97011864185333250000e-001) (92, 3.79764288663864140000e-002) (93, 3.57950139045715330000e+000) (94, -1.81744888424873350000e-001) (95, -5.92689573764801030000e-001) (96, 2.13570818305015560000e-001) (97, 1.05354607105255130000e+000) (98, -1.47088563442230220000e+000) (99, -1.69091939926147460000e-001) (100, 2.58851945400238040000e-001) (101, -7.31788501143455510000e-002) (102, 5.04157662391662600000e-001) (103, -2.72435933351516720000e-001) (104, -2.82052099704742430000e-001) (105, 2.46589154005050660000e-001) (106, -1.72215580940246580000e-001) (107, 3.02206963300704960000e-001) (108, 1.68802475929260250000e+000) (109, -4.41341996192932130000e-001) (110, 1.14448273181915280000e+000) (111, -1.55344724655151370000e+000) (112, -1.19555330276489260000e+000) (113, 5.53654544055461880000e-002) (114, -6.99042081832885740000e-001) (115, 1.04688107967376710000e+000) (116, -7.22831904888153080000e-001) (117, 1.07209908962249760000e+000) (118, -1.37648272514343260000e+000) (119, -4.75072890520095830000e-001) (120, 1.96995034813880920000e-001) (121, 3.15054744482040410000e-001) (122, -1.39584124088287350000e+000) (123, -4.39613133668899540000e-001) (124, 1.96306705474853520000e-001) (125, -1.70939350128173830000e+000) (0, 6.22268915176391600000e-001) (1, 6.89449846744537350000e-001) (2, 1.55294418334960940000e-001) (3, 1.41694635152816770000e-001) (4, -3.08023154735565190000e-001) (5, 3.72218340635299680000e-001) (6, 5.92360734939575200000e-001) (7, -3.46683561801910400000e-001) (8, -6.72128975391387940000e-001) (9, 6.47477388381958010000e-001) (10, -2.44786962866783140000e-001) (11, -5.33294260501861570000e-001) (12, 1.65757730603218080000e-001) (13, 7.32330679893493650000e-001) (14, 2.40988254547119140000e-001) (15, 4.66804713010787960000e-001) (16, -1.09244632720947270000e+000) (17, 1.28302049636840820000e+000) (18, -1.42645585536956790000e+000) (19, 3.09369623661041260000e-001) (20, 6.74596130847930910000e-001) (21, -6.46357417106628420000e-001) (22, 7.69064307212829590000e-001) (23, -2.89983558654785160000e+000) (24, 2.25595626980066300000e-002) (25, 8.22307705879211430000e-001) (26, 4.81916040182113650000e-001) (27, 2.31461584568023680000e-001) (28, -1.73561707139015200000e-001) (29, 1.36877764016389850000e-002) (30, 3.70009154081344600000e-001) (31, 7.07982420921325680000e-001) (32, -4.46746706962585450000e-001) (33, -6.56373381614685060000e-001) (34, 1.67477875947952270000e-001) (35, 2.07360416650772090000e-001) (36, 5.87875366210937500000e-001) (37, 9.20281231403350830000e-001) (38, -6.41829013824462890000e-001) (39, -3.83983850479125980000e-002) (40, 3.12099397182464600000e-001) (41, 1.51494331657886510000e-002) (42, 3.51046547293663020000e-002) (43, 1.58340156078338620000e+000) (44, 2.92987376451492310000e-001) (45, -9.11646410822868350000e-002) (46, 3.58768068253993990000e-002) (47, 5.28865158557891850000e-001) (48, 7.63564944267272950000e-001) (49, -4.50734078884124760000e-001) (50, 5.76275825500488280000e-001) (51, 4.29608553647995000000e-001) (52, 5.65261542797088620000e-001) (53, 2.11464986205101010000e-001) (54, -9.40278530120849610000e-001) (55, 8.70330154895782470000e-001) (56, 5.90413570404052730000e-001) (57, -2.09245517849922180000e-001) (58, 2.39172399044036870000e-001) (59, 1.92749783396720890000e-001) (60, -1.31792545318603520000e-001) (61, -1.43804705142974850000e+000) (62, -1.04338550567626950000e+000) (63, -1.11339211463928220000e+000) (64, -3.22728753089904790000e-001) (65, -2.34300002455711360000e-001) (66, -2.74343878030776980000e-001) (67, 7.49359667301177980000e-001) (68, -1.53173327445983890000e+000) (69, -8.73382151126861570000e-001) (70, -1.80194720625877380000e-001) (71, 1.46659195423126220000e+000) (72, 2.89092808961868290000e-001) (73, -4.82208919525146480000e+000) (74, -1.01055061817169190000e+000) (75, 8.68995070457458500000e-001) (76, 6.44848763942718510000e-001) (77, -5.42191267013549800000e-002) (78, -2.11634904146194460000e-001) (79, -2.21066281199455260000e-001) (80, 3.48800987005233760000e-001) (81, 3.59648436307907100000e-001) (82, -3.44904482364654540000e-001) (83, -3.30736279487609860000e-001) (84, -1.46219864487648010000e-001) (85, -1.59928113222122190000e-001) (86, 5.17027735710144040000e-001) (87, 5.07968738675117490000e-002) (88, -4.42153632640838620000e-001) (89, -5.96095502376556400000e-001) (90, 3.98484647274017330000e-001) (91, 5.24818003177642820000e-001) (92, 1.02432370185852050000e+000) (93, -2.75865057483315470000e-003) (94, 8.81530717015266420000e-002) (95, 7.83951699733734130000e-001) (96, -7.32473194599151610000e-001) (97, -1.07765316963195800000e+000) (98, -5.59031665325164790000e-001) (99, -1.93587005138397220000e-001) (100, -2.33540683984756470000e-001) (101, 1.87809109687805180000e-001) (102, 8.02850306034088130000e-001) (103, -7.20051676034927370000e-002) (104, 1.82453095912933350000e-001) (105, 4.23344016075134280000e-001) (106, -3.69307070970535280000e-001) (107, 2.90541440248489380000e-001) (108, 1.28304791450500490000e+000) (109, -3.14736545085906980000e-001) (110, 4.74101334810256960000e-001) (111, 7.35353410243988040000e-001) (112, -5.03843307495117190000e-001) (113, -1.95991680026054380000e-001) (114, -9.51124966144561770000e-001) (115, 4.07734870910644530000e-001) (116, -1.50148436427116390000e-001) (117, 5.30304908752441410000e-001) (118, -8.39731931686401370000e-001) (119, -9.14808921515941620000e-003) (120, -2.89389014244079590000e-001) (121, 1.88659764826297760000e-002) (122, -3.62485721707344060000e-002) (123, -5.69930434226989750000e-001) (124, 1.10484827309846880000e-002) (125, -2.73394227027893070000e-001) (0, 4.07737493515014650000e+000) (1, -1.91418266296386720000e+000) (2, -5.74021100997924800000e-001) (3, -6.27274930477142330000e-001) (4, 1.16021382808685300000e+000) (5, 1.85669791698455810000e+000) (6, 5.50515890121459960000e+000) (7, 4.03787791728973390000e-001) (8, -1.71186588704586030000e-002) (9, 1.58069002628326420000e+000) (10, 1.28460741043090820000e+000) (11, -3.10926246643066410000e+000) (12, 2.17127457261085510000e-001) (13, 7.10755407810211180000e-001) (14, 7.61368215084075930000e-001) (15, 3.84676903486251830000e-001) (16, -6.43008291721343990000e-001) (17, -2.37774944305419920000e+000) (18, -6.73265814781188960000e-001) (19, -1.15792882442474370000e+000) (20, 1.76899746060371400000e-001) (21, -2.01665148138999940000e-001) (22, -7.23789781332015990000e-002) (23, 1.10870981216430660000e+000) (24, 3.06473255157470700000e-001) (25, 1.41748964786529540000e+000) (26, 2.09379386901855470000e+000) (27, 3.07378590106964110000e-001) (28, 1.77767336368560790000e+000) (29, -1.61534592509269710000e-001) (30, 2.30710792541503910000e+000) (31, -4.47078883647918700000e-001) (32, -1.84619233012199400000e-001) (33, -5.97947657108306880000e-001) (34, -4.80205744504928590000e-001) (35, 3.98432940244674680000e-001) (36, -7.78097808361053470000e-001) (37, -1.90067932009696960000e-001) (38, 7.22837567329406740000e-001) (39, -7.98188388347625730000e-001) (40, 2.48984694480896000000e+000) (41, -1.65359342098236080000e+000) (42, 5.21485686302185060000e-001) (43, -1.56649112701416020000e+000) (44, -1.87628492712974550000e-001) (45, 8.12895178794860840000e-001) (46, -1.67402207851409910000e+000) (47, -7.41926729679107670000e-001) (48, 2.85866200923919680000e-001) (49, 2.38557551056146620000e-002) (50, 2.63192415237426760000e+000) (51, 1.23141407966613770000e+000) (52, -1.18423640727996830000e-001) (53, 4.89193312823772430000e-002) (54, -4.43716704845428470000e-001) (55, 1.72072982788085940000e+000) (56, -7.39650249481201170000e-001) (57, 1.35131590068340300000e-002) (58, 6.79882287979125980000e-001) (59, -1.26478815078735350000e+000) (60, 3.13509821891784670000e-001) (61, -3.16308331489562990000e+000) (62, 8.89253556728363040000e-001) (63, 1.79203832149505620000e+000) (64, -1.00154541432857510000e-001) (65, 6.43122121691703800000e-002) (66, -4.90562856197357180000e-001) (67, 5.98750293254852290000e-001) (68, -1.62732347846031190000e-001) (69, -2.91713714599609380000e-001) (70, 1.97326526045799260000e-001) (71, -2.21988654136657710000e+000) (72, 3.12818676233291630000e-001) (73, 2.52015304565429690000e+000) (74, 1.21036899089813230000e+000) (75, 6.85754358768463130000e-001) (76, -2.71773529052734370000e+000) (77, -7.08752349019050600000e-002) (78, -1.04863071441650390000e+000) (79, -6.46863162517547610000e-001) (80, 4.32606506347656250000e+000) (81, 1.98607957363128660000e+000) (82, -3.34125608205795290000e-001) (83, -3.18511509895324710000e+000) (84, 1.34921693801879880000e+000) (85, 2.49672204256057740000e-001) (86, -2.14478111267089840000e+000) (87, -2.03453564643859860000e+000) (88, 1.94900989532470700000e+000) (89, 7.55689501762390140000e-001) (90, 7.21327215433120730000e-002) (91, -1.97895777225494380000e+000) (92, -2.41372823715209960000e-001) (93, 1.28404110670089720000e-001) (94, 1.03455841541290280000e+000) (95, 1.70735701918601990000e-001) (96, -3.76308393478393550000e+000) (97, -9.39040064811706540000e-001) (98, 2.58333832025527950000e-002) (99, -5.57586908340454100000e-001) (100, 6.50472342967987060000e-001) (101, -1.07773028314113620000e-001) (102, -1.40179800987243650000e+000) (103, 1.15114618092775340000e-002) (104, -5.59324979782104490000e-001) (105, 1.09790384769439700000e+000) (106, -1.16315174102783200000e+000) (107, -1.46245563030242920000e+000) (108, 1.38192605972290040000e+000) (109, 4.73902970552444460000e-001) (110, 2.60362416505813600000e-001) (111, 2.65993618965148930000e+000) (112, 2.25520586967468260000e+000) (113, 8.80554243922233580000e-002) (114, -9.78139564394950870000e-002) (115, 2.13471595197916030000e-002) (116, -8.61594498157501220000e-001) (117, 1.49390864372253420000e+000) (118, -3.09364348649978640000e-001) (119, 5.92318356037139890000e-001) (120, -1.52762293815612790000e-001) (121, -1.76070761680603030000e+000) (122, 1.12485098838806150000e+000) (123, -1.10481429100036620000e+000) (124, 1.32169830799102780000e+000) (125, -1.52952700853347780000e-001) (0, 3.54412108659744260000e-001) (1, -1.76646661758422850000e+000) (2, -4.28628772497177120000e-002) (3, 1.49705457687377930000e+000) (4, 2.29899343103170390000e-002) (5, 6.54786527156829830000e-001) (6, -1.23073709011077880000e+000) (7, 8.23699086904525760000e-002) (8, -1.59708070755004880000e+000) (9, 3.73504608869552610000e-001) (10, 2.14017555117607120000e-002) (11, 1.28308057785034180000e+000) (12, 2.83632898330688480000e+000) (13, -3.51872301101684570000e+000) (14, -2.20556091517210010000e-002) (15, 5.39559163153171540000e-002) (16, 2.82546019554138180000e+000) (17, 1.51772737503051760000e+000) (18, -1.53090512752532960000e+000) (19, -6.10455632209777830000e-001) (20, 2.25574150681495670000e-001) (21, -4.60153490304946900000e-001) (22, 7.08041131496429440000e-001) (23, 8.22726070880889890000e-001) (24, 9.29699540138244630000e-001) (25, 1.06942975521087650000e+000) (26, -1.08879113197326660000e+000) (27, -1.51969766616821290000e+000) (28, 5.43682277202606200000e-001) (29, -1.21732032299041750000e+000) (30, 3.21016848087310790000e-001) (31, 3.66000008583068850000e+000) (32, -2.61070996522903440000e-001) (33, -2.73797130584716800000e+000) (34, -1.61038860678672790000e-002) (35, 1.10070325434207920000e-001) (36, -1.23578512668609620000e+000) (37, 3.10746884346008300000e+000) (38, -1.70212161540985110000e+000) (39, 1.49651551246643070000e+000) (40, 2.36915603280067440000e-001) (41, -6.76668286323547360000e-001) (42, -6.53729557991027830000e-001) (43, 4.82272177934646610000e-001) (44, -2.76353299617767330000e-001) (45, 6.10647320747375490000e-001) (46, 4.27658736705780030000e-001) (47, 6.48289263248443600000e-001) (48, -6.11410081386566160000e-001) (49, 3.98764461278915410000e-001) (50, 5.32029330730438230000e-001) (51, -1.99846565723419190000e-001) (52, 1.55810847878456120000e-001) (53, -4.09726798534393310000e-001) (54, -2.31414347887039180000e-001) (55, 7.31539905071258540000e-001) (56, 1.27112007141113280000e+000) (57, 3.03241074085235600000e-001) (58, 1.37919270992279050000e+000) (59, 4.00973129272460940000e+000) (60, 1.03540800511837010000e-001) (61, 2.08952236175537110000e+000) (62, -4.15251016616821290000e+000) (63, -1.36716279983520510000e+001) (64, 4.59820079803466800000e+000) (65, 1.46065931767225270000e-002) (66, -2.54160976409912110000e+000) (67, -1.68931305408477780000e+000) (68, -4.80210399627685550000e+000) (69, 3.22484314441680910000e-001) (70, -9.64201986789703370000e-001) (71, 1.22614219784736630000e-001) (72, 1.88697814941406250000e+000) (73, -8.29686939716339110000e-001) (74, 1.67867624759674070000e+000) (75, 1.09244298934936520000e+000) (76, 2.10475564002990720000e+000) (77, -6.52302026748657230000e-001) (78, -1.60461282730102540000e+000) (79, -8.43512415885925290000e-002) (80, 2.90743732452392580000e+000) (81, -3.57096672058105470000e-001) (82, -2.26573407649993900000e-001) (83, -1.53969514369964600000e+000) (84, 1.05088770389556880000e+000) (85, 4.51183855533599850000e-001) (86, -1.41056156158447270000e+000) (87, -3.17251503467559810000e-001) (88, -1.11117959022521970000e+000) (89, 3.26348483562469480000e-001) (90, 9.62380692362785340000e-002) (91, 1.01917707920074460000e+000) (92, -2.30796664953231810000e-001) (93, 1.85018539428710940000e-001) (94, 1.40585992485284810000e-002) (95, 1.91650584340095520000e-001) (96, 5.35240888595581050000e-001) (97, 1.62773561477661130000e+000) (98, 5.29032409191131590000e-001) (99, -1.38281777501106260000e-001) (100, 3.26039969921112060000e-001) (101, 6.89733028411865230000e-001) (102, 1.17498934268951420000e-002) (103, -1.89628809690475460000e-001) (104, -6.74508452415466310000e-001) (105, 7.59742558002471920000e-001) (106, 1.98183023929595950000e+000) (107, 2.00777173042297360000e+000) (108, -2.21238350868225100000e+000) (109, 4.20109808444976810000e-001) (110, 3.32626014947891240000e-001) (111, 6.41477823257446290000e-001) (112, 3.01140785217285160000e-001) (113, 3.34443002939224240000e-002) (114, -4.95564669370651250000e-001) (115, 7.39102587103843690000e-002) (116, -1.91231772303581240000e-001) (117, 1.68949544429779050000e-001) (118, -1.59560307860374450000e-001) (119, -1.96040225028991700000e+000) (120, 1.69713839888572690000e-001) (121, 3.37697952985763550000e-001) (122, -9.24763381481170650000e-001) (123, -1.64097607135772710000e+000) (124, 1.80841982364654540000e-001) (125, -5.01072220504283910000e-002) (0, -3.92176583409309390000e-002) (1, -4.82813492417335510000e-002) (2, -3.44505000114440920000e+000) (3, 2.20592170953750610000e-001) (4, -2.07156634330749510000e+000) (5, 7.74054899811744690000e-002) (6, -1.90413868427276610000e+000) (7, 2.71613717079162600000e-001) (8, 9.38852906227111820000e-001) (9, 1.91485330462455750000e-001) (10, 8.39309841394424440000e-002) (11, -5.83501219749450680000e-001) (12, -5.42015135288238530000e-001) (13, -2.50856184959411620000e+000) (14, 3.38143348693847660000e-001) (15, -2.06654109060764310000e-002) (16, 6.35045170783996580000e-001) (17, 4.11770552396774290000e-001) (18, 1.23664057254791260000e+000) (19, -9.91088092327117920000e-001) (20, -2.91973147541284560000e-002) (21, -7.60176837444305420000e-001) (22, 1.19181990623474120000e+000) (23, -2.45584487915039060000e+000) (24, -1.17061948776245120000e+000) (25, 1.74081191420555110000e-001) (26, -1.27892482280731200000e+000) (27, -3.37544351816177370000e-001) (28, -1.55609756708145140000e-001) (29, -6.99118971824646000000e-002) (30, -7.55887567996978760000e-001) (31, 5.55679798126220700000e-001) (32, -5.73345899581909180000e-001) (33, -1.40665039420127870000e-001) (34, -3.65347951650619510000e-001) (35, -3.46851736307144170000e-001) (36, -3.77563023567199710000e+000) (37, 1.05545568466186520000e+000) (38, -1.12889254093170170000e+000) (39, 1.87391388416290280000e+000) (40, 6.84385776519775390000e-001) (41, 2.16372534632682800000e-001) (42, -3.77434223890304570000e-001) (43, -1.53533744812011720000e+000) (44, -1.55141144990921020000e-001) (45, 1.30462992191314700000e+000) (46, 2.46420288085937500000e+000) (47, -5.06739139556884770000e+000) (48, -1.07492423057556150000e+000) (49, 1.08252547681331630000e-001) (50, 2.48203545808792110000e-001) (51, -6.77635729312896730000e-001) (52, 2.63500642776489260000e+000) (53, -2.71165426820516590000e-002) (54, 1.80491816997528080000e+000) (55, 2.21370711922645570000e-001) (56, 3.58512973785400390000e+000) (57, -9.94579613208770750000e-001) (58, 7.97370731830596920000e-001) (59, -2.24714040756225590000e+000) (60, -2.53143996000289920000e-001) (61, 6.17043542861938480000e+000) (62, 2.17317867279052730000e+000) (63, -7.36720114946365360000e-003) (64, -3.33907008171081540000e-001) (65, 3.51888462901115420000e-002) (66, 2.39075636863708500000e+000) (67, 6.11112058162689210000e-001) (68, 4.94465684890747070000e+000) (69, 1.66491523385047910000e-001) (70, 1.09952524304389950000e-001) (71, -1.25327348709106450000e+000) (72, 1.06653165817260740000e+000) (73, 7.33136951923370360000e-001) (74, -4.34247970581054690000e-001) (75, -1.56081283092498780000e+000) (76, 1.21963953971862790000e+000) (77, -2.10160344839096070000e-001) (78, -1.43456113338470460000e+000) (79, 9.94732141494750980000e-001) (80, -1.66951254010200500000e-001) (81, -2.52600741386413570000e+000) (82, 2.42321223020553590000e-001) (83, -4.23090875148773190000e-001) (84, -2.47810339927673340000e+000) (85, -1.26870882511138920000e+000) (86, -6.06358408927917480000e-001) (87, 4.77413356304168700000e-001) (88, 7.14840793609619140000e+000) (89, -4.02937024831771850000e-001) (90, -2.62803286314010620000e-001) (91, 4.84120905399322510000e-001) (92, 1.19439077377319340000e+000) (93, 1.78640854358673100000e+000) (94, -7.47590065002441410000e-001) (95, -4.33401584625244140000e-001) (96, -5.66462099552154540000e-001) (97, -3.25064587593078610000e+000) (98, -1.55781269073486330000e+000) (99, -6.28992676734924320000e-001) (100, -2.08047151565551760000e+000) (101, 1.47316706180572510000e+000) (102, -2.17767071723937990000e+000) (103, -4.68344166874885560000e-002) (104, 1.18269145488739010000e+000) (105, -4.75640177726745610000e-001) (106, 3.71543020009994510000e-002) (107, 5.14915049076080320000e-001) (108, 7.72088110446929930000e-001) (109, -8.88088345527648930000e-001) (110, -4.61013048887252810000e-001) (111, -5.84178149700164790000e-001) (112, -2.30037569999694820000e+000) (113, 5.01142740249633790000e+000) (114, -1.20111525058746340000e+000) (115, -5.53111553192138670000e-001) (116, 2.05408143997192380000e+000) (117, 2.55505466461181640000e+000) (118, -9.75216999650001530000e-002) (119, 2.61441748589277270000e-002) (120, -2.82360076904296880000e-001) (121, -9.82041120529174800000e-001) (122, 4.66623127460479740000e-001) (123, -6.15797698497772220000e-001) (124, -5.47955214977264400000e-001) (125, 1.27592098712921140000e+000) (0, -6.97371542453765870000e-001) (1, 1.27734653651714320000e-002) (2, -1.31629979610443120000e+000) (3, 2.90309190750122070000e+000) (4, 9.51118290424346920000e-001) (5, -6.11380040645599370000e-001) (6, -3.35277080535888670000e-001) (7, -9.60011720657348630000e-001) (8, 2.23782682418823240000e+000) (9, -3.68753045797348020000e-001) (10, 5.57544734328985210000e-003) (11, 1.10124731063842770000e+000) (12, 1.73585164546966550000e+000) (13, -1.97465562820434570000e+000) (14, 4.70805853605270390000e-001) (15, -5.77778697013854980000e-001) (16, -8.78800511360168460000e-001) (17, -3.49024653434753420000e+000) (18, -4.37185108661651610000e-001) (19, 3.38550329208374020000e+000) (20, -1.56976735591888430000e+000) (21, -9.34001564979553220000e-001) (22, 1.44988548755645750000e+000) (23, 1.92923951148986820000e+000) (24, 1.71473234891891480000e-001) (25, 2.74649202823638920000e-001) (26, 2.24590802192687990000e+000) (27, -1.65359807014465330000e+000) (28, -3.99552297592163090000e+000) (29, 5.15180945396423340000e-001) (30, -1.72890976071357730000e-001) (31, -8.66341352462768550000e-001) (32, -1.11292505264282230000e+000) (33, -1.94913601875305180000e+000) (34, 7.21345067024230960000e-001) (35, 3.29492613673210140000e-002) (36, 1.87210643291473390000e+000) (37, -1.61065232753753660000e+000) (38, 1.04833412170410160000e+000) (39, 1.62240779399871830000e+000) (40, 2.03092455863952640000e-001) (41, 3.03621411323547360000e+000) (42, -1.92938756942749020000e+000) (43, 6.78606867790222170000e-001) (44, -2.47598513960838320000e-001) (45, 3.70749235153198240000e-001) (46, 1.30819559097290040000e+000) (47, -3.32041621208190920000e-001) (48, 3.15947294235229490000e+000) (49, 2.72421979904174800000e+000) (50, -3.54815930128097530000e-001) (51, -4.82360720634460450000e-001) (52, 2.66764879226684570000e-001) (53, 3.06075763702392580000e+000) (54, 1.58979743719100950000e-001) (55, -5.50084710121154790000e-001) (56, 3.18808960914611820000e+000) (57, -1.39560151100158690000e+000) (58, 6.94618129730224610000e+000) (59, 6.31571531295776370000e+000) (60, 2.33710572123527530000e-001) (61, 8.61120414733886720000e+000) (62, -1.32397127151489260000e+000) (63, 4.32145023345947270000e+000) (64, 1.35217499732971190000e+000) (65, 2.87917703390121460000e-001) (66, 2.45814299583435060000e+000) (67, -5.90656936168670650000e-001) (68, 6.37967395782470700000e+000) (69, 2.39109188318252560000e-001) (70, 3.40115353465080260000e-002) (71, -6.82407259941101070000e-001) (72, -2.05306982994079590000e+000) (73, 1.83342659473419190000e+000) (74, 1.46331226825714110000e+000) (75, 7.36219465732574460000e-001) (76, -1.96061933040618900000e+000) (77, 1.34540081024169920000e-001) (78, -9.80615913867950440000e-001) (79, -2.71772116422653200000e-001) (80, 1.62897169589996340000e+000) (81, -8.17921817302703860000e-001) (82, 3.10786128044128420000e-001) (83, 1.61321973800659180000e+000) (84, 7.55425095558166500000e-001) (85, 9.04732584953308110000e-001) (86, -7.99401625990867610000e-002) (87, -9.35059249401092530000e-001) (88, 1.11554241180419920000e+000) (89, 8.64356160163879390000e-002) (90, 5.79054355621337890000e-001) (91, 1.24957799911499020000e-001) (92, -1.69102680683135990000e+000) (93, -1.57896828651428220000e+000) (94, -2.10770583152771000000e+000) (95, 8.40244069695472720000e-002) (96, -5.40980756282806400000e-001) (97, 2.71096563339233400000e+000) (98, -2.04168605804443360000e+000) (99, -1.32591649889945980000e-001) (100, -3.20225298404693600000e-001) (101, 3.55230718851089480000e-001) (102, -5.62281012535095210000e-001) (103, -3.42498579993844030000e-003) (104, 7.21334397792816160000e-001) (105, -1.04486632347106930000e+000) (106, 3.85017299652099610000e+000) (107, 1.66854846477508540000e+000) (108, 1.25280860811471940000e-003) (109, 1.10023748874664310000e+000) (110, 5.43238222599029540000e-001) (111, -5.14511883258819580000e-001) (112, 1.99011409282684330000e+000) (113, -1.42008471488952640000e+000) (114, 1.40269130468368530000e-001) (115, 4.81139980256557460000e-002) (116, 1.93949639797210690000e+000) (117, 6.23774349689483640000e-001) (118, 1.35854625701904300000e+000) (119, 7.51321315765380860000e-001) (120, -1.65862351655960080000e-001) (121, 9.11868155002593990000e-001) (122, 9.10419225692749020000e-001) (123, 1.05670130252838130000e+000) (124, 8.53102505207061770000e-001) (125, 2.97493696212768550000e-001) (0, 8.32367420196533200000e-001) (1, 1.04944670200347900000e+000) (2, -8.02714228630065920000e-001) (3, 9.92275297641754150000e-001) (4, 1.77482509613037110000e+000) (5, 8.96051108837127690000e-001) (6, 7.33407258987426760000e-001) (7, 1.76303610205650330000e-001) (8, 1.01763047277927400000e-001) (9, 2.83999872207641600000e+000) (10, 2.07362145185470580000e-001) (11, -1.60590052604675290000e-001) (12, -2.82371878623962400000e+000) (13, -2.94655561447143550000e-001) (14, 3.26324272155761720000e+000) (15, 1.62633851170539860000e-001) (16, -2.89885687828063960000e+000) (17, -8.02983105182647710000e-001) (18, -3.57278972864151000000e-001) (19, 4.72153425216674800000e+000) (20, 7.84199535846710210000e-002) (21, -4.52654808759689330000e-001) (22, 4.72575366497039790000e-001) (23, -5.12551844120025630000e-001) (24, 1.17590284347534180000e+000) (25, 9.77375507354736330000e-001) (26, -6.87023758888244630000e-001) (27, 1.07554686069488530000e+000) (28, -2.27553173899650570000e-001) (29, 1.99326239526271820000e-002) (30, 2.43753743171691890000e+000) (31, 1.11976492404937740000e+000) (32, -4.72704097628593440000e-002) (33, 7.59454667568206790000e-001) (34, 2.43561625480651860000e-001) (35, 6.66684627532958980000e-001) (36, -1.61295443773269650000e-001) (37, -1.35504806041717530000e+000) (38, -2.49401435256004330000e-001) (39, 1.00614261627197270000e+000) (40, 1.05610050261020660000e-001) (41, -1.33525383472442630000e+000) (42, -1.68625652790069580000e+000) (43, -7.94272541999816890000e-001) (44, 1.54805862903594970000e+000) (45, -3.14378172159194950000e-001) (46, -5.71050584316253660000e-001) (47, 3.63421231508255000000e-001) (48, -1.25878855586051940000e-001) (49, -1.04229651391506200000e-001) (50, 8.48515093326568600000e-001) (51, -3.23736691474914550000e+000) (52, 1.15575909614562990000e+000) (53, -3.17535877227783200000e-001) (54, 1.66181099414825440000e+000) (55, 1.11946535110473630000e+000) (56, -1.28482186794281010000e+000) (57, -5.09984731674194340000e-001) (58, 1.14193737506866460000e+000) (59, -2.56466329097747800000e-001) (60, 1.63435608148574830000e-001) (61, -7.31092333793640140000e-001) (62, -2.06031179428100590000e+000) (63, -3.90899944305419920000e+000) (64, 3.39970827102661130000e-001) (65, 1.65044948458671570000e-001) (66, -1.22574484348297120000e+000) (67, -2.30075150728225710000e-001) (68, -5.29543876647949220000e+000) (69, 3.08435499668121340000e-001) (70, -1.71667505055665970000e-002) (71, -7.83043682575225830000e-001) (72, 6.48090615868568420000e-002) (73, 6.69012069702148440000e-002) (74, 6.98290348052978520000e-001) (75, 7.04080939292907710000e-001) (76, -2.71041300147771840000e-002) (77, -4.44914788007736210000e-001) (78, -1.10837030410766600000e+000) (79, -1.28344750404357910000e+000) (80, 1.83219373226165770000e-001) (81, -2.68693256378173830000e+000) (82, -1.63846039772033690000e+000) (83, -1.36914575099945070000e+000) (84, -1.29184985160827640000e+000) (85, 1.53800800442695620000e-001) (86, 1.93925058841705320000e+000) (87, 3.79405140876770020000e-001) (88, -9.28225636482238770000e-001) (89, 3.35646234452724460000e-002) (90, -1.26519501209259030000e-001) (91, -1.14319527149200440000e+000) (92, -1.67056477069854740000e+000) (93, -6.95140957832336430000e-001) (94, 2.48896330595016480000e-001) (95, -5.57986795902252200000e-002) (96, 1.73548233509063720000e+000) (97, 1.93080556392669680000e+000) (98, -8.65279376506805420000e-001) (99, 4.35576662421226500000e-002) (100, 3.58668982982635500000e-001) (101, 4.73649561405181880000e-001) (102, 1.67774665355682370000e+000) (103, 2.85581320524215700000e-001) (104, 1.45383739471435550000e+000) (105, 5.83330333232879640000e-001) (106, -4.58628773689270020000e-001) (107, -2.52764075994491580000e-001) (108, -6.58439338207244870000e-001) (109, 8.85439336299896240000e-001) (110, 1.61449313163757320000e-001) (111, -2.96407431364059450000e-001) (112, -1.49049669504165650000e-001) (113, -1.73358917236328130000e+000) (114, -3.95334839820861820000e-001) (115, 4.20362539589405060000e-002) (116, 2.17537447810173030000e-001) (117, 1.87382912635803220000e+000) (118, -4.04468864202499390000e-001) (119, 2.63264566659927370000e-001) (120, 6.35253861546516420000e-002) (121, -2.49362792819738390000e-002) (122, -2.60088300704956050000e+000) (123, -2.08158016204833980000e+000) (124, 1.92000314593315120000e-001) (125, -2.85459828376770020000e+000) (0, 9.03762400150299070000e-001) (1, -9.98218834400177000000e-001) (2, 8.50002706050872800000e-001) (3, -5.42399704456329350000e-001) (4, -3.22423242032527920000e-002) (5, 1.35016667842864990000e+000) (6, -2.18360334634780880000e-001) (7, -4.56662267446517940000e-001) (8, 9.19757306575775150000e-001) (9, -4.28719967603683470000e-001) (10, 2.05062055587768550000e+000) (11, -1.20580509305000310000e-001) (12, -6.28791570663452150000e-001) (13, -1.43083715438842770000e+000) (14, 2.74067819118499760000e-001) (15, 5.04208505153656010000e-001) (16, 1.22062611579895020000e+000) (17, -9.62699532508850100000e-001) (18, -2.35616207122802730000e-001) (19, -1.80459365248680110000e-001) (20, 6.51923239231109620000e-001) (21, 8.61454606056213380000e-002) (22, -1.75003409385681150000e-001) (23, -1.61492204666137700000e+000) (24, -6.84694051742553710000e-001) (25, -2.78364956378936770000e-001) (26, -1.28288775682449340000e-001) (27, 3.85855585336685180000e-001) (28, -9.05290901660919190000e-001) (29, 3.82634609937667850000e-001) (30, 9.65757310390472410000e-001) (31, -7.94451296329498290000e-001) (32, 1.85205802321434020000e-001) (33, 1.25238835811614990000e-001) (34, 9.07974839210510250000e-001) (35, 7.25238442420959470000e-001) (36, 1.16078794002532960000e+000) (37, 6.50050520896911620000e-001) (38, -5.28944969177246090000e-001) (39, 9.66794490814208980000e-001) (40, 5.03001332283020020000e-001) (41, -1.42129557207226750000e-002) (42, -5.53702235221862790000e-001) (43, 3.26584607362747190000e-001) (44, 8.60256850719451900000e-001) (45, 3.08621227741241460000e-001) (46, -3.17859590053558350000e-001) (47, -8.57901871204376220000e-002) (48, 2.02518701553344730000e+000) (49, 3.93567234277725220000e-001) (50, 7.51016199588775630000e-001) (51, 6.11046910285949710000e-001) (52, 9.41588997840881350000e-001) (53, 6.32895827293396000000e-001) (54, -2.90514826774597170000e-001) (55, 1.18269050121307370000e+000) (56, 8.70801627635955810000e-001) (57, 4.92580890655517580000e-001) (58, -1.49823331832885740000e+000) (59, -5.12126803398132320000e-001) (60, 6.39113426208496090000e-001) (61, -6.69323110580444340000e+000) (62, 1.32830083370208740000e+000) (63, -9.13128674030303960000e-001) (64, -6.62685871124267580000e-001) (65, 5.06507992744445800000e-001) (66, -2.78451323509216310000e+000) (67, 4.17749285697937010000e-001) (68, 1.23037314414978030000e+000) (69, -3.56649011373519900000e-001) (70, 6.16105973720550540000e-001) (71, 1.47937238216400150000e-001) (72, -4.67764258384704590000e-001) (73, 1.34750080108642580000e+000) (74, -4.60433006286621090000e-001) (75, 4.22004908323287960000e-001) (76, -2.02272236347198490000e-001) (77, 2.92889364063739780000e-002) (78, 2.16136407852172850000e+000) (79, 5.03497481346130370000e-001) (80, 3.88815551996231080000e-001) (81, 4.31803688406944270000e-002) (82, 8.74665379524230960000e-002) (83, -1.59249663352966310000e+000) (84, -6.37357085943222050000e-002) (85, -2.86869257688522340000e-002) (86, 1.98236262798309330000e+000) (87, 1.78113389015197750000e+000) (88, 1.76416969299316410000e+000) (89, -7.95679315924644470000e-002) (90, 9.55401584506034850000e-002) (91, 3.75527620315551760000e+000) (92, 1.46901428699493410000e+000) (93, -1.54511976242065430000e+000) (94, 4.86365228891372680000e-001) (95, 2.75031954050064090000e-001) (96, -5.77574968338012700000e-001) (97, -8.47030878067016600000e-001) (98, 5.21419405937194820000e-001) (99, -4.11911994218826290000e-001) (100, 1.08443367481231690000e+000) (101, 6.70368373394012450000e-001) (102, -5.31262084841728210000e-002) (103, 1.50186762213706970000e-001) (104, -1.15998901426792140000e-001) (105, 1.32277965545654300000e+000) (106, -4.19422268867492680000e-001) (107, 9.60010737180709840000e-002) (108, 3.55877310037612920000e-001) (109, -3.84836852550506590000e-001) (110, -8.52746963500976560000e-002) (111, -4.14095550775527950000e-001) (112, 5.95464944839477540000e-001) (113, -4.31082807481288910000e-002) (114, -4.57688868045806880000e-001) (115, 1.22326064109802250000e+000) (116, -7.75487065315246580000e-001) (117, 7.20501542091369630000e-002) (118, -5.40220260620117190000e-001) (119, -3.91632802784442900000e-002) (120, 3.65050345659255980000e-001) (121, 7.45204687118530270000e-001) (122, 9.51654672622680660000e-001) (123, -2.96593308448791500000e-001) (124, -4.21679228544235230000e-001) (125, 2.89552521705627440000e+000) (0, -3.36764492094516750000e-002) (1, -3.70254904031753540000e-001) (2, -5.63799619674682620000e-001) (3, -3.51605445146560670000e-001) (4, -4.17739562690258030000e-002) (5, 5.22180974483489990000e-001) (6, -6.82520642876625060000e-002) (7, 1.72782763838768010000e-001) (8, -1.96143761277198790000e-001) (9, 1.19724154472351070000e-001) (10, 2.45243251323699950000e-001) (11, 1.41789007186889650000e+000) (12, 5.42774200439453130000e-001) (13, 1.02455818653106690000e+000) (14, 3.62614542245864870000e-001) (15, 2.84402668476104740000e-001) (16, -7.49604851007461550000e-002) (17, -3.43664407730102540000e-001) (18, -7.95316576957702640000e-001) (19, 2.72752732038497920000e-001) (20, 3.81588071584701540000e-001) (21, 6.69574618339538570000e-001) (22, 5.47444283962249760000e-001) (23, 4.06208425760269170000e-001) (24, -5.00051558017730710000e-001) (25, -7.45409250259399410000e-001) (26, -1.67735487222671510000e-001) (27, -5.53607121109962460000e-002) (28, 2.51526176929473880000e-001) (29, 6.69831693172454830000e-001) (30, -9.55150246620178220000e-001) (31, 4.51621383428573610000e-001) (32, -6.81654870510101320000e-001) (33, 8.14089596271514890000e-001) (34, -7.12940096855163570000e-001) (35, 1.18410453200340270000e-001) (36, 5.33053219318389890000e-001) (37, -4.52329039573669430000e-001) (38, -3.34244275093078610000e+000) (39, -8.05547684431076050000e-002) (40, 4.49788570404052730000e-002) (41, -1.86591535806655880000e-001) (42, -6.71510457992553710000e-001) (43, -1.06606566905975340000e+000) (44, 4.32555936276912690000e-003) (45, 1.31127061322331430000e-002) (46, 2.96145528554916380000e-001) (47, -2.41918843239545820000e-002) (48, -7.87599444389343260000e-001) (49, -5.73915056884288790000e-002) (50, 1.03942918777465820000e+000) (51, 3.95242899656295780000e-001) (52, 3.14415007829666140000e-001) (53, 1.80105537176132200000e-001) (54, -7.60627537965774540000e-002) (55, 6.87801063060760500000e-001) (56, 5.83632588386535640000e-001) (57, 1.86784006655216220000e-002) (58, 6.57618641853332520000e-001) (59, -7.15680360794067380000e-001) (60, 2.91581004858016970000e-001) (61, 2.06783580780029300000e+000) (62, 1.48179674148559570000e+000) (63, -2.61523127555847170000e+000) (64, -9.63959097862243650000e-001) (65, 2.76588797569274900000e-001) (66, -3.95131766796112060000e-001) (67, -1.36589005589485170000e-001) (68, -2.69806289672851560000e+000) (69, -4.78204637765884400000e-001) (70, 2.59228169918060300000e-001) (71, 1.16291828453540800000e-003) (72, -2.88801997900009160000e-001) (73, 2.22619473934173580000e-001) (74, 1.20203696191310880000e-001) (75, 1.04369080066680910000e+000) (76, 6.22645020484924320000e-001) (77, 6.31200075149536130000e-001) (78, -1.87969088554382320000e-001) (79, 6.89758360385894780000e-001) (80, 6.65238440036773680000e-001) (81, -6.22821412980556490000e-003) (82, -3.37889403104782100000e-001) (83, -9.63566824793815610000e-002) (84, -4.11579966545104980000e-001) (85, 2.86312431097030640000e-001) (86, 2.81108665466308590000e+000) (87, 5.34151494503021240000e-002) (88, 7.63079285621643070000e-001) (89, 1.95743411779403690000e-001) (90, 2.19578295946121220000e-001) (91, 3.03288370370864870000e-001) (92, -2.41556301712989810000e-001) (93, 2.64030426740646360000e-001) (94, -2.74188369512557980000e-001) (95, -3.39367017149925230000e-002) (96, -5.16081213951110840000e-001) (97, -4.24816638231277470000e-001) (98, -9.74505022168159480000e-003) (99, -4.52193200588226320000e-001) (100, 3.68060320615768430000e-001) (101, -4.79695677757263180000e-001) (102, 1.20968580245971680000e-001) (103, -1.70472532510757450000e-001) (104, -2.94510424137115480000e-001) (105, 2.10570782423019410000e-001) (106, -5.16661286354064940000e-001) (107, -1.29543438553810120000e-001) (108, -2.42098540067672730000e-001) (109, -2.50480175018310550000e-001) (110, 3.18804889917373660000e-001) (111, 7.08341673016548160000e-002) (112, 6.30248785018920900000e-001) (113, -9.00765717029571530000e-001) (114, 4.53393727540969850000e-001) (115, 3.29928904771804810000e-001) (116, -5.58827400207519530000e-001) (117, -1.02696490287780760000e+000) (118, -4.51620407402515410000e-002) (119, -3.70377451181411740000e-001) (120, 6.38436317443847660000e-001) (121, -7.18374490737915040000e-001) (122, -9.39585685729980470000e-001) (123, -1.10340014100074770000e-001) (124, -3.88358950614929200000e-001) (125, -3.13083386421203610000e+000) (0, 6.06479287147521970000e-001) (1, -2.45078825950622560000e+000) (2, -8.73300015926361080000e-001) (3, -2.26452782750129700000e-001) (4, -9.59020674228668210000e-001) (5, 4.08255040645599370000e-001) (6, 2.06029955297708510000e-002) (7, -1.09892237186431880000e+000) (8, 1.60942435264587400000e-001) (9, -6.12735033035278320000e-001) (10, -1.62496820092201230000e-001) (11, 1.99985012412071230000e-001) (12, 5.31529545783996580000e-001) (13, 5.46470403671264650000e-001) (14, -8.27152967453002930000e-001) (15, 1.12028568983078000000e-002) (16, 2.73264622688293460000e+000) (17, 3.08947324752807620000e-001) (18, -4.10551249980926510000e-001) (19, -1.34221601486206050000e+000) (20, -6.26523196697235110000e-002) (21, 2.14582577347755430000e-001) (22, -1.12082493305206300000e+000) (23, 1.38050210475921630000e+000) (24, -3.73226106166839600000e-002) (25, 2.05557256937026980000e-001) (26, -1.29949271678924560000e+000) (27, -1.29942882061004640000e+000) (28, -8.06328654289245610000e-001) (29, -8.34515631198883060000e-001) (30, 3.92408818006515500000e-001) (31, -7.71936237812042240000e-001) (32, 8.19561123847961430000e-001) (33, -1.28824222087860110000e+000) (34, -5.52854061126708980000e-001) (35, -2.43459105491638180000e-001) (36, -1.22040796279907230000e+000) (37, 8.23601424694061280000e-001) (38, 1.26272070407867430000e+000) (39, -4.17501479387283330000e-001) (40, -1.16599828004837040000e-001) (41, 2.77076363563537600000e-001) (42, 4.43309992551803590000e-001) (43, 5.94500660896301270000e-001) (44, -8.40827405452728270000e-001) (45, 6.47116422653198240000e-001) (46, -5.42157828807830810000e-001) (47, 6.86459243297576900000e-001) (48, 3.07631224393844600000e-001) (49, 1.76648128032684330000e+000) (50, 3.12135010957717900000e-001) (51, 1.04873561859130860000e+000) (52, -5.03573298454284670000e-001) (53, -1.09522724151611330000e+000) (54, -5.07420487701892850000e-002) (55, 4.10350501537323000000e-001) (56, -8.84240806102752690000e-001) (57, 1.69487547874450680000e+000) (58, -2.82571625709533690000e+000) (59, -1.94929373264312740000e+000) (60, -3.26787859201431270000e-001) (61, 5.07732200622558590000e+000) (62, 2.78264689445495610000e+000) (63, 5.95370578765869140000e+000) (64, -2.08331656455993650000e+000) (65, -1.99766695499420170000e-001) (66, -7.01857507228851320000e-001) (67, 3.01101922988891600000e+000) (68, 1.30760729312896730000e+000) (69, -9.02393579483032230000e-001) (70, -2.29584485292434690000e-001) (71, -6.63684830069541930000e-002) (72, -1.95102143287658690000e+000) (73, 9.97987866401672360000e-001) (74, 4.29716795682907100000e-001) (75, 3.88645917177200320000e-001) (76, 1.70900177955627440000e+000) (77, -1.86145871877670290000e-001) (78, -1.60486197471618650000e+000) (79, 6.11051619052886960000e-001) (80, 1.94337725639343260000e-001) (81, 9.58332836627960210000e-001) (82, 9.71770286560058590000e-001) (83, 8.71702790260314940000e-001) (84, 2.52529352903366090000e-001) (85, -2.87564784288406370000e-001) (86, 6.27723455429077150000e-001) (87, 1.90472280979156490000e+000) (88, 1.78875207901000980000e+000) (89, 5.25791272521018980000e-002) (90, -7.66711354255676270000e-001) (91, 1.81767437607049940000e-002) (92, -2.33265146613121030000e-001) (93, 1.13382287323474880000e-001) (94, -1.22293567657470700000e+000) (95, -2.20060721039772030000e-001) (96, -2.12369918823242190000e+000) (97, 9.40769255161285400000e-001) (98, 9.12696838378906250000e-001) (99, 4.24117326736450200000e-001) (100, 3.07049453258514400000e-001) (101, 3.18449044227600100000e+000) (102, -1.39396354556083680000e-001) (103, -6.46033406257629390000e-001) (104, -8.60552608966827390000e-001) (105, 4.88045424222946170000e-001) (106, 6.79166972637176510000e-001) (107, 1.08012521266937260000e+000) (108, 1.19905090332031250000e+000) (109, 4.46731477975845340000e-001) (110, -2.20068424940109250000e-001) (111, -1.38360631465911870000e+000) (112, 5.00559151172637940000e-001) (113, -7.06120371818542480000e-001) (114, 3.02780687808990480000e-001) (115, -1.54844254255294800000e-001) (116, -9.03123378753662110000e-001) (117, -1.16465854644775390000e+000) (118, -7.76811897754669190000e-001) (119, -8.29333245754241940000e-001) (120, -2.14602693915367130000e-001) (121, 4.46738064289093020000e-001) (122, -9.51795458793640140000e-001) (123, 1.51235401630401610000e+000) (124, 8.98817032575607300000e-002) (125, 1.51731550693511960000e+000) (0, -4.43085241317749020000e+000) (1, 5.67674934864044190000e-001) (2, -2.03111314773559570000e+000) (3, -2.82631993293762210000e+000) (4, 2.82596349716186520000e+000) (5, -1.14169359207153320000e+000) (6, 1.32249808311462400000e+000) (7, -3.84205907583236690000e-001) (8, 1.09785485267639160000e+000) (9, 2.55675005912780760000e+000) (10, 2.53841936588287350000e-001) (11, 9.02819693088531490000e-001) (12, 4.07026052474975590000e-001) (13, -1.82661712169647220000e+000) (14, 1.00358319282531740000e+000) (15, -3.63100200891494750000e-001) (16, 2.80229270458221440000e-001) (17, 5.37730097770690920000e-001) (18, 1.13769292831420900000e+000) (19, -9.51703116297721860000e-002) (20, -3.72413575649261470000e-001) (21, 9.50318351387977600000e-002) (22, 8.62060248851776120000e-001) (23, 2.29186248779296870000e+000) (24, 1.22652746737003330000e-001) (25, -2.09793138504028320000e+000) (26, -1.19233858585357670000e+000) (27, 2.65783876180648800000e-001) (28, 1.38221013545989990000e+000) (29, -3.79524856805801390000e-001) (30, -2.82207041978836060000e-001) (31, 1.45585525035858150000e+000) (32, 1.93328690528869630000e+000) (33, 1.34039711952209470000e+000) (34, 7.07880210876464840000e+000) (35, 8.25056955218315120000e-002) (36, -1.76428735256195070000e+000) (37, 4.86624956130981450000e-001) (38, 1.46161115169525150000e+000) (39, 5.11096858978271480000e+000) (40, 2.87983751296997070000e+000) (41, 1.52067923545837400000e+000) (42, 1.09184646606445310000e+000) (43, 2.88258910179138180000e+000) (44, -4.02454547584056850000e-002) (45, -2.16034007072448730000e+000) (46, 1.42319035530090330000e+000) (47, -1.21167469024658200000e+000) (48, -5.45983612537384030000e-001) (49, 2.47575864195823670000e-001) (50, -3.49339663982391360000e-001) (51, -7.24184691905975340000e-001) (52, -6.83351755142211910000e-001) (53, -1.01819527149200440000e+000) (54, 3.03132200241088870000e+000) (55, -3.76566499471664430000e-001) (56, 5.85184526443481450000e+000) (57, -8.79519954323768620000e-002) (58, 2.04465031623840330000e+000) (59, -7.83776402473449710000e-001) (60, 2.27502390742301940000e-001) (61, 3.04879575967788700000e-001) (62, 3.71260547637939450000e+000) (63, 1.31901931762695310000e+000) (64, 5.64945936203002930000e+000) (65, 4.47431281208992000000e-002) (66, 7.47230350971221920000e-001) (67, -2.70679926872253420000e+000) (68, 3.22792744636535640000e+000) (69, -1.08930125832557680000e-001) (70, 2.12941199541091920000e-001) (71, -3.96631598472595210000e-001) (72, 1.67275822162628170000e+000) (73, -3.77048283815383910000e-001) (74, -8.34332942962646480000e-001) (75, -3.94665867090225220000e-001) (76, -6.24941766262054440000e-001) (77, -1.61923035979270940000e-001) (78, 2.61232852935791020000e+000) (79, 5.07395315170288090000e+000) (80, 1.31927180290222170000e+000) (81, -4.71883296966552730000e+000) (82, 1.35153874754905700000e-001) (83, 1.54517138004302980000e+000) (84, 3.36714275181293490000e-002) (85, 2.87492483854293820000e-001) (86, -4.40047645568847660000e+000) (87, -1.95877814292907710000e+000) (88, -4.18977379798889160000e-001) (89, 9.59336936473846440000e-001) (90, 2.86592632532119750000e-001) (91, -8.87767505645751950000e+000) (92, -1.72915291786193850000e+000) (93, 6.20772643014788630000e-003) (94, 1.60550624132156370000e-001) (95, 2.36682146787643430000e-001) (96, -1.13633131980896000000e+000) (97, -2.77726143598556520000e-001) (98, 7.33383119106292720000e-001) (99, -8.81835341453552250000e-001) (100, -2.58900403976440430000e-001) (101, 1.97002375125885010000e+000) (102, -4.63462382555007930000e-001) (103, -2.90301561355590820000e+000) (104, 4.12926048040390010000e-001) (105, -3.13833534717559810000e-001) (106, -1.60017180442810060000e+000) (107, -4.25905376672744750000e-001) (108, -5.40482521057128910000e-001) (109, -1.12172770500183110000e+000) (110, 1.65803462266922000000e-001) (111, -3.72963458299636840000e-001) (112, -2.98017120361328120000e+000) (113, 1.89805865287780760000e+000) (114, 5.44236898422241210000e+000) (115, 2.49629523605108260000e-002) (116, -2.19414544105529790000e+000) (117, 4.32704448699951170000e-001) (118, -4.29456889629364010000e-001) (119, 1.46051168441772460000e+000) (120, 7.32656642794609070000e-002) (121, -1.31848716735839840000e+000) (122, -7.95824378728866580000e-002) (123, 2.86193162202835080000e-001) (124, 5.37203550338745120000e-001) (125, -1.65972614288330080000e+000) (0, 6.20242655277252200000e-001) (1, -3.04965749382972720000e-002) (2, -1.64352320134639740000e-002) (3, 3.78780394792556760000e-001) (4, 5.54570734500885010000e-001) (5, 7.90704131126403810000e-001) (6, -2.58549952507019040000e+000) (7, 2.88018852472305300000e-001) (8, 2.76050388813018800000e-001) (9, 8.80777239799499510000e-002) (10, 1.96951225399971010000e-001) (11, 1.37717723846435550000e-001) (12, 5.87793052196502690000e-001) (13, -1.98314142227172850000e+000) (14, 4.17585134506225590000e-001) (15, 2.06462740898132320000e-001) (16, 3.09681100770831110000e-003) (17, -1.32409298419952390000e+000) (18, -9.52673792839050290000e-001) (19, -1.05277705192565920000e+000) (20, 1.47050559520721440000e-001) (21, -6.78205192089080810000e-001) (22, 7.43910789489746090000e-001) (23, -1.21542572975158690000e-001) (24, 1.62574380636215210000e-001) (25, 1.13623690605163570000e+000) (26, -1.66779339313507080000e+000) (27, 1.46677449345588680000e-001) (28, 4.88691866397857670000e-001) (29, 1.41787126660346980000e-001) (30, 5.21218657493591310000e-001) (31, -2.33930259943008420000e-001) (32, -5.69400668144226070000e-001) (33, -5.37462592124938960000e-001) (34, 2.19089359045028690000e-001) (35, 8.65729078650474550000e-002) (36, -7.94510483741760250000e-001) (37, -9.21403706073760990000e-001) (38, 7.68916606903076170000e-001) (39, 3.00511091947555540000e-001) (40, 1.05448320508003230000e-001) (41, -1.82949078083038330000e+000) (42, 5.61569690704345700000e-001) (43, 3.55381876230239870000e-001) (44, 3.49616348743438720000e-001) (45, 1.74885928630828860000e-001) (46, -1.00367091596126560000e-001) (47, -1.94931983947753910000e+000) (48, -1.00632929801940920000e+000) (49, 5.50645709037780760000e-001) (50, 9.67323362827301030000e-001) (51, 4.29725319147109990000e-001) (52, -3.55083703994750980000e-001) (53, 7.13370680809021000000e-001) (54, -2.90111184120178220000e-001) (55, 6.07752323150634770000e-001) (56, 1.89586341381073000000e-001) (57, -6.27401992678642270000e-002) (58, -4.73680347204208370000e-001) (59, -9.44990292191505430000e-002) (60, 3.87388378381729130000e-001) (61, 1.64190280437469480000e+000) (62, 5.61488717794418330000e-002) (63, -2.42154732346534730000e-001) (64, 9.10451635718345640000e-002) (65, 9.87882763147354130000e-002) (66, 4.80212777853012080000e-001) (67, 3.74156862497329710000e-001) (68, 4.66405861079692840000e-002) (69, 1.33992489427328110000e-002) (70, 1.49711027741432190000e-001) (71, 7.65736214816570280000e-003) (72, -1.01287400722503660000e+000) (73, -1.08362936973571780000e+000) (74, -1.65167942643165590000e-001) (75, 3.63929927349090580000e-001) (76, 1.33561760187149050000e-001) (77, -1.14221227169036870000e+000) (78, 8.22687387466430660000e-001) (79, -2.23073184490203860000e-001) (80, 5.97059488296508790000e-001) (81, 4.29273158311843870000e-001) (82, -5.10597348213195800000e-001) (83, -5.19134819507598880000e-001) (84, 4.47695069015026090000e-002) (85, 2.09336504340171810000e-001) (86, -3.79419654607772830000e-001) (87, 9.99194145202636720000e-001) (88, -5.71354722976684570000e+000) (89, -1.07368394732475280000e-001) (90, 1.62250250577926640000e-001) (91, 4.02778387069702150000e-001) (92, 9.48459804058074950000e-001) (93, 1.87939509749412540000e-001) (94, -2.02562198042869570000e-001) (95, 9.04619619250297550000e-002) (96, -2.90517598390579220000e-001) (97, 9.44789588451385500000e-001) (98, -1.01760637760162350000e+000) (99, -1.15943539142608640000e+000) (100, 8.69048535823822020000e-001) (101, -2.63155221939086910000e-001) (102, -5.45800924301147460000e-001) (103, -5.28596282005310060000e-001) (104, 2.34439864754676820000e-001) (105, 1.04436397552490230000e+000) (106, -7.81818211078643800000e-001) (107, -1.42604380846023560000e-001) (108, -6.60062015056610110000e-001) (109, -1.27589881420135500000e+000) (110, 8.21142643690109250000e-002) (111, -3.08871474117040630000e-002) (112, -4.80272263288497920000e-001) (113, -2.02776026725769040000e+000) (114, -4.56343770027160640000e-001) (115, 9.48868617415428160000e-002) (116, -1.62427020072937010000e+000) (117, 2.06313595175743100000e-001) (118, -8.28733384609222410000e-001) (119, 7.98647403717041020000e-002) (120, 6.76071941852569580000e-002) (121, -1.24204456806182860000e+000) (122, -2.11100056767463680000e-001) (123, -1.76102006435394290000e+000) (124, -1.33690863847732540000e-001) (125, -4.54554826021194460000e-001) (0, 1.33747356012463570000e-002) (1, -2.00835362076759340000e-001) (2, 3.53927284479141240000e-001) (3, -1.89055740833282470000e-001) (4, 3.93070727586746220000e-001) (5, -2.77831852436065670000e-001) (6, 1.64931714534759520000e-001) (7, -1.56390145421028140000e-001) (8, 1.03542491793632510000e-001) (9, -1.46117925643920900000e-001) (10, -7.02087759971618650000e-001) (11, -6.30418598651885990000e-001) (12, 3.73784512281417850000e-001) (13, -2.41906380653381350000e+000) (14, 3.73818874359130860000e-001) (15, -1.10633626580238340000e-001) (16, 6.10489308834075930000e-001) (17, 1.05690109729766850000e+000) (18, 1.52283167839050290000e+000) (19, -2.95383542776107790000e-001) (20, 2.19885278493165970000e-002) (21, 8.70810806751251220000e-001) (22, 4.72415566444396970000e-001) (23, 8.47643196582794190000e-001) (24, -2.88616180419921880000e-001) (25, 4.90937083959579470000e-002) (26, 8.29742476344108580000e-002) (27, -1.35773146152496340000e+000) (28, 1.16214849054813390000e-001) (29, -3.31939041614532470000e-001) (30, -2.59593874216079710000e-001) (31, -1.12727022171020510000e+000) (32, 7.14499354362487790000e-001) (33, 9.55355525016784670000e-001) (34, -9.16081070899963380000e-001) (35, -5.33342957496643070000e-001) (36, -5.53318023681640630000e-001) (37, 2.11953210830688480000e+000) (38, 1.84278249740600590000e+000) (39, -3.37272256612777710000e-001) (40, 1.36131954193115230000e+000) (41, -1.80168235301971440000e+000) (42, -1.30827948451042180000e-002) (43, 3.59995096921920780000e-001) (44, -1.26851126551628110000e-001) (45, 1.00450706481933590000e+000) (46, -4.07189615070819850000e-002) (47, -2.14211553335189820000e-001) (48, 3.63443285226821900000e-001) (49, 1.71678423881530760000e-001) (50, -6.41021549701690670000e-001) (51, 1.27893060445785520000e-001) (52, -8.38619649410247800000e-001) (53, 2.07633167505264280000e-001) (54, -5.69270491600036620000e-001) (55, -6.59735262393951420000e-001) (56, 1.92998766899108890000e+000) (57, 5.70669651031494140000e-001) (58, -5.78929245471954350000e-001) (59, 1.26027500629425050000e+000) (60, 5.22854328155517580000e-001) (61, -2.54702425003051760000e+000) (62, 2.55104637145996090000e+000) (63, 3.46384954452514650000e+000) (64, 6.70473909378051760000e+000) (65, 4.60545539855957030000e-001) (66, -1.95404231548309330000e+000) (67, 2.78310537338256840000e-001) (68, -8.19867014884948730000e-001) (69, 3.36231961846351620000e-002) (70, 5.19889108836650850000e-002) (71, 5.74368953704833980000e-001) (72, -8.06069493293762210000e-001) (73, -1.30990254878997800000e+000) (74, -1.55272752046585080000e-001) (75, 5.34830689430236820000e-001) (76, -4.67385530471801760000e-001) (77, 1.09781825542449950000e+000) (78, 3.89305464923381810000e-002) (79, 6.19709551334381100000e-001) (80, -1.45180654525756840000e+000) (81, 4.34177890419960020000e-002) (82, -1.51840138435363770000e+000) (83, -5.53765118122100830000e-001) (84, -7.01017826795578000000e-002) (85, -1.04361271858215330000e+000) (86, 4.31067615747451780000e-001) (87, 3.72693300247192380000e-001) (88, -4.24375623464584350000e-001) (89, 3.23432016372680660000e+000) (90, 4.96530771255493160000e-001) (91, -1.31002664566040040000e+000) (92, 9.78911519050598140000e-001) (93, -1.35734021663665770000e+000) (94, 5.49254775047302250000e-001) (95, 7.41384506225585940000e-001) (96, 8.59243273735046390000e-001) (97, 9.24840793013572690000e-002) (98, 1.73291707038879390000e+000) (99, 3.16403836011886600000e-001) (100, -4.67917382717132570000e-001) (101, -3.12642395496368410000e-001) (102, 7.99128174781799320000e-001) (103, 4.77095425128936770000e-001) (104, 5.47763764858245850000e-001) (105, -3.17364573478698730000e-001) (106, 7.45825842022895810000e-002) (107, 2.50685662031173710000e-001) (108, -6.36466860771179200000e-001) (109, -3.73666197061538700000e-001) (110, -2.01554107666015620000e+000) (111, 2.26956748962402340000e+000) (112, 1.53636977076530460000e-001) (113, 7.49492764472961430000e-001) (114, 2.94605672359466550000e-001) (115, 1.36840558052062990000e+000) (116, -9.98233199119567870000e-001) (117, 2.86754965782165530000e-002) (118, -7.57847249507904050000e-001) (119, 2.41221174597740170000e-001) (120, 4.50936526060104370000e-001) (121, 1.12944614887237550000e+000) (122, 4.03313636779785160000e-001) (123, -6.95544779300689700000e-001) (124, 2.47792497277259830000e-001) (125, 5.24970471858978270000e-001) (0, 6.32888793945312500000e-001) (1, 2.60392017662525180000e-002) (2, -2.95694708824157710000e-001) (3, 1.25575855374336240000e-001) (4, 7.46406674385070800000e-001) (5, 7.60860741138458250000e-001) (6, 7.73786067962646480000e-001) (7, -3.60301762819290160000e-001) (8, -1.22479312121868130000e-001) (9, 1.16637267172336580000e-001) (10, 1.48706659674644470000e-001) (11, 4.30620384216308590000e+000) (12, -1.53783226013183590000e+000) (13, 1.13905906677246090000e+000) (14, 7.00341835618019100000e-002) (15, -4.16690995916724210000e-003) (16, 4.93031203746795650000e-001) (17, 2.36450299620628360000e-001) (18, -2.32465535402297970000e-001) (19, -4.04258280992507930000e-001) (20, -2.64848530292510990000e-001) (21, -4.22094136476516720000e-001) (22, 2.37222686409950260000e-001) (23, -1.59739089012146000000e+000) (24, 5.63088834285736080000e-001) (25, 8.79073739051818850000e-001) (26, 8.02877664566040040000e-001) (27, 1.48534786701202390000e+000) (28, 2.30294652283191680000e-002) (29, 1.68255531787872310000e+000) (30, 8.85710656642913820000e-001) (31, 3.50213438272476200000e-001) (32, -5.01126110553741460000e-001) (33, -2.08582460880279540000e-001) (34, -8.62433552742004390000e-001) (35, 2.49492421746253970000e-001) (36, 1.50665521621704100000e+000) (37, -6.40177845954895020000e-001) (38, -5.18624484539031980000e-001) (39, 6.77235960960388180000e-001) (40, -1.89077556133270260000e-001) (41, -1.17989027500152590000e+000) (42, -3.97186785936355590000e-001) (43, -6.06166303157806400000e-001) (44, 7.77326345443725590000e-001) (45, -2.26001203060150150000e-001) (46, -1.45176637172698970000e+000) (47, 2.07234001159667970000e+000) (48, -6.91168189048767090000e-001) (49, -2.16659650206565860000e-001) (50, 5.63732981681823730000e-001) (51, 4.28159177303314210000e-001) (52, -3.96787792444229130000e-001) (53, 2.45086222887039180000e-001) (54, 7.91131425648927690000e-003) (55, 7.43179202079772950000e-001) (56, -1.70297324657440190000e+000) (57, -3.79511654376983640000e-001) (58, 2.32749462127685550000e-001) (59, -7.54961743950843810000e-003) (60, 1.87085971236228940000e-001) (61, -3.47496080398559570000e+000) (62, -5.59386789798736570000e-001) (63, -1.04395985603332520000e+000) (64, 1.07519373297691350000e-001) (65, -5.89760005474090580000e-001) (66, -1.48391139507293700000e+000) (67, -3.29325497150421140000e-001) (68, 8.94361063838005070000e-002) (69, 2.83286124467849730000e-001) (70, -7.66140401363372800000e-001) (71, 1.02485942840576170000e+000) (72, -5.02072036266326900000e-001) (73, 3.32802057266235350000e-001) (74, -2.76710242033004760000e-001) (75, 8.68687450885772710000e-001) (76, 5.72719871997833250000e-002) (77, 1.34483194351196290000e+000) (78, -5.34267425537109380000e-001) (79, 1.52493134140968320000e-001) (80, 7.45910704135894780000e-001) (81, 5.17387270927429200000e-001) (82, -7.16635882854461670000e-001) (83, -9.41569626331329350000e-001) (84, 3.59750658273696900000e-001) (85, 1.82563588023185730000e-001) (86, -5.48681616783142090000e-001) (87, 8.82702589035034180000e-001) (88, -7.98961699008941650000e-001) (89, 9.87390518188476560000e-001) (90, 5.72088025510311130000e-002) (91, 6.54323220252990720000e-001) (92, 1.29823267459869380000e+000) (93, -1.39327359199523930000e+000) (94, 1.78201630711555480000e-001) (95, -2.66375690698623660000e-001) (96, 1.78362689912319180000e-002) (97, 1.57659173011779790000e-001) (98, -1.63318276405334470000e+000) (99, 3.45925450325012210000e-001) (100, 6.25960648059844970000e-001) (101, 6.64274454116821290000e-001) (102, -7.31151163578033450000e-001) (103, -7.09998190402984620000e-001) (104, -5.13322055339813230000e-001) (105, 6.69434845447540280000e-001) (106, 4.87891525030136110000e-001) (107, -1.54830443859100340000e+000) (108, -5.11484682559967040000e-001) (109, 1.26011818647384640000e-001) (110, -8.71768742799758910000e-002) (111, 1.59025132656097410000e+000) (112, -3.12791228294372560000e+000) (113, -2.96566247940063480000e+000) (114, -1.63645207881927490000e-001) (115, -2.58845716714859010000e-001) (116, -1.71508562564849850000e+000) (117, -1.42499148845672610000e-001) (118, -1.34730267524719240000e+000) (119, 1.50268264114856720000e-002) (120, -3.01602452993392940000e-001) (121, 1.46781241893768310000e+000) (122, 1.11179327964782710000e+000) (123, -1.61353540420532230000e+000) (124, 8.37320327758789060000e-001) (125, -1.78248763084411620000e+000) (0, 4.37944889068603520000e-001) (1, -5.63619732856750490000e-001) (2, -1.14206981658935550000e+000) (3, 2.80543357133865360000e-001) (4, -1.02765166759490970000e+000) (5, 2.24851295351982120000e-001) (6, -5.04943192005157470000e-001) (7, 3.05524498224258420000e-001) (8, 1.16471588611602780000e+000) (9, -3.14710378646850590000e-001) (10, -8.94411742687225340000e-001) (11, 1.47221660614013670000e+000) (12, -3.81884396076202390000e-001) (13, -4.57613587379455570000e-001) (14, -5.08369863033294680000e-001) (15, -1.65217965841293330000e-001) (16, -9.78336632251739500000e-001) (17, -1.10231733322143550000e+000) (18, 1.40537059307098390000e+000) (19, 1.65371447801589970000e-001) (20, -2.36446693539619450000e-001) (21, 5.21171510219573970000e-001) (22, -5.01676619052886960000e-001) (23, 2.37317037582397460000e+000) (24, -9.43380057811737060000e-001) (25, 1.48162603378295900000e-001) (26, -1.39097857475280760000e+000) (27, 1.71538472175598140000e+000) (28, 7.10061714053153990000e-002) (29, -2.61332631111145020000e-001) (30, 5.16849458217620850000e-001) (31, 2.89137691259384160000e-001) (32, -4.35618534684181210000e-002) (33, 1.52966570854187010000e+000) (34, -4.06711138784885410000e-002) (35, -4.41929966211318970000e-001) (36, -3.59097152948379520000e-001) (37, -8.41885507106781010000e-002) (38, 1.87287378311157230000e+000) (39, -7.55230307579040530000e-001) (40, -3.24639022350311280000e-001) (41, 1.22093689441680910000e+000) (42, 1.66182589530944820000e+000) (43, 1.12443900108337400000e+000) (44, -1.73762813210487370000e-001) (45, 3.28350067138671880000e-001) (46, 1.02977871894836430000e+000) (47, -4.91813004016876220000e-001) (48, -8.32630395889282230000e-001) (49, 6.36140167713165280000e-001) (50, 6.97507262229919430000e-002) (51, 1.41134572029113770000e+000) (52, -1.31579625606536870000e+000) (53, -8.80794644355773930000e-001) (54, 2.87259221076965330000e-001) (55, 2.43701830506324770000e-001) (56, -6.01733982563018800000e-001) (57, -1.12855449318885800000e-001) (58, 1.12738466262817380000e+000) (59, -1.22871828079223630000e+000) (60, -1.36300706863403320000e+000) (61, -1.03934967517852780000e+000) (62, 7.49380528926849370000e-001) (63, 1.38987088203430180000e+000) (64, -1.03262412548065190000e+000) (65, -4.02185291051864620000e-001) (66, 4.22024631500244140000e+000) (67, 1.74274027347564700000e+000) (68, -4.17937077581882480000e-002) (69, -4.42210197448730470000e-001) (70, -3.24289023876190190000e-001) (71, -7.04694569110870360000e-001) (72, 4.75035846233367920000e-001) (73, 8.81844639778137210000e-001) (74, 2.01884657144546510000e-001) (75, -1.78175285458564760000e-001) (76, 1.94745168089866640000e-001) (77, 1.92355489730834960000e+000) (78, 8.74779969453811650000e-002) (79, 4.89403367042541500000e-001) (80, 4.42359507083892820000e-001) (81, 8.15513730049133300000e-002) (82, -4.92672204971313480000e-001) (83, 1.93399298191070560000e+000) (84, 4.34927493333816530000e-001) (85, -7.20668494701385500000e-001) (86, 2.95424640178680420000e-001) (87, 2.39529520273208620000e-001) (88, -7.51667380332946780000e-001) (89, -1.98449473828077320000e-002) (90, -3.30620497465133670000e-001) (91, 8.83721709251403810000e-001) (92, 2.58706355094909670000e+000) (93, 1.11325836181640630000e+000) (94, 3.94937336444854740000e-001) (95, 2.74414867162704470000e-001) (96, -9.82898622751235960000e-002) (97, -4.95354294776916500000e-001) (98, 4.41872686147689820000e-001) (99, 1.82407414913177490000e+000) (100, 4.50239107012748720000e-002) (101, 2.22874820232391360000e-001) (102, -1.19364106655120850000e+000) (103, -6.90581798553466800000e-001) (104, 1.93274617195129390000e-001) (105, 3.40551048517227170000e-001) (106, -1.72940090298652650000e-001) (107, -9.02929484844207760000e-001) (108, 4.42297272384166720000e-002) (109, 7.70182430744171140000e-001) (110, -8.82944941520690920000e-001) (111, 6.35899841785430910000e-001) (112, -3.48860919475555420000e-001) (113, -3.07474415749311450000e-002) (114, -3.14913302659988400000e-001) (115, -3.76090735197067260000e-001) (116, -3.57901781797409060000e-001) (117, 5.64978234469890590000e-002) (118, 3.38827759027481080000e-001) (119, 1.92225337028503420000e-001) (120, -1.11056402325630190000e-001) (121, -1.39859303832054140000e-001) (122, 1.05600290000438690000e-001) (123, -6.68168663978576660000e-001) (124, 1.60755515098571780000e-002) (125, 7.81722962856292720000e-001) (0, -6.25971972942352290000e-001) (1, 5.66469848155975340000e-001) (2, -3.21022979915142060000e-002) (3, -5.30655026435852050000e-001) (4, 3.28496575355529790000e-001) (5, -5.75051963329315190000e-001) (6, 1.49008738994598390000e+000) (7, -1.35500669479370120000e+000) (8, -1.15128850936889650000e+000) (9, -2.84624218940734860000e-001) (10, 5.47072328627109530000e-002) (11, -8.17452669143676760000e-001) (12, -3.32203030586242680000e-001) (13, -1.43329069018363950000e-001) (14, 4.20756032690405850000e-003) (15, 3.77327054738998410000e-001) (16, -9.04950201511383060000e-001) (17, 4.71200317144393920000e-001) (18, 6.52879416942596440000e-001) (19, 7.48598456382751460000e-001) (20, -3.04521441459655760000e-001) (21, 8.77578020095825200000e-001) (22, 8.85979413986206050000e-001) (23, -4.08347276970744130000e-003) (24, -8.45021903514862060000e-002) (25, -4.80190992355346680000e-001) (26, 1.39394104480743410000e+000) (27, 8.97249698638916020000e-001) (28, 5.69352626800537110000e-001) (29, 1.34746029973030090000e-001) (30, -4.16822433471679690000e-001) (31, -2.87277907133102420000e-001) (32, 2.41593215614557270000e-002) (33, 1.15528188645839690000e-001) (34, -7.10863023996353150000e-002) (35, -4.45338249206542970000e-001) (36, -2.89470762014389040000e-001) (37, -1.48394870758056640000e+000) (38, 1.82921075820922850000e+000) (39, -5.83841264247894290000e-001) (40, 7.87374600768089290000e-002) (41, -3.93034934997558590000e-001) (42, -1.46788072586059570000e+000) (43, 7.19830930233001710000e-001) (44, 2.95761048793792720000e-001) (45, 1.41425266861915590000e-001) (46, -1.16319376975297930000e-002) (47, 3.15748572349548340000e-001) (48, -6.43793106079101560000e-001) (49, 5.47010637819767000000e-002) (50, -5.67365586757659910000e-001) (51, -7.11624026298522950000e-001) (52, 2.40474477410316470000e-001) (53, 4.12261724472045900000e-001) (54, 7.51449987292289730000e-002) (55, -5.89304983615875240000e-001) (56, -1.41273224353790280000e+000) (57, 7.81910717487335210000e-002) (58, 1.55104398727416990000e+000) (59, 1.42411157488822940000e-001) (60, 8.92042815685272220000e-002) (61, -9.93179917335510250000e-001) (62, -7.72817277908325200000e+000) (63, 2.31861662864685060000e+000) (64, 2.77860760688781740000e-002) (65, -1.28707304596900940000e-001) (66, 1.33099448680877690000e+000) (67, 1.72671169042587280000e-001) (68, 6.31906569004058840000e-001) (69, 1.76798060536384580000e-001) (70, -2.80916392803192140000e-001) (71, 6.97517812252044680000e-001) (72, -6.04353129863739010000e-001) (73, 1.08171582221984860000e+000) (74, 3.21489125490188600000e-001) (75, -1.59954756498336790000e-001) (76, -8.16226720809936520000e-001) (77, -1.07924842834472660000e+000) (78, 1.01036024093627930000e+000) (79, -1.02134501934051510000e+000) (80, -5.34587621688842770000e-001) (81, -2.09391689300537110000e+000) (82, 4.15080404281616210000e+000) (83, -9.86875057220458980000e-001) (84, 8.38005721569061280000e-001) (85, 3.15446615219116210000e-001) (86, -3.14526677131652830000e+000) (87, 1.45019376277923580000e+000) (88, 5.30930519104003910000e-001) (89, 6.93522617220878600000e-002) (90, -3.70135083794593810000e-002) (91, -8.49021375179290770000e-001) (92, 2.87444502115249630000e-001) (93, 1.02673745155334470000e+000) (94, 1.81686818599700930000e-001) (95, 2.68211603164672850000e-001) (96, -3.08164507150650020000e-001) (97, 1.20142126083374020000e+000) (98, -1.16943664848804470000e-001) (99, 3.22895020246505740000e-001) (100, -2.80229300260543820000e-001) (101, 1.00686203222721820000e-003) (102, 4.74517285823822020000e-001) (103, -1.19845676422119140000e+000) (104, 8.10124337673187260000e-001) (105, -3.44233155250549320000e-001) (106, 1.81521809101104740000e+000) (107, 3.40470410883426670000e-002) (108, 1.17222532629966740000e-001) (109, 2.03573718667030330000e-001) (110, 9.31587740778923030000e-002) (111, 2.37048482894897460000e+000) (112, -2.09242068231105800000e-002) (113, 2.19403535127639770000e-001) (114, 3.29265564680099490000e-001) (115, -4.31056879460811610000e-002) (116, 3.26531320810317990000e-001) (117, 1.15123164653778080000e+000) (118, 2.17824125289916990000e+000) (119, 1.39256870746612550000e+000) (120, 2.21293830871582030000e+000) (121, 3.49779605865478520000e-001) (122, 6.51988446712493900000e-001) (123, 7.04511523246765140000e-001) (124, 7.34452828764915470000e-002) (125, 5.41171431541442870000e-001) (0, -1.28560984134674070000e+000) (1, 5.60665905475616460000e-001) (2, 2.97407567501068120000e-001) (3, 7.14844912290573120000e-002) (4, 3.83756607770919800000e-001) (5, -1.97103238105773930000e+000) (6, -5.08912682533264160000e-001) (7, -6.13132953643798830000e-001) (8, 1.49009721353650090000e-002) (9, 3.54331463575363160000e-001) (10, -5.56202232837677000000e-001) (11, 5.51756918430328370000e-001) (12, -8.32521259784698490000e-001) (13, 1.31771457195281980000e+000) (14, 4.01768207550048830000e-001) (15, -5.23174226284027100000e-001) (16, -6.16532385349273680000e-001) (17, -7.08193704485893250000e-002) (18, 6.41752243041992190000e-001) (19, 2.21415549516677860000e-001) (20, -1.87946557998657230000e-001) (21, 4.72683906555175780000e-002) (22, -5.35710275173187260000e-001) (23, 1.29468774795532230000e+000) (24, 6.17250055074691770000e-002) (25, -1.21360397338867190000e+000) (26, 4.13670212030410770000e-001) (27, 9.71364825963974000000e-002) (28, -6.50729417800903320000e-001) (29, 2.70663499832153320000e-001) (30, -1.14128148555755620000e+000) (31, -8.55853199958801270000e-001) (32, 2.06995677947998050000e+000) (33, 6.04586303234100340000e-001) (34, 1.41908288002014160000e-001) (35, -4.44638848304748540000e-001) (36, 2.81309261918067930000e-002) (37, 2.38525485992431640000e+000) (38, 1.62733590602874760000e+000) (39, 8.47409188747406010000e-001) (40, 2.37768858671188350000e-001) (41, -5.55351674556732180000e-001) (42, 1.12002313137054440000e+000) (43, 9.64817702770233150000e-001) (44, 1.20078015327453610000e+000) (45, 3.75253975391387940000e-001) (46, 2.19421491026878360000e-001) (47, 6.38118386268615720000e-001) (48, 4.83796089887619020000e-001) (49, 4.24858927726745610000e-001) (50, -5.68041384220123290000e-001) (51, 1.75365209579467770000e-001) (52, 2.26211696863174440000e-001) (53, 9.15038347244262700000e-001) (54, 1.16146445274353030000e-001) (55, -1.43145942687988280000e+000) (56, 6.69609844684600830000e-001) (57, 1.50214266777038570000e+000) (58, 1.07548081874847410000e+000) (59, 4.29365873336791990000e-001) (60, -2.56154406815767290000e-002) (61, 1.36319422721862790000e+000) (62, 3.42582535743713380000e+000) (63, 2.25148558616638180000e+000) (64, 2.79820895195007320000e+000) (65, 7.34251812100410460000e-002) (66, 7.12351739406585690000e-001) (67, 8.09571519494056700000e-002) (68, 8.46004307270050050000e-001) (69, 7.28141427040100100000e-001) (70, -4.38741780817508700000e-002) (71, 2.74149954319000240000e-001) (72, -4.00794416666030880000e-001) (73, 7.05634653568267820000e-001) (74, 1.31640717387199400000e-001) (75, -3.42503011226654050000e-001) (76, -2.09685996174812320000e-001) (77, -5.57874202728271480000e-001) (78, 4.93716895580291750000e-001) (79, -3.95615786314010620000e-001) (80, -5.10873615741729740000e-001) (81, -1.79662585258483890000e-001) (82, 9.72010672092437740000e-001) (83, 1.47299611568450930000e+000) (84, 4.15559977293014530000e-001) (85, 2.60271906852722170000e-001) (86, -1.32651031017303470000e-001) (87, 8.20442199707031250000e-001) (88, 6.80867612361907960000e-001) (89, 1.06442940235137940000e+000) (90, 2.66366213560104370000e-001) (91, -9.15883541107177730000e-001) (92, 8.84753167629241940000e-002) (93, 9.12687659263610840000e-001) (94, 4.96748894453048710000e-001) (95, 1.22060261666774750000e-001) (96, -4.04000505805015560000e-002) (97, 8.28000068664550780000e-001) (98, -3.20127815008163450000e-001) (99, 7.02199563384056090000e-002) (100, -1.26445686817169190000e+000) (101, -3.85210156440734860000e-001) (102, -1.09933488070964810000e-001) (103, 3.02912503480911250000e-001) (104, 2.90599077939987180000e-001) (105, -6.14946663379669190000e-001) (106, 1.94083884358406070000e-001) (107, 2.68344700336456300000e-001) (108, 7.30736374855041500000e-001) (109, -2.32111047953367230000e-002) (110, 1.74260243773460390000e-001) (111, 1.76484659314155580000e-002) (112, -2.18314647674560550000e-001) (113, 6.97160065174102780000e-001) (114, 1.71776756644248960000e-001) (115, 6.17469176650047300000e-002) (116, 5.02232491970062260000e-001) (117, 1.77004873752593990000e-001) (118, 4.34857279062271120000e-001) (119, 4.68684360384941100000e-003) (120, -2.06414878368377690000e-001) (121, 7.99140036106109620000e-001) (122, -2.05450505018234250000e-001) (123, 1.04859709739685060000e+000) (124, 2.98061102628707890000e-001) (125, 3.61749076843261720000e+000) (0, -9.28412154316902160000e-002) (1, -1.38367936015129090000e-001) (2, -7.03217208385467530000e-001) (3, -1.28329479694366460000e+000) (4, -3.29231053590774540000e-001) (5, -1.79796084761619570000e-001) (6, -4.44097310304641720000e-001) (7, -4.88830626010894780000e-001) (8, -7.46498763561248780000e-001) (9, -1.71169675886631010000e-002) (10, -2.90655195713043210000e-001) (11, -3.74800190329551700000e-002) (12, 1.83547824621200560000e-001) (13, -5.41362762451171880000e-001) (14, -4.86561357975006100000e-001) (15, -1.87073081731796260000e-001) (16, -1.66556036472320560000e+000) (17, 6.73365220427513120000e-002) (18, 4.68291938304901120000e-001) (19, 3.06903235614299770000e-002) (20, 2.03019887208938600000e-001) (21, 8.57046961784362790000e-001) (22, -5.09775817394256590000e-001) (23, 4.55723285675048830000e-001) (24, 1.96921557188034060000e-001) (25, -5.24294488131999970000e-002) (26, 5.70109069347381590000e-001) (27, 7.39699184894561770000e-001) (28, 2.02638626098632810000e-001) (29, -3.53031814098358150000e-001) (30, -2.27978587150573730000e-001) (31, -7.55326092243194580000e-001) (32, -7.33938276767730710000e-001) (33, 2.30858579277992250000e-001) (34, 2.15098232030868530000e-001) (35, -3.02296906709671020000e-001) (36, -6.68901920318603520000e-001) (37, -7.97667741775512700000e-001) (38, 1.28861069679260250000e+000) (39, -4.40941676497459410000e-002) (40, -8.01783323287963870000e-001) (41, -6.79112911224365230000e-001) (42, 3.85461419820785520000e-001) (43, 6.52030110359191890000e-001) (44, 1.91018283367156980000e-002) (45, -7.09978282451629640000e-001) (46, 1.02894806861877440000e+000) (47, 4.57947582006454470000e-001) (48, -4.44281190633773800000e-001) (49, 6.98425233364105220000e-001) (50, -2.00912579894065860000e-001) (51, 1.67896017432212830000e-001) (52, -7.29090198874473570000e-002) (53, -2.44215622544288640000e-001) (54, 4.23969089984893800000e-001) (55, -2.23322823643684390000e-001) (56, -1.61960884928703310000e-001) (57, -1.30043339729309080000e+000) (58, 4.48089390993118290000e-001) (59, 4.12500798702239990000e-001) (60, -2.17033907771110530000e-001) (61, 6.41332507133483890000e-001) (62, -8.30068230628967290000e-001) (63, 1.06578028202056880000e+000) (64, 4.22947019338607790000e-001) (65, -5.25526106357574460000e-001) (66, 5.07949054241180420000e-001) (67, 1.65830269455909730000e-001) (68, 1.36686766147613530000e+000) (69, 3.48201632499694820000e-001) (70, -8.11687469482421880000e-001) (71, 6.11444294452667240000e-001) (72, 7.30030179023742680000e-001) (73, 2.28152140974998470000e-001) (74, 7.09440112113952640000e-001) (75, -3.11039209365844730000e-001) (76, -1.26338779926300050000e-001) (77, 7.22630679607391360000e-001) (78, -3.56519311666488650000e-001) (79, 2.91660279035568240000e-001) (80, 2.19026118516922000000e-001) (81, -2.41516157984733580000e-001) (82, -1.18220973014831540000e+000) (83, -5.92601969838142400000e-002) (84, 1.49860346317291260000e+000) (85, 3.33201795816421510000e-001) (86, 1.38160571455955510000e-001) (87, -7.81842350959777830000e-001) (88, -1.46797060966491700000e-001) (89, 9.67742204666137700000e-001) (90, -5.78369283676147460000e+000) (91, -9.37975406646728520000e-001) (92, -3.28626483678817750000e-001) (93, -5.61998002231121060000e-002) (94, -6.88534140586853030000e-001) (95, -3.41471290588378910000e+000) (96, 8.49116384983062740000e-001) (97, 6.91029965877532960000e-001) (98, 1.24380983412265780000e-001) (99, 4.41016376018524170000e-001) (100, 2.34403491020202640000e-001) (101, 1.71834796667099000000e-001) (102, -9.94911551475524900000e-001) (103, 8.65082025527954100000e-001) (104, 3.86325567960739140000e-001) (105, -3.18020910024642940000e-001) (106, -5.03771305084228520000e-001) (107, 7.28685200214385990000e-001) (108, -1.70653373003005980000e-001) (109, 8.03682923316955570000e-001) (110, 4.02425408363342290000e-001) (111, 3.19012552499771120000e-001) (112, -6.83537960052490230000e-001) (113, -2.28217631578445430000e-001) (114, 3.17415952682495120000e-001) (115, -4.29703235626220700000e-001) (116, 1.45999062061309810000e+000) (117, -8.90076085925102230000e-002) (118, -6.04678809642791750000e-001) (119, 1.80860251188278200000e-001) (120, -5.04979908466339110000e-001) (121, -1.99248835444450380000e-001) (122, -1.01667061448097230000e-001) (123, 2.96664923429489140000e-001) (124, 6.35628178715705870000e-002) (125, 9.23612236976623540000e-001) (0, 4.17710781097412110000e-001) (1, -9.17937755584716800000e-001) (2, 1.29463708400726320000e+000) (3, -1.07313907146453860000e+000) (4, 4.61166828870773320000e-001) (5, 5.42779147624969480000e-001) (6, 7.25989639759063720000e-001) (7, 1.88663470745086670000e+000) (8, 2.79638946056365970000e-001) (9, 8.49340915679931640000e-001) (10, 1.63614392280578610000e+000) (11, -3.35504025220870970000e-001) (12, 3.35957717895507810000e+000) (13, 3.81913691759109500000e-001) (14, 1.73482751846313480000e+000) (15, 7.32584357261657710000e-001) (16, -6.70546913146972660000e+000) (17, -6.16583526134490970000e-001) (18, -8.49950075149536130000e-001) (19, 2.12823107838630680000e-001) (20, 3.08946669101715090000e-001) (21, -1.63747918605804440000e+000) (22, -6.22584223747253420000e-001) (23, -1.38757205009460450000e+000) (24, 2.36074224114418030000e-001) (25, 4.88488793373107910000e-001) (26, -4.47405242919921870000e+000) (27, 9.55607473850250240000e-001) (28, -4.84256178140640260000e-001) (29, 1.06368541717529300000e+000) (30, 1.52294740080833440000e-001) (31, -1.13663673400878910000e+000) (32, 1.24748490750789640000e-001) (33, 1.43737936019897460000e+000) (34, -7.35810339450836180000e-001) (35, 4.13803911209106450000e+000) (36, -2.30866813659667970000e+000) (37, 1.94116199016571040000e+000) (38, 1.23451888561248780000e-001) (39, 3.50236982107162480000e-001) (40, 6.14030838012695310000e-001) (41, 2.44078207015991210000e+000) (42, -2.23554000258445740000e-001) (43, -1.29939591884613040000e+000) (44, -8.72976854443550110000e-002) (45, 8.37415993213653560000e-001) (46, -1.37275308370590210000e-001) (47, 8.28566491603851320000e-001) (48, -7.76963382959365840000e-002) (49, 2.07637518644332890000e-001) (50, -2.54021853208541870000e-001) (51, -8.33269357681274410000e-001) (52, -4.42909359931945800000e-001) (53, 9.37274634838104250000e-001) (54, 1.47956237196922300000e-001) (55, -3.50514948368072510000e-001) (56, 1.02153718471527100000e+000) (57, -3.87587332725524900000e+000) (58, 6.51790440082550050000e-001) (59, 1.76243513822555540000e-001) (60, 9.08013820648193360000e-001) (61, -3.85850608348846440000e-001) (62, 3.41167020797729490000e+000) (63, 4.62050676345825200000e-001) (64, 5.18402010202407840000e-002) (65, 8.32113146781921390000e-001) (66, 1.49991965293884280000e+000) (67, -4.73368167877197270000e-001) (68, 4.48400437831878660000e-001) (69, -2.12667718529701230000e-001) (70, 1.05984401702880860000e+000) (71, 4.31003153324127200000e-001) (72, 6.08287215232849120000e-001) (73, -8.62165689468383790000e-002) (74, 6.94101989269256590000e-001) (75, 2.40816667675971980000e-001) (76, 1.28791779279708860000e-001) (77, -1.18014824390411380000e+000) (78, 1.19936442375183110000e+000) (79, 6.68938994407653810000e-001) (80, -2.43819341063499450000e-001) (81, -1.20695000514388080000e-002) (82, -1.18843209743499760000e+000) (83, 2.35294878482818600000e-001) (84, -1.68398809432983400000e+000) (85, 7.81628265976905820000e-002) (86, 5.53046345710754390000e-001) (87, 5.09138405323028560000e-001) (88, 7.53818809986114500000e-001) (89, 2.04224567860364910000e-002) (90, 9.95825290679931640000e-001) (91, 7.50233352184295650000e-001) (92, 8.16615223884582520000e-001) (93, 2.45455265045166020000e-001) (94, 2.23545461893081670000e-001) (95, 1.57347059249877930000e+000) (96, 2.16467473655939100000e-002) (97, 4.88523811101913450000e-001) (98, -3.60410995781421660000e-002) (99, -2.39953592419624330000e-001) (100, -2.86640137434005740000e-001) (101, 1.92175209522247310000e+000) (102, -6.11213922500610350000e-001) (103, -2.21104875206947330000e-001) (104, 2.91475504636764530000e-001) (105, 4.84691143035888670000e-001) (106, -1.14879882335662840000e+000) (107, 6.49808883666992190000e-001) (108, 1.37957465648651120000e+000) (109, 1.60521700978279110000e-001) (110, 9.01572585105896000000e-001) (111, 1.02677953243255620000e+000) (112, 2.49709725379943850000e+000) (113, 3.07519156485795970000e-002) (114, -2.42592133581638340000e-002) (115, 2.88979470729827880000e-001) (116, 2.26622128486633300000e+000) (117, 7.23432838916778560000e-001) (118, -3.30771237611770630000e-001) (119, -6.52552247047424320000e-001) (120, 4.70525830984115600000e-001) (121, 1.65868914127349850000e+000) (122, -1.27366960048675540000e+000) (123, -8.90220701694488530000e-003) (124, 3.54931443929672240000e-001) (125, -1.52690082788467410000e-001) (0, 1.04997444152832030000e+000) (1, 7.20532178878784180000e-001) (2, -9.64631676673889160000e-001) (3, 9.54950094223022460000e-001) (4, 4.35534811019897460000e+000) (5, 2.94027185440063480000e+000) (6, -2.38657283782958980000e+000) (7, -4.43127989768981930000e-001) (8, -1.47881698608398440000e+000) (9, 1.73908340930938720000e+000) (10, 3.55690389871597290000e-001) (11, -1.85105633735656740000e+000) (12, -8.81046116352081300000e-001) (13, -6.62665545940399170000e-001) (14, -1.03966736793518070000e+000) (15, -9.45916026830673220000e-002) (16, -2.81767225265502930000e+000) (17, 7.82432556152343750000e-001) (18, -4.29072529077529910000e-001) (19, -1.12078082561492920000e+000) (20, 2.45778366923332210000e-001) (21, -6.61693215370178220000e-001) (22, -1.00902402400970460000e+000) (23, 1.01618850231170650000e+000) (24, 4.43294644355773930000e-001) (25, 9.78603541851043700000e-001) (26, -9.62845027446746830000e-001) (27, -7.95319303870201110000e-002) (28, 3.03466230630874630000e-001) (29, 1.28031420707702640000e+000) (30, 1.74350810050964360000e+000) (31, -2.58342847228050230000e-002) (32, -6.62496566772460940000e-001) (33, 1.00561475753784180000e+000) (34, -1.72275018692016600000e+000) (35, 2.55795240402221680000e-001) (36, -2.54126524925231930000e+000) (37, -1.54863402247428890000e-001) (38, 3.47559952735900880000e+000) (39, -3.54010947048664090000e-002) (40, 1.73116713762283330000e-001) (41, -3.08978885412216190000e-001) (42, -1.38517916202545170000e+000) (43, -9.87059056758880620000e-001) (44, -6.17847442626953130000e-002) (45, 1.11349247395992280000e-001) (46, -9.10198614001274110000e-002) (47, -4.26119714975357060000e-001) (48, 9.15980756282806400000e-001) (49, 6.74120843410491940000e-001) (50, 1.71935260295867920000e+000) (51, 1.01207864284515380000e+000) (52, 3.89195531606674190000e-001) (53, 7.28743672370910640000e-001) (54, 1.06458580493927000000e+000) (55, 1.76628088951110840000e+000) (56, -2.55340957641601560000e+000) (57, -1.68211174011230470000e+000) (58, 2.56291055679321290000e+000) (59, -3.62974256277084350000e-001) (60, 2.91391462087631230000e-001) (61, 1.41979837417602540000e+000) (62, -1.71435415744781490000e+000) (63, 3.23151731491088870000e+000) (64, 8.36619317531585690000e-001) (65, 7.63297379016876220000e-002) (66, -2.14515757560729980000e+000) (67, -5.22736072540283200000e-001) (68, 3.00788640975952150000e+000) (69, 1.37828779220581050000e+000) (70, 1.91426172852516170000e-001) (71, -1.17757725715637210000e+000) (72, 1.42200767993927000000e-001) (73, 7.22921252250671390000e-001) (74, 3.86911481618881230000e-001) (75, 5.77875375747680660000e+000) (76, -1.19376480579376220000e+000) (77, 2.05930042266845700000e+000) (78, -1.24171185493469240000e+000) (79, 1.17693269252777100000e+000) (80, 2.18458151817321780000e+000) (81, 6.27690792083740230000e-001) (82, -4.37170624732971190000e-001) (83, -9.10401344299316410000e-001) (84, 1.12748026847839360000e+000) (85, 2.06871056556701660000e+000) (86, -1.64441108703613280000e+000) (87, 1.18845236301422120000e+000) (88, 1.34233498573303220000e+000) (89, 1.04351115226745610000e+000) (90, 1.26098230481147770000e-001) (91, 7.93319523334503170000e-001) (92, -4.14058160781860350000e+000) (93, -1.18817305564880370000e+000) (94, 1.02611279487609860000e+000) (95, 1.70827835798263550000e-001) (96, -7.46319770812988280000e-001) (97, -1.50691676139831540000e+000) (98, 8.92939031124114990000e-001) (99, 1.61315545439720150000e-001) (100, 9.65428769588470460000e-001) (101, -9.36311006546020510000e-001) (102, 3.98217678070068360000e-001) (103, -1.30360424518585210000e+000) (104, 5.99427759647369380000e-001) (105, 1.02757167816162110000e+000) (106, 1.22530293464660640000e+000) (107, -1.54521062970161440000e-001) (108, -6.72585010528564450000e-001) (109, 1.27590095996856690000e+000) (110, 2.06816479563713070000e-001) (111, 6.10172525048255920000e-002) (112, -6.96240663528442380000e-001) (113, 5.22076129913330080000e-001) (114, 4.44713175296783450000e-001) (115, 1.11988084390759470000e-002) (116, 1.36270284652709960000e+000) (117, -1.59911441802978520000e+000) (118, 2.07505017518997190000e-001) (119, -6.13753318786621090000e-001) (120, 5.20855858922004700000e-002) (121, -1.69941341876983640000e+000) (122, 1.03349435329437260000e+000) (123, -6.16400241851806640000e-001) (124, 5.80269336700439450000e-001) (125, 3.57908993959426880000e-001) (0, 1.51363956928253170000e+000) (1, -4.80442374944686890000e-001) (2, 2.42500416934490200000e-002) (3, -3.39557021856307980000e-001) (4, 3.57086062431335450000e-002) (5, 1.36006712913513180000e+000) (6, 5.67321360111236570000e-001) (7, 3.85005414485931400000e-001) (8, -3.03716838359832760000e-001) (9, -2.65338927507400510000e-001) (10, 2.25605070590972900000e-001) (11, -5.71672081947326660000e-001) (12, -2.18841284513473510000e-001) (13, -1.12519991397857670000e+000) (14, 1.29625543951988220000e-001) (15, 2.61112928390502930000e-001) (16, 3.46668601036071780000e-001) (17, -8.16805481910705570000e-001) (18, -9.27814900875091550000e-001) (19, -4.06110644340515140000e-001) (20, 3.09933423995971680000e-001) (21, -9.36520025134086610000e-002) (22, 2.06683218479156490000e-001) (23, -1.66237902641296390000e+000) (24, 5.76175414025783540000e-002) (25, 1.00422823429107670000e+000) (26, -2.34511032700538640000e-001) (27, -3.44794124364852910000e-001) (28, 4.31125432252883910000e-001) (29, -5.33186376094818120000e-001) (30, 2.21695017814636230000e+000) (31, 4.61156427860260010000e-001) (32, -9.25089299678802490000e-001) (33, -1.96406081318855290000e-001) (34, -8.23655903339385990000e-001) (35, 2.60164380073547360000e-001) (36, -4.77102287113666530000e-002) (37, -9.44083452224731450000e-001) (38, -2.01916861534118650000e+000) (39, -1.26728880405426030000e+000) (40, -2.38533079624176030000e-001) (41, 2.11311697959899900000e-001) (42, -2.35055536031723020000e-001) (43, -2.82607913017272950000e-001) (44, -9.04926180839538570000e-001) (45, -7.92574733495712280000e-002) (46, -2.57991552352905270000e-001) (47, 9.81216505169868470000e-002) (48, -6.38324797153472900000e-001) (49, 1.08705841004848480000e-001) (50, 1.05331003665924070000e+000) (51, -2.91693717241287230000e-001) (52, 4.09335166215896610000e-001) (53, -7.86903858184814450000e-001) (54, 8.28695073723793030000e-002) (55, 1.38124847412109370000e+000) (56, -1.00682294368743900000e+000) (57, -8.77441167831420900000e-001) (58, -1.39050197601318360000e+000) (59, -9.30020093917846680000e-001) (60, 1.93031340837478640000e-001) (61, -1.00356185436248780000e+000) (62, -2.69273996353149410000e+000) (63, -1.95749676227569580000e+000) (64, -2.47456479072570800000e+000) (65, 3.66713255643844600000e-002) (66, -8.64880532026290890000e-002) (67, 4.39927518367767330000e-001) (68, -1.06054162979125980000e+000) (69, -4.92281258106231690000e-001) (70, 2.40961331874132160000e-002) (71, -6.21551722288131710000e-002) (72, 3.90393316745758060000e-001) (73, -4.52496320009231570000e-001) (74, -1.03091537952423100000e+000) (75, 6.44647359848022460000e-001) (76, 2.52608269453048710000e-001) (77, -4.94114160537719730000e-002) (78, -6.61372780799865720000e-001) (79, 7.00033754110336300000e-002) (80, 7.97361493110656740000e-001) (81, 8.00797715783119200000e-002) (82, -1.51239430904388430000e+000) (83, -1.24236333370208740000e+000) (84, -3.50295752286911010000e-001) (85, -3.02950382232666020000e-001) (86, 3.71707469224929810000e-001) (87, -5.99899291992187500000e-001) (88, -8.66344749927520750000e-001) (89, -7.90931463241577150000e-001) (90, -8.82729530334472660000e-001) (91, 1.63701319694519040000e+000) (92, -2.46841654181480410000e-001) (93, 2.12584231048822400000e-002) (94, -3.63202691078186040000e-001) (95, -2.09801360964775090000e-001) (96, -1.53341695666313170000e-001) (97, -6.94495320320129390000e-001) (98, -4.27935898303985600000e-001) (99, -3.82115900516510010000e-001) (100, 6.77840173244476320000e-001) (101, 8.48620235919952390000e-001) (102, -2.66053229570388790000e-001) (103, -2.66066104173660280000e-001) (104, -2.25921962410211560000e-002) (105, 5.12707054615020750000e-001) (106, -5.32477676868438720000e-001) (107, -8.68223547935485840000e-001) (108, -4.71394389867782590000e-001) (109, 4.71667945384979250000e-001) (110, 2.42433771491050720000e-002) (111, 2.67940372228622440000e-001) (112, -5.26943266391754150000e-001) (113, -1.17902684211730960000e+000) (114, 2.27201301604509350000e-002) (115, -1.25634327530860900000e-001) (116, -2.43989035487174990000e-001) (117, -4.83974575996398930000e-001) (118, -8.41123282909393310000e-001) (119, -4.34621185064315800000e-001) (120, -9.77996513247489930000e-002) (121, -1.06435918807983400000e+000) (122, -3.84505838155746460000e-004) (123, -6.45880639553070070000e-001) (124, -2.49260827898979190000e-001) (125, -2.79726076126098630000e+000) (0, -4.85078483819961550000e-001) (1, -7.91307866573333740000e-001) (2, 2.98079848289489750000e-001) (3, 2.13331468403339390000e-002) (4, -2.87560075521469120000e-001) (5, -6.36824309825897220000e-001) (6, 3.44261199235916140000e-001) (7, 2.01282203197479250000e-001) (8, -5.47524571418762210000e-001) (9, 2.87349876016378400000e-002) (10, 1.15025557577610020000e-001) (11, -6.29212439060211180000e-001) (12, -5.10285735130310060000e-001) (13, 7.28995442390441890000e-001) (14, -2.91291803121566770000e-001) (15, -4.96436595916748050000e-001) (16, 8.91490578651428220000e-001) (17, 9.44845736026763920000e-001) (18, -2.63437986373901370000e-001) (19, 2.69613265991210940000e-001) (20, -2.58098870515823360000e-001) (21, 7.16287672519683840000e-001) (22, 3.79238743335008620000e-003) (23, 7.37880617380142210000e-002) (24, -5.88818371295928960000e-001) (25, -1.35097995400428770000e-001) (26, 1.76181346178054810000e-001) (27, -7.95526057481765750000e-002) (28, -2.64585912227630620000e-001) (29, 3.32269787788391110000e-001) (30, -6.50742769241333010000e-001) (31, 5.68137645721435550000e-001) (32, 5.23623287677764890000e-001) (33, -4.76682513952255250000e-001) (34, -6.71862736344337460000e-002) (35, 3.96114319562911990000e-001) (36, 4.09122109413146970000e-001) (37, 2.66515225172042850000e-001) (38, -1.40953473746776580000e-002) (39, -5.03071807324886320000e-002) (40, 1.05793558061122890000e-001) (41, 3.77121508121490480000e-001) (42, -3.93488764762878420000e-001) (43, -1.23848691582679750000e-001) (44, -1.14367663860321040000e-001) (45, -4.09494414925575260000e-002) (46, -8.15749049186706540000e-001) (47, 1.40556961297988890000e-001) (48, 6.72192513942718510000e-001) (49, -3.03184717893600460000e-001) (50, -5.82352519035339360000e-001) (51, -2.27149397134780880000e-001) (52, -3.70084226131439210000e-001) (53, -1.98656782507896420000e-001) (54, -1.47134810686111450000e-001) (55, -4.87383753061294560000e-001) (56, -3.08081768453121190000e-002) (57, 2.11920052766799930000e-001) (58, -5.00258326530456540000e-001) (59, 1.76605861634016040000e-002) (60, -3.04877292364835740000e-002) (61, 5.40556252002716060000e-001) (62, -3.62888813018798830000e-001) (63, -1.60500288009643550000e-001) (64, -8.77140760421752930000e-002) (65, -1.77309602499008180000e-001) (66, 2.50123202800750730000e-001) (67, 6.97343349456787110000e-001) (68, -4.64569389820098880000e-001) (69, -1.98795534670352940000e-002) (70, -2.10484832525253300000e-001) (71, 1.09339964389801030000e+000) (72, 7.04487040638923650000e-002) (73, -4.88018780946731570000e-001) (74, -2.36006379127502440000e-001) (75, -3.39815825223922730000e-001) (76, -7.77056217193603520000e-001) (77, -3.75620275735855100000e-001) (78, 9.21419262886047360000e-002) (79, -2.20141202211380000000e-001) (80, -2.23303750157356260000e-001) (81, -2.11606979370117190000e-001) (82, 4.78182882070541380000e-001) (83, -1.25937581062316890000e+000) (84, -1.97549879550933840000e-001) (85, 5.62319392338395120000e-003) (86, 2.89093375205993650000e-001) (87, -5.00748932361602780000e-001) (88, 5.47507107257843020000e-002) (89, -1.07066601514816280000e-001) (90, 3.04699748754501340000e-001) (91, -3.37865352630615230000e-001) (92, 4.39147174358367920000e-001) (93, 3.44011157751083370000e-001) (94, 2.17951089143753050000e-001) (95, -9.70906540751457210000e-002) (96, 2.04034015536308290000e-001) (97, -2.07681864500045780000e-001) (98, -1.22955806553363800000e-001) (99, -2.64977395534515380000e-001) (100, -4.44150030612945560000e-001) (101, -1.05193138122558590000e+000) (102, 3.45036804676055910000e-001) (103, 1.01364858448505400000e-001) (104, -1.62651743739843370000e-002) (105, -4.95802283287048340000e-001) (106, -1.22608467936515810000e-002) (107, 3.69417577981948850000e-001) (108, -3.18893671035766600000e-001) (109, -2.63667911291122440000e-001) (110, -5.93458525836467740000e-002) (111, -3.68649721145629880000e-001) (112, -3.36591154336929320000e-001) (113, 1.98105141520500180000e-001) (114, 3.84594529867172240000e-001) (115, -2.43178173899650570000e-001) (116, 3.39254438877105710000e-001) (117, 3.83700400590896610000e-001) (118, 2.79784977436065670000e-001) (119, -4.51882123947143550000e-001) (120, -4.72686737775802610000e-001) (121, 9.90122035145759580000e-002) (122, 1.22056445106863980000e-002) (123, 3.41714285314083100000e-002) (124, -9.52706765383481980000e-003) (125, 2.91108638048172000000e-001) (0, -4.25036251544952390000e-001) (1, 1.04821093380451200000e-001) (2, -1.95333495736122130000e-001) (3, 2.58146405220031740000e-001) (4, -1.53262674808502200000e-001) (5, 3.38938117027282710000e-001) (6, -2.06407070159912110000e-001) (7, 1.40695989131927490000e-001) (8, 2.68673092126846310000e-001) (9, 1.14402368664741520000e-001) (10, 4.67813223600387570000e-001) (11, 6.75572931766510010000e-001) (12, 9.01888608932495120000e-002) (13, -1.05468750000000000000e-001) (14, 4.06775297597050670000e-003) (15, 4.29410666227340700000e-001) (16, 1.77209645509719850000e-001) (17, 2.37097963690757750000e-001) (18, 2.41539552807807920000e-001) (19, -4.24519069492816930000e-002) (20, 1.33832484483718870000e-001) (21, 4.59008008241653440000e-001) (22, 2.26481765508651730000e-001) (23, 8.78914445638656620000e-002) (24, 6.95837242528796200000e-003) (25, -2.50558584928512570000e-001) (26, -2.98631846904754640000e-001) (27, -1.43419638276100160000e-001) (28, -1.68891683220863340000e-001) (29, 3.41258257627487180000e-001) (30, 3.91000330448150630000e-001) (31, -3.55504423379898070000e-001) (32, 4.72832955420017240000e-002) (33, 7.92145431041717530000e-002) (34, -9.81608629226684570000e-002) (35, 3.25904309749603270000e-001) (36, 7.38603174686431880000e-001) (37, 6.76149249076843260000e-001) (38, 1.13919660449028020000e-001) (39, 1.23498000204563140000e-001) (40, 3.76578927040100100000e-001) (41, 7.95374929904937740000e-001) (42, 3.85853461921215060000e-002) (43, 3.81119698286056520000e-001) (44, 1.12557344138622280000e-001) (45, 4.10722583532333370000e-001) (46, 4.59608912467956540000e-001) (47, -1.70765131711959840000e-001) (48, -3.47104072570800780000e-001) (49, -7.28830788284540180000e-003) (50, -3.27500402927398680000e-001) (51, 1.09696023166179660000e-001) (52, -3.63557972013950350000e-002) (53, -6.20847761631011960000e-001) (54, -2.16964036226272580000e-002) (55, -3.56952726840972900000e-001) (56, -6.26852273941040040000e-001) (57, 7.38969087600708010000e-001) (58, -4.54191505908966060000e-001) (59, 6.20270550251007080000e-001) (60, -9.09828767180442810000e-003) (61, -9.36331093311309810000e-001) (62, 1.98656666278839110000e+000) (63, 3.52943241596221920000e-001) (64, -5.22970795631408690000e-001) (65, 2.61633336544036870000e-001) (66, -5.01567006111145020000e-001) (67, 3.99148315191268920000e-001) (68, 1.09416568279266360000e+000) (69, -3.45433682203292850000e-001) (70, 3.65207076072692870000e-001) (71, 4.23077121376991270000e-002) (72, -1.11065626144409180000e+000) (73, -2.65356272459030150000e-001) (74, -2.08854023367166520000e-002) (75, -3.27508717775344850000e-001) (76, 1.21680594980716710000e-001) (77, -1.88647344708442690000e-001) (78, 1.81241869926452640000e-001) (79, -3.78890365362167360000e-001) (80, -2.63174176216125490000e-001) (81, 2.99103036522865300000e-002) (82, 5.23525834083557130000e-001) (83, 9.50734317302703860000e-001) (84, -3.74278038740158080000e-001) (85, 4.30095158517360690000e-002) (86, 5.06463050842285160000e-001) (87, 1.13066546618938450000e-001) (88, 6.25979125499725340000e-001) (89, -9.89290058612823490000e-001) (90, 1.14158248901367190000e+000) (91, 7.71044045686721800000e-002) (92, 5.22454082965850830000e-001) (93, -2.42117106914520260000e-001) (94, -1.85765437781810760000e-002) (95, 5.19542932510375980000e-001) (96, -7.86327838897705080000e-001) (97, -7.71091103553771970000e-001) (98, -1.48195818066596980000e-001) (99, -2.11102981120347980000e-002) (100, -7.44862675666809080000e-001) (101, 7.52795562148094180000e-002) (102, 8.71639400720596310000e-002) (103, 4.96786236763000490000e-001) (104, -3.45780044794082640000e-001) (105, -3.66230309009552000000e-003) (106, 6.06029592454433440000e-002) (107, -1.10803806781768800000e+000) (108, 6.20774328708648680000e-001) (109, -6.38657331466674800000e-001) (110, -1.07090994715690610000e-001) (111, 3.59889753162860870000e-002) (112, 1.97246477007865910000e-001) (113, -3.98768007755279540000e-001) (114, -6.63203299045562740000e-001) (115, 3.41286808252334590000e-001) (116, 6.06904327869415280000e-001) (117, 9.91957355290651320000e-003) (118, 2.73840337991714480000e-001) (119, -1.00841748714447020000e+000) (120, 4.09933358430862430000e-001) (121, -5.05330801010131840000e-001) (122, -7.47457861900329590000e-001) (123, -4.63533848524093630000e-001) (124, -3.85206341743469240000e-001) (125, 6.86387658119201660000e-001) (0, 2.96260476112365720000e-001) (1, 1.17403459548950200000e+000) (2, -1.17461144924163820000e+000) (3, 1.33748710155487060000e+000) (4, -5.44491052627563480000e-001) (5, 4.10690665245056150000e-001) (6, -6.15131855010986330000e-001) (7, 1.08178111258894210000e-003) (8, 5.52077949047088620000e-001) (9, -4.15086388587951660000e-001) (10, -2.52033561468124390000e-001) (11, -1.59402042627334590000e-001) (12, -3.43160450458526610000e-001) (13, 1.94941890239715580000e+000) (14, 6.80124402046203610000e-001) (15, -3.49250167608261110000e-001) (16, 6.17163300514221190000e-001) (17, 1.26422613859176640000e-001) (18, -2.40682899951934810000e-001) (19, -1.28272569179534910000e+000) (20, -5.15269577503204350000e-001) (21, 3.63442897796630860000e-001) (22, -2.58532613515853880000e-001) (23, -2.69705384969711300000e-001) (24, -1.54008412361145020000e+000) (25, 4.52653706073760990000e-001) (26, -5.12578487396240230000e-001) (27, -4.24849152565002440000e-001) (28, -4.08106222748756410000e-002) (29, -8.68730068206787110000e-001) (30, 3.62459421157836910000e-001) (31, 6.81846857070922850000e-001) (32, -2.89156526327133180000e-001) (33, 2.14114248752593990000e-001) (34, -1.62062615156173710000e-001) (35, -2.27331385016441350000e-001) (36, -3.85176211595535280000e-001) (37, 1.18816864490509030000e+000) (38, 1.80084252357482910000e+000) (39, -1.48395967483520510000e+000) (40, -3.66188466548919680000e-001) (41, -6.49844110012054440000e-001) (42, 3.60284358263015750000e-001) (43, 1.60599544644355770000e-001) (44, -2.08557581901550290000e+000) (45, 2.13319495320320130000e-001) (46, 1.41246759891510010000e+000) (47, -2.27284044027328490000e-001) (48, -1.14012859761714940000e-001) (49, -4.37476307153701780000e-001) (50, 9.09413695335388180000e-002) (51, 6.70781195163726810000e-001) (52, -1.35377097129821780000e+000) (53, -4.77044939994812010000e-001) (54, 2.46326491236686710000e-001) (55, 4.04609471559524540000e-001) (56, 6.80195450782775880000e-001) (57, 2.28813081979751590000e-001) (58, -9.40164744853973390000e-001) (59, -5.66025137901306150000e-001) (60, -2.60665744543075560000e-001) (61, -2.35656261444091800000e-001) (62, -8.72201979160308840000e-001) (63, 1.68624892830848690000e-001) (64, -2.94482541084289550000e+000) (65, -3.50452959537506100000e-001) (66, 5.20730376243591310000e-001) (67, -4.20206636190414430000e-001) (68, -3.12926828861236570000e-001) (69, -1.60364127159118650000e+000) (70, -3.13794732093811040000e-001) (71, -9.50922012329101560000e-001) (72, -1.38942748308181760000e-001) (73, -1.86916987877339120000e-003) (74, -1.45032674074172970000e-001) (75, 1.42232313752174380000e-001) (76, -4.01307307183742520000e-002) (77, -5.43672442436218260000e-001) (78, 5.48492431640625000000e-001) (79, -3.78592669963836670000e-001) (80, -2.67089195549488070000e-002) (81, -1.03452813625335690000e+000) (82, -9.40646290779113770000e-001) (83, -2.10825949907302860000e-002) (84, -9.22701001167297360000e-001) (85, -5.63354432582855220000e-001) (86, -6.04347944259643550000e-001) (87, -2.31070876121521000000e-001) (88, -5.15160202980041500000e-001) (89, -8.55657458305358890000e-001) (90, -2.66463160514831540000e-001) (91, -1.24955631792545320000e-001) (92, 9.31425839662551880000e-002) (93, -4.04547415673732760000e-002) (94, 5.02479914575815200000e-003) (95, -3.83654475212097170000e-001) (96, -9.09482598304748540000e-001) (97, -1.13367579877376560000e-001) (98, -4.25739511847496030000e-002) (99, 7.83345520496368410000e-001) (100, -2.80824918299913410000e-002) (101, -8.11842858791351320000e-001) (102, -2.36566632986068730000e-001) (103, 3.51644665002822880000e-001) (104, -1.95718526840209960000e-001) (105, 1.25335618853569030000e-001) (106, -2.66627490520477290000e-001) (107, 3.56897234916687010000e-001) (108, -1.82944443076848980000e-002) (109, -2.90428429841995240000e-001) (110, -2.87168771028518680000e-001) (111, -7.86414891481399540000e-002) (112, -4.97713297605514530000e-001) (113, 5.62398850917816160000e-001) (114, -3.23890000581741330000e-002) (115, -3.35691064596176150000e-001) (116, -6.45935237407684330000e-002) (117, -1.77818670868873600000e-001) (118, -4.03442919254302980000e-001) (119, -2.72927224636077880000e-001) (120, -5.71558773517608640000e-001) (121, 4.32905226945877080000e-001) (122, 7.65138983726501460000e-001) (123, 2.16183841228485110000e-001) (124, -1.66465952992439270000e-001) (125, -1.55699133872985840000e-001) (0, -1.64479181170463560000e-001) (1, -4.34998893737792970000e+000) (2, -4.30439591407775880000e-001) (3, 4.53700017929077150000e+000) (4, 3.51033926010131840000e-001) (5, -8.07574316859245300000e-002) (6, 7.58824050426483150000e-001) (7, -1.72740936279296880000e+000) (8, 3.01316237449646000000e+000) (9, 4.75557446479797360000e-001) (10, 3.56806367635726930000e-001) (11, 2.75237292051315310000e-001) (12, 1.47333765029907230000e+000) (13, 6.55864620208740230000e+000) (14, 2.05062821507453920000e-001) (15, 4.28381532430648800000e-001) (16, -3.26420217752456670000e-002) (17, 3.56561213731765750000e-001) (18, 2.82398152351379390000e+000) (19, -5.64530193805694580000e-001) (20, 4.30716484785079960000e-001) (21, -1.17202425003051760000e+000) (22, -1.01960194110870360000e+000) (23, 1.40071845054626460000e+000) (24, 4.93154823780059810000e-001) (25, -1.08961071819067000000e-002) (26, 1.23267674446105960000e+000) (27, -7.78369724750518800000e-001) (28, 2.51989746093750000000e+000) (29, 5.25315880775451660000e-001) (30, 2.96436935663223270000e-001) (31, 1.36969292163848880000e+000) (32, 1.46747362613677980000e+000) (33, 2.82385706901550290000e+000) (34, 2.64337778091430660000e-001) (35, 9.01812613010406490000e-001) (36, -1.47449564933776860000e+000) (37, 4.77960050106048580000e-001) (38, -5.63744020462036130000e+000) (39, -8.64444673061370850000e-001) (40, 8.37814807891845700000e-001) (41, 1.82133722305297850000e+000) (42, 6.12821638584136960000e-001) (43, -7.05885827541351320000e-001) (44, -7.94747412204742430000e-001) (45, -5.05445122718811040000e-001) (46, -1.55131137371063230000e+000) (47, -9.11091923713684080000e-001) (48, 2.36935973167419430000e+000) (49, -1.80602252483367920000e-001) (50, 3.98154288530349730000e-001) (51, -4.72804307937622070000e-001) (52, 2.29763174057006840000e+000) (53, -2.22041916847229000000e+000) (54, -2.16435834765434270000e-001) (55, 1.44121587276458740000e-001) (56, -8.21429550647735600000e-001) (57, 4.47037488222122190000e-001) (58, -7.65897810459136960000e-001) (59, 6.63071334362030030000e-001) (60, 3.09392452239990230000e-001) (61, -4.64462804794311520000e+000) (62, -1.27435714006423950000e-001) (63, 5.00571632385253910000e+000) (64, -1.47779190540313720000e+000) (65, 2.58706331253051760000e-001) (66, -1.17768335342407230000e+000) (67, -8.73422265052795410000e-001) (68, 1.23541641235351560000e+000) (69, 4.36549472808837890000e+000) (70, 5.75235933065414430000e-002) (71, 3.98320645093917850000e-001) (72, 6.41348063945770260000e-001) (73, -7.80649632215499880000e-002) (74, -3.17594200372695920000e-001) (75, -1.32128506898880000000e-001) (76, -1.77508103847503660000e+000) (77, 1.97345864772796630000e+000) (78, 1.43636631965637210000e+000) (79, 4.58099365234375000000e-001) (80, -5.70284277200698850000e-002) (81, -3.02456885576248170000e-001) (82, 6.81499183177948000000e-001) (83, 1.20057547092437740000e+000) (84, 1.66015967726707460000e-001) (85, 1.49878188967704770000e-001) (86, -1.58953654766082760000e+000) (87, 4.38385993242263790000e-001) (88, 2.29673877358436580000e-001) (89, -8.05680930614471440000e-001) (90, 3.60081017017364500000e-001) (91, -2.04264783859252930000e+000) (92, 7.94469952583312990000e-001) (93, -9.33368802070617680000e-001) (94, 4.69682991504669190000e-001) (95, -8.42035748064517970000e-003) (96, -1.26388633251190190000e+000) (97, -3.79637271165847780000e-001) (98, 5.59695065021514890000e-001) (99, 2.33588144183158870000e-001) (100, 1.04604102671146390000e-001) (101, -1.45577716827392580000e+000) (102, 2.83456945419311520000e+000) (103, 5.91471970081329350000e-001) (104, -1.96333360671997070000e+000) (105, 3.38675647974014280000e-001) (106, 2.47812342643737790000e+000) (107, -8.11949074268341060000e-001) (108, 2.28535628318786620000e+000) (109, -1.11434221267700200000e+000) (110, 3.40834051370620730000e-001) (111, 6.17939054965972900000e-001) (112, -2.77130031585693360000e+000) (113, 4.69546604156494140000e+000) (114, -1.23491501808166500000e+000) (115, 2.56828427314758300000e-001) (116, 7.26017177104949950000e-001) (117, -2.09560871124267580000e+000) (118, 1.76500427722930910000e+000) (119, 5.66439151763916020000e-001) (120, 1.59757807850837710000e-001) (121, 1.61619156599044800000e-001) (122, -1.42809867858886720000e-001) (123, 2.08014559745788570000e+000) (124, 9.71445143222808840000e-001) (125, -3.19906592369079590000e+000) (0, 1.25699388980865480000e+000) (1, 1.55628788471221920000e+000) (2, 3.04402858018875120000e-001) (3, 4.07940924167633060000e-001) (4, -2.77239531278610230000e-001) (5, 1.48989069461822510000e+000) (6, 3.42256575822830200000e-001) (7, 2.92460560798645020000e-001) (8, -1.47396564483642580000e+000) (9, 1.00424778461456300000e+000) (10, 7.39466667175292970000e-001) (11, 4.33628737926483150000e-001) (12, 4.95205938816070560000e-001) (13, -2.16518115997314450000e+000) (14, 2.19600617885589600000e-001) (15, 6.84697687625885010000e-001) (16, -2.74972736835479740000e-001) (17, -1.67064893245697020000e+000) (18, -2.21404695510864260000e+000) (19, -6.37018024921417240000e-001) (20, 2.04745694994926450000e-001) (21, -2.14884400367736820000e+000) (22, 5.48541307449340820000e-001) (23, -1.88763034343719480000e+000) (24, 3.59101355075836180000e-001) (25, 2.20503640174865720000e+000) (26, -3.17827850580215450000e-001) (27, 2.77789652347564700000e-001) (28, 4.45200324058532710000e-001) (29, 3.04279804229736330000e-001) (30, 5.90268336236476900000e-002) (31, 1.16790163516998290000e+000) (32, -2.52809643745422360000e-001) (33, 1.24242536723613740000e-001) (34, 1.00396893918514250000e-001) (35, 1.88251480460166930000e-001) (36, -4.89046126604080200000e-001) (37, 1.94490468502044680000e+000) (38, -2.28678226470947270000e+000) (39, 5.51153182983398440000e-001) (40, 3.43819081783294680000e-001) (41, 1.33700653910636900000e-001) (42, 6.80811166763305660000e-001) (43, -6.18206501007080080000e-001) (44, -2.90197730064392090000e-002) (45, 4.31119590997695920000e-001) (46, -8.83453428745269780000e-001) (47, 1.25886082649230960000e+000) (48, -9.04569923877716060000e-001) (49, 6.15524649620056150000e-001) (50, 9.03897225856781010000e-001) (51, -1.54946100711822510000e+000) (52, 5.13750135898590090000e-001) (53, 5.75010299682617190000e-001) (54, -5.21873116493225100000e-001) (55, -4.44633960723876950000e-002) (56, -2.05534234642982480000e-001) (57, -2.73823469877243040000e-001) (58, 8.70195686817169190000e-001) (59, -4.24457818269729610000e-001) (60, 3.78027766942977910000e-001) (61, 1.46730005741119380000e+000) (62, 9.26599264144897460000e-001) (63, -1.29954242706298830000e+000) (64, 8.35102677345275880000e-001) (65, 4.48519229888916020000e-001) (66, -2.35765814781188960000e-001) (67, -3.61716568470001220000e-001) (68, -1.45901107788085940000e+000) (69, 5.26333749294281010000e-001) (70, 2.64387696981430050000e-001) (71, -4.45945143699646000000e-001) (72, 2.60175734758377080000e-001) (73, 9.57493185997009280000e-001) (74, 8.86946856975555420000e-001) (75, 1.79291713237762450000e+000) (76, -1.18450470268726350000e-001) (77, -8.04684460163116460000e-001) (78, -1.74524235725402830000e+000) (79, 1.34952008724212650000e+000) (80, 8.65636050701141360000e-001) (81, -6.35283589363098140000e-001) (82, -1.34425330162048340000e+000) (83, -4.42609310150146480000e+000) (84, 3.63855361938476560000e-001) (85, 1.43092218786478040000e-002) (86, 1.24102187156677250000e+000) (87, 2.35464379191398620000e-001) (88, -3.06905180215835570000e-001) (89, 7.47707724571228030000e-001) (90, 1.12996548414230350000e-001) (91, 8.98326694965362550000e-001) (92, -1.47945778444409370000e-002) (93, -7.20332801342010500000e-001) (94, 1.21668243408203120000e+000) (95, 3.43964904546737670000e-001) (96, 1.39753997325897220000e+000) (97, 7.97716796398162840000e-001) (98, 6.42669439315795900000e-001) (99, 1.09535360336303710000e+000) (100, 1.48548853397369380000e+000) (101, 1.02610385417938230000e+000) (102, 4.90055263042449950000e-001) (103, -4.97643768787384030000e-001) (104, 6.20034933090209960000e-001) (105, 8.48848998546600340000e-001) (106, -9.13375675678253170000e-001) (107, -1.25530734658241270000e-001) (108, -3.67959260940551760000e-001) (109, 7.88771212100982670000e-001) (110, 4.08594727516174320000e-001) (111, 6.25161468982696530000e-001) (112, 2.80235737562179570000e-001) (113, -2.96849131584167480000e+000) (114, -4.58532124757766720000e-001) (115, 5.25653779506683350000e-001) (116, -5.95760703086853030000e-001) (117, -9.05473470687866210000e-001) (118, -3.88531923294067380000e+000) (119, 3.17098879814147950000e+000) (120, 1.14969587326049800000e+000) (121, -1.08513140678405760000e+000) (122, -9.07161414623260500000e-001) (123, -2.55774185061454770000e-002) (124, 1.05016958713531490000e+000) (125, 6.81658238172531130000e-002) (0, 1.20008230209350590000e-001) (1, 3.78788304328918460000e+000) (2, -1.44256412982940670000e-001) (3, -2.72537320852279660000e-001) (4, 1.40556395053863530000e+000) (5, 6.43612071871757510000e-002) (6, 6.28774821758270260000e-001) (7, 1.11746060848236080000e+000) (8, 7.55729973316192630000e-001) (9, 2.90712809562683110000e+000) (10, 4.79013442993164060000e-001) (11, -3.82397866249084470000e+000) (12, -3.61944079399108890000e+000) (13, 2.46668910980224610000e+000) (14, -4.42096382379531860000e-001) (15, 6.16893410682678220000e-001) (16, 5.68569898605346680000e-001) (17, -2.21334767341613770000e+000) (18, -1.41630005836486820000e+000) (19, 1.57374367117881770000e-001) (20, -8.28687906265258790000e-001) (21, 6.90214633941650390000e-001) (22, 2.25041198730468750000e+000) (23, -4.90364491939544680000e-001) (24, 9.71498414874076840000e-002) (25, -1.61238044500350950000e-001) (26, -1.76093980669975280000e-001) (27, 7.25391685962677000000e-001) (28, -2.57565438747406010000e-001) (29, 4.31710630655288700000e-001) (30, -2.90611416101455690000e-001) (31, -1.94817793369293210000e+000) (32, 1.80424883961677550000e-001) (33, 9.84909459948539730000e-002) (34, 1.71571147441864010000e+000) (35, 4.52280402183532710000e-001) (36, 2.60208678245544430000e+000) (37, 4.77473545074462890000e+000) (38, 9.09353017807006840000e-001) (39, -1.00278234481811520000e+000) (40, 1.88414704799652100000e+000) (41, 6.49043416976928710000e+000) (42, 1.87002325057983400000e+000) (43, -1.22822940349578860000e+000) (44, -9.62723612785339360000e-001) (45, 1.74142730236053470000e+000) (46, 2.55916655063629150000e-001) (47, -2.91879844665527340000e+000) (48, 2.40601092576980590000e-001) (49, 2.97589588165283200000e+000) (50, 2.65085875988006590000e-001) (51, -3.87326419353485110000e-001) (52, 3.84742841124534610000e-002) (53, 7.71854817867279050000e-001) (54, 6.58527970314025880000e-001) (55, -1.87545076012611390000e-001) (56, 2.33561229705810550000e+000) (57, -4.19416092336177830000e-002) (58, 3.78578472137451170000e+000) (59, 1.78083095550537110000e+001) (60, 2.82569527626037600000e-001) (61, 1.69814670085906980000e+000) (62, 6.39443855285644530000e+001) (63, 9.85328197479248050000e+000) (64, 1.18791484832763670000e+000) (65, 5.76493680477142330000e-001) (66, 4.75732721388340000000e-002) (67, 5.21911084651947020000e-001) (68, -6.71815574169158940000e-002) (69, -1.42992568016052250000e+000) (70, 6.04903221130371090000e-001) (71, 7.09635555744171140000e-001) (72, -2.47555780410766600000e+000) (73, 3.38975727558135990000e-001) (74, 3.78127396106719970000e-001) (75, 1.89062997698783870000e-001) (76, 1.61023974418640140000e+000) (77, -6.19699716567993160000e-001) (78, -3.31328690052032470000e-001) (79, -8.28418791294097900000e-001) (80, -1.48080047219991680000e-002) (81, 5.53233528137207030000e+000) (82, 5.85906922817230220000e-001) (83, -8.24158191680908200000e-001) (84, 1.26569747924804690000e+000) (85, 8.43534946441650390000e-001) (86, 6.39107322692871090000e+000) (87, -9.87565219402313230000e-001) (88, -3.06132435798645020000e+000) (89, 3.06537675857543950000e+000) (90, 8.49430561065673830000e+000) (91, 1.20218777656555180000e+000) (92, 3.82696002721786500000e-001) (93, -4.12857443094253540000e-001) (94, -4.72717247903347020000e-002) (95, 1.88353538513183590000e+000) (96, -1.60657569766044620000e-001) (97, 1.29614567756652830000e+000) (98, 2.29504513740539550000e+000) (99, 3.11289548873901370000e-001) (100, 5.13716116547584530000e-002) (101, 1.78588962554931640000e+000) (102, -8.78006100654602050000e-001) (103, -1.42987370491027830000e+000) (104, 2.21895766258239750000e+000) (105, 2.46183231472969060000e-001) (106, -2.16181659698486330000e+000) (107, -1.81122586131095890000e-001) (108, -3.13071656227111820000e+000) (109, 5.33549129962921140000e-001) (110, 1.79257214069366460000e+000) (111, -1.92187821865081790000e+000) (112, 2.10309219360351560000e+000) (113, 8.86393904685974120000e-001) (114, -1.36508628726005550000e-001) (115, 1.72690689563751220000e+000) (116, -4.16587352752685550000e+000) (117, 2.92845100164413450000e-001) (118, -5.98390460014343260000e-001) (119, -7.26805210113525390000e-001) (120, 1.49293944239616390000e-001) (121, 1.97519883513450620000e-001) (122, 3.35143864154815670000e-001) (123, 2.33302339911460880000e-001) (124, 7.42576241493225100000e-001) (125, -4.31358963251113890000e-001) (126, -1.10772669315338130000e-001) (127, -9.41396504640579220000e-002) (128, 5.69925606250762940000e-001) (129, 5.99593877792358400000e-001) (130, -3.30845415592193600000e-001) (131, -1.83919221162796020000e-001) (132, -1.07837295532226560000e+000) (133, 7.65988886356353760000e-001) (134, 2.85802006721496580000e-001) (135, 6.95800304412841800000e-001) (136, -2.54951405525207520000e+000) (137, -3.02514600753784180000e+000) (138, -8.73020738363265990000e-002) (139, 7.32308089733123780000e-001) (140, -2.18350857496261600000e-001) (141, -3.53084087371826170000e-001) (142, 2.01449438929557800000e-001) (143, 4.72819209098815920000e-001) (144, 1.49876728653907780000e-001) (145, -9.20202970504760740000e-001) (146, 8.13849717378616330000e-002) (147, -3.06212604045867920000e-002) (148, 5.12209653854370120000e-001) (149, 2.63444691896438600000e-001) (150, 1.02503210306167600000e-001) (151, 3.79654347896575930000e-001) (152, -1.72585070133209230000e-001) (153, 1.12634479999542240000e+000) (154, 2.02921077609062190000e-001) (155, 2.79498785734176640000e-001) (156, -3.07027578353881840000e-001) (157, 3.50245326757431030000e-001) (158, -2.16540288925170900000e+000) (159, 4.73160713911056520000e-001) (160, 6.80416598916053770000e-002) (161, 9.23712849617004390000e-001) (162, -2.00952172279357910000e+000) (163, 1.17202647030353550000e-001) (164, 3.45732927322387700000e-001) (165, -6.30073368549346920000e-001) (166, -7.47454687952995300000e-002) (167, -8.13173204660415650000e-002) (168, -3.71933728456497190000e-001) (169, 2.03816398978233340000e-001) (170, 3.19053009152412410000e-002) (171, -2.80034720897674560000e-001) (172, -3.99204730987548830000e-001) (173, 4.94349673390388490000e-002) (174, -1.76641233265399930000e-002) (175, -6.02546989917755130000e-001) (176, 9.67502295970916750000e-002) (177, -1.55851185321807860000e-001) (178, -2.89920628070831300000e-001) (179, 4.15055155754089360000e-002) (180, 3.84719878435134890000e-001) (181, -3.68782877922058110000e-001) (182, -3.24160046875476840000e-002) (183, 6.56600534915924070000e-001) (184, 5.94475090503692630000e-001) (185, -8.15391838550567630000e-002) (186, -1.09015062451362610000e-001) (187, -1.09202837944030760000e+000) (188, 8.98831367492675780000e-001) (189, 4.90531235933303830000e-001) (190, 1.73901826143264770000e-001) (191, -3.62854562699794770000e-002) (192, 7.22119569778442380000e-001) (193, -4.32042568922042850000e-001) (194, 1.43894627690315250000e-001) (195, -1.45962730050086980000e-001) (196, 1.64552226662635800000e-001) (197, 5.32924354076385500000e-001) (198, 1.52378752827644350000e-001) (199, -5.54538741707801820000e-002) (200, 3.66529747843742370000e-002) (201, 3.63881379365921020000e-001) (126, -3.79680156707763670000e-001) (127, 3.89149755239486690000e-001) (128, 1.05526113510131840000e+000) (129, -1.85209661722183230000e-001) (130, 1.59658029675483700000e-001) (131, -3.56162637472152710000e-001) (132, 4.88880336284637450000e-001) (133, 2.09508031606674190000e-001) (134, 4.56026375293731690000e-001) (135, 4.92991954088211060000e-001) (136, -5.70257790386676790000e-002) (137, 2.06183180212974550000e-001) (138, -1.96181863546371460000e-001) (139, 1.42050588130950930000e+000) (140, 6.04126930236816410000e-001) (141, 1.97033360600471500000e-001) (142, 1.25487059354782100000e-001) (143, 8.07479798793792720000e-001) (144, -4.78347800672054290000e-002) (145, -2.02053189277648930000e-002) (146, 6.94839119911193850000e-001) (147, 5.63404560089111330000e-001) (148, 4.53911632299423220000e-001) (149, 8.27133953571319580000e-001) (150, 5.49023151397705080000e-001) (151, 1.29177403450012210000e+000) (152, -5.31231872737407680000e-002) (153, 5.49070835113525390000e-001) (154, -4.43498268723487850000e-002) (155, 6.15020990371704100000e-001) (156, 1.44367933273315430000e-001) (157, 5.55372297763824460000e-001) (158, 3.00155192613601680000e-001) (159, 6.24685823917388920000e-001) (160, 4.32177662849426270000e-001) (161, 5.46385705471038820000e-001) (162, 1.49839684367179870000e-001) (163, -9.70404565334320070000e-001) (164, 8.10396552085876460000e-001) (165, 8.77586126327514650000e-001) (166, -1.57887592911720280000e-001) (167, -7.01092332601547240000e-002) (168, 1.60457983613014220000e-001) (169, 7.93376386165618900000e-001) (170, 6.58043503761291500000e-001) (171, 4.89349365234375000000e-001) (172, -1.34903907775878910000e-001) (173, -3.31141427159309390000e-002) (174, 4.18697088956832890000e-001) (175, 7.41465806961059570000e-001) (176, 8.05445492267608640000e-001) (177, -3.91295030713081360000e-002) (178, 7.46664583683013920000e-001) (179, -3.98738205432891850000e-001) (180, 3.10707334429025650000e-002) (181, 7.80709683895111080000e-001) (182, 6.70550346374511720000e-001) (183, 6.21691823005676270000e-001) (184, 4.30936336517333980000e-001) (185, 1.36701509356498720000e-001) (186, 1.33091747760772710000e+000) (187, 1.96241036057472230000e-001) (188, -1.90243255347013470000e-002) (189, 3.28277885913848880000e-001) (190, 4.50860530138015750000e-001) (191, 1.78235337138175960000e-001) (192, 1.11136801540851590000e-001) (193, 8.43553066253662110000e-001) (194, 1.55091077089309690000e-001) (195, 1.37947067618370060000e-001) (196, 5.01872718334198000000e-001) (197, 5.71298420429229740000e-001) (198, -1.63412511348724370000e-001) (199, 4.38945651054382320000e-001) (200, 4.22980487346649170000e-001) (201, 4.42107051610946660000e-001) (126, 1.60369679331779480000e-001) (127, 3.74679744243621830000e-001) (128, -2.58378446102142330000e-001) (129, 1.66563928127288820000e-001) (130, -1.38911604881286620000e-001) (131, -4.06958520412445070000e-001) (132, 4.13136631250381470000e-001) (133, 5.52908368408679960000e-002) (134, 1.92903038114309310000e-002) (135, 3.54314535856246950000e-001) (136, -2.47756958007812500000e-001) (137, 2.88146227598190310000e-001) (138, 2.72318571805953980000e-001) (139, 4.15748327970504760000e-001) (140, -1.21996782720088960000e-001) (141, -1.22832968831062320000e-001) (142, 3.89663755893707280000e-001) (143, 3.32137756049633030000e-002) (144, -1.67639330029487610000e-001) (145, 4.65940028429031370000e-001) (146, 1.89187362790107730000e-001) (147, -2.67768874764442440000e-002) (148, 2.40398138761520390000e-001) (149, -2.53886580467224120000e-001) (150, 3.38890761137008670000e-001) (151, -9.10723656415939330000e-002) (152, -2.14577227830886840000e-001) (153, -8.08826312422752380000e-002) (154, 2.69230544567108150000e-001) (155, -2.42975533008575440000e-001) (156, 4.34487551450729370000e-001) (157, 4.65736061334609990000e-001) (158, -1.65448680520057680000e-001) (159, 1.51011809706687930000e-001) (160, 3.46849471330642700000e-001) (161, 5.56710422039031980000e-001) (162, 3.04680764675140380000e-001) (163, 5.35845905542373660000e-002) (164, 4.13282394409179690000e-001) (165, -8.29547271132469180000e-003) (166, -3.83510440587997440000e-002) (167, 1.76772877573966980000e-001) (168, 5.70305764675140380000e-001) (169, 3.74479085206985470000e-001) (170, 3.36930394172668460000e-001) (171, 3.24671939015388490000e-002) (172, 1.00661188364028930000e-001) (173, -3.78489732742309570000e-001) (174, 1.91183075308799740000e-001) (175, 3.54114353656768800000e-001) (176, 4.26017463207244870000e-001) (177, 1.23570904135704040000e-001) (178, 1.47907640784978870000e-002) (179, -3.18033874034881590000e-001) (180, 2.80462116003036500000e-001) (181, 3.82156670093536380000e-001) (182, 2.77401179075241090000e-001) (183, 3.94261538982391360000e-001) (184, 2.16138556599617000000e-001) (185, 2.04619869589805600000e-001) (186, 6.41402661800384520000e-001) (187, -6.77380040287971500000e-002) (188, 1.84907704591751100000e-001) (189, 4.02279257774353030000e-001) (190, 7.01345562934875490000e-001) (191, 2.92762625031173230000e-003) (192, -1.91647976636886600000e-001) (193, 3.23834657669067380000e-001) (194, 2.95388191938400270000e-001) (195, 6.24258995056152340000e-001) (196, 2.77888506650924680000e-001) (197, 1.38655230402946470000e-001) (198, 6.37915655970573430000e-002) (199, 2.50832021236419680000e-001) (200, 6.51302814483642580000e-001) (201, -2.24289751052856450000e+000) (126, -4.13333326578140260000e-001) (127, -2.26548582315444950000e-001) (128, 4.66502457857131960000e-001) (129, 4.88983780145645140000e-001) (130, -1.05626761913299560000e+000) (131, 5.34180663526058200000e-002) (132, 1.55351087450981140000e-001) (133, 7.23773598670959470000e-001) (134, -3.31363566219806670000e-002) (135, 5.70433139801025390000e-001) (136, -1.05992078781127930000e+000) (137, -2.84576326608657840000e-001) (138, -2.45053377002477650000e-002) (139, 7.77677118778228760000e-001) (140, -1.70429974794387820000e-001) (141, -4.36624765396118160000e-001) (142, 7.40152746438980100000e-002) (143, -6.13135397434234620000e-001) (144, 2.10584685206413270000e-001) (145, -1.87282532453536990000e-001) (146, 3.01897794008255000000e-001) (147, 1.87309905886650090000e-001) (148, 6.07190787792205810000e-001) (149, 1.67890667915344240000e-001) (150, 8.97802948951721190000e-001) (151, 1.34647890925407410000e-001) (152, -4.68902170658111570000e-001) (153, 4.00474786758422850000e-001) (154, 3.46185937523841860000e-002) (155, 3.59598100185394290000e-001) (156, -3.92699800431728360000e-002) (157, 1.66396677494049070000e-001) (158, 8.84778320789337160000e-001) (159, 7.25041627883911130000e-001) (160, 1.39542892575263980000e-001) (161, 5.19175589084625240000e-001) (162, -7.12870538234710690000e-001) (163, -8.35198611021041870000e-002) (164, 1.00200223922729490000e+000) (165, 2.22428306937217710000e-001) (166, 5.28315842151641850000e-001) (167, -3.92299413681030270000e-001) (168, 3.26092004776000980000e-001) (169, 1.04720942676067350000e-001) (170, 8.66569042205810550000e-001) (171, 3.00610095262527470000e-001) (172, -5.69036938250064850000e-002) (173, -2.84852790832519530000e+000) (174, 3.01184803247451780000e-001) (175, 4.11475971341133120000e-002) (176, 2.98927366733551030000e-001) (177, -3.77215862274169920000e-001) (178, 4.95931692421436310000e-002) (179, -1.89280009269714360000e+000) (180, 4.29366789758205410000e-002) (181, 4.50453460216522220000e-001) (182, -2.53059357404708860000e-001) (183, 8.90606105327606200000e-001) (184, 4.24677580595016480000e-001) (185, -2.36121565103530880000e-001) (186, 3.32488656044006350000e-001) (187, -5.59236943721771240000e-001) (188, -1.98978960514068600000e-001) (189, 1.96633324027061460000e-001) (190, 2.47042626142501830000e-001) (191, -2.11948573589324950000e-001) (192, -1.75625801086425780000e-001) (193, 1.04688835144042970000e+000) (194, -2.25388824939727780000e-001) (195, -9.96907278895378110000e-002) (196, 1.90553009510040280000e-001) (197, 2.74212330579757690000e-001) (198, 8.44514608383178710000e-001) (199, 6.95555433630943300000e-002) (200, 4.40794736146926880000e-001) (201, 1.03137210011482240000e-001) (126, -1.83709120750427250000e+000) (127, 9.59883704781532290000e-002) (128, -1.52247056365013120000e-001) (129, 2.97733902931213380000e-001) (130, -1.04011309146881100000e+000) (131, 6.85394465923309330000e-001) (132, -1.20867502689361570000e+000) (133, 2.70679779350757600000e-003) (134, 1.09165348112583160000e-001) (135, 2.07808628678321840000e-001) (136, -2.68360553309321400000e-003) (137, -8.49197924137115480000e-001) (138, -8.72834473848342900000e-002) (139, 1.08419394493103030000e+000) (140, -1.83974003791809080000e+000) (141, -8.70244264602661130000e-001) (142, 2.09616971015930180000e+000) (143, 2.85205483436584470000e-001) (144, 1.74896687269210820000e-001) (145, -4.32044744491577150000e-001) (146, -2.10709989070892330000e-001) (147, 2.16860398650169370000e-001) (148, -6.48319900035858150000e-001) (149, -7.22618922591209410000e-002) (150, 5.80734431743621830000e-001) (151, -6.21082961559295650000e-001) (152, 7.73812457919120790000e-002) (153, 5.97841262817382810000e-001) (154, 2.24957242608070370000e-001) (155, -3.68175476789474490000e-001) (156, 3.29718381166458130000e-001) (157, 1.39334529638290410000e-001) (158, 3.41705769300460820000e-001) (159, 2.76600778102874760000e-001) (160, 1.34611025452613830000e-001) (161, 2.92114585638046260000e-001) (162, 5.31609356403350830000e-001) (163, -1.40196651220321660000e-001) (164, 5.72726309299468990000e-001) (165, 4.56179566681385040000e-002) (166, -9.18903589248657230000e-001) (167, -9.04147401452064510000e-002) (168, -1.28587335348129270000e-001) (169, 2.86061108112335210000e-001) (170, -1.98416486382484440000e-001) (171, 3.41151595115661620000e-001) (172, -1.82687491178512570000e-001) (173, -5.15364527702331540000e-001) (174, 7.83210277557373050000e-001) (175, 4.36015337705612180000e-001) (176, 3.52809071540832520000e-001) (177, 5.48669397830963130000e-001) (178, 4.78090584278106690000e-001) (179, -5.87531626224517820000e-002) (180, 6.46132946014404300000e-001) (181, -3.18299919366836550000e-001) (182, -4.52488005161285400000e-001) (183, 8.25503826141357420000e-001) (184, -6.83193886652588840000e-003) (185, 3.75842690467834470000e-001) (186, 4.87450003623962400000e-001) (187, 1.40766173601150510000e-001) (188, -5.05691289901733400000e-001) (189, -3.96709024906158450000e-001) (190, 6.34536147117614750000e-002) (191, 1.20193684101104740000e+000) (192, -2.13976168632507320000e+000) (193, 1.49760520458221440000e+000) (194, 1.46400868892669680000e-001) (195, 6.44464045763015750000e-002) (196, -7.31212079524993900000e-001) (197, -4.52726751565933230000e-001) (198, 3.80877628922462460000e-002) (199, 2.17279210686683650000e-001) (200, 1.20224821567535400000e+000) (201, 2.25391054153442380000e+000) (126, -8.93226683139801030000e-001) (127, 2.87345319986343380000e-001) (128, 5.21105621010065080000e-003) (129, 6.00571870803833010000e-001) (130, -3.22304248809814450000e-001) (131, 4.78586941957473750000e-001) (132, -2.32073292136192320000e-001) (133, -3.69684398174285890000e-001) (134, -6.06992840766906740000e-002) (135, -1.18956170976161960000e-001) (136, 2.48020216822624210000e-001) (137, -4.42764103412628170000e-001) (138, -3.85704398155212400000e-001) (139, 1.25349760055541990000e-001) (140, -1.30987703800201420000e-001) (141, 6.94360196590423580000e-001) (142, -2.32076510787010190000e-001) (143, 4.66937333345413210000e-001) (144, -6.17057740688323970000e-001) (145, 1.76283940672874450000e-001) (146, -2.84011512994766240000e-001) (147, 4.28860247135162350000e-001) (148, -3.69718879461288450000e-001) (149, -3.48964929580688480000e-001) (150, 7.03435465693473820000e-002) (151, 2.61488735675811770000e-001) (152, -1.87787592411041260000e-001) (153, 2.43980094790458680000e-001) (154, 8.08529034256935120000e-002) (155, 8.90788137912750240000e-001) (156, 1.65774896740913390000e-001) (157, 3.90168339014053340000e-001) (158, 7.82051742076873780000e-001) (159, -1.01250179111957550000e-001) (160, 3.79180274903774260000e-002) (161, 7.54938185214996340000e-001) (162, 6.50740146636962890000e-001) (163, -4.73735541105270390000e-001) (164, 4.28659647703170780000e-001) (165, 3.77621382474899290000e-001) (166, -7.86448419094085690000e-002) (167, 1.65882334113121030000e-003) (168, 6.93493902683258060000e-001) (169, 6.41759991645812990000e-001) (170, 2.40899085998535160000e-001) (171, 2.24943280220031740000e-001) (172, -1.91228568553924560000e-001) (173, -5.38226962089538570000e-001) (174, 1.33906811475753780000e-001) (175, 9.24895331263542180000e-002) (176, 8.40945661067962650000e-001) (177, -3.13507735729217530000e-001) (178, 6.82864189147949220000e-002) (179, -3.69177013635635380000e-002) (180, -4.58863377571105960000e-002) (181, 7.07424581050872800000e-001) (182, 2.62235403060913090000e-001) (183, -1.18232339620590210000e-001) (184, 1.43039971590042110000e-001) (185, -4.49223846197128300000e-001) (186, 1.01556666195392610000e-001) (187, -1.12731158733367920000e-001) (188, -3.69726181030273440000e-001) (189, 1.04133456945419310000e-001) (190, -6.55032927170395850000e-003) (191, -3.06404858827590940000e-001) (192, -2.83851504325866700000e-001) (193, -2.00312547385692600000e-002) (194, 3.17907005548477170000e-001) (195, -2.00646463781595230000e-002) (196, -1.97309598326683040000e-001) (197, -2.78602898120880130000e-001) (198, 2.90105193853378300000e-001) (199, 3.05262595415115360000e-001) (200, 3.55316996574401860000e-001) (201, -2.31836748123168950000e+000) (126, -6.99572265148162840000e-003) (127, -1.48150682449340820000e-001) (128, -1.16059553623199460000e+000) (129, -4.92261141538620000000e-001) (130, 1.01645305752754210000e-001) (131, -3.70726048946380620000e-001) (132, 5.23035347461700440000e-001) (133, 3.16595703363418580000e-001) (134, -9.00864303112030030000e-002) (135, 8.72152805328369140000e-001) (136, -1.69874548912048340000e-001) (137, 7.06494152545928960000e-001) (138, 9.32451128959655760000e-001) (139, 2.51951307058334350000e-001) (140, -1.83518067002296450000e-001) (141, 2.05082163214683530000e-001) (142, -3.56120586395263670000e-001) (143, 4.69708591699600220000e-001) (144, 6.81300103664398190000e-001) (145, -2.50825852155685420000e-001) (146, 6.23532533645629880000e-001) (147, 4.62843745946884160000e-001) (148, -5.87629973888397220000e-001) (149, -5.65619826316833500000e-001) (150, -2.58866280317306520000e-001) (151, -6.54580414295196530000e-001) (152, 1.42298102378845210000e-001) (153, -1.48201603442430500000e-002) (154, -6.90010096877813340000e-003) (155, -8.41645419597625730000e-001) (156, 8.27116727828979490000e-001) (157, 8.66013020277023320000e-002) (158, -1.43380975723266600000e+000) (159, -3.46327185630798340000e-001) (160, -2.14666545391082760000e-001) (161, -2.37438485026359560000e-001) (162, -2.08963483572006230000e-001) (163, 5.79414367675781250000e-001) (164, 6.24429821968078610000e-001) (165, -3.02392929792404170000e-001) (166, -1.50290578603744510000e-001) (167, 4.52669225633144380000e-002) (168, 1.43552506342530250000e-002) (169, -3.62345516681671140000e-001) (170, -6.60206258296966550000e-001) (171, 1.64161667227745060000e-001) (172, -7.03296303749084470000e-001) (173, 4.05913114547729490000e-001) (174, 6.71323597431182860000e-001) (175, -7.86308109760284420000e-001) (176, -2.80043452978134160000e-001) (177, 6.24241709709167480000e-001) (178, -4.36266630887985230000e-001) (179, 5.29593169689178470000e-001) (180, -1.17369897663593290000e-001) (181, -3.52060526609420780000e-001) (182, -3.82926493883132930000e-001) (183, 2.64873653650283810000e-001) (184, 7.34859585762023930000e-001) (185, -1.79931715130805970000e-001) (186, -2.51628667116165160000e-001) (187, 5.65837144851684570000e-001) (188, -6.54009103775024410000e-001) (189, 3.69162149727344510000e-002) (190, 5.15086126327514650000e+000) (191, 4.96546924114227290000e-001) (192, 6.47138893604278560000e-001) (193, 8.62656712532043460000e-001) (194, -3.50577068328857420000e+000) (195, 9.68439459800720210000e-001) (196, 2.22457337379455570000e+000) (197, 7.06324160099029540000e-001) (198, 1.14424097537994380000e+000) (199, -1.55776128172874450000e-001) (200, 6.62379741668701170000e-001) (201, -5.57355619966983800000e-002) (126, 2.01637998223304750000e-001) (127, 3.13277214765548710000e-001) (128, -2.45171025395393370000e-001) (129, 6.43308222293853760000e-001) (130, 4.52643543481826780000e-001) (131, 3.67712616920471190000e-001) (132, -1.94410815834999080000e-001) (133, -1.57879311591386800000e-002) (134, 9.93389964103698730000e-001) (135, -1.88279211521148680000e-001) (136, 1.54917764663696290000e+000) (137, 2.60581105947494510000e-001) (138, -2.70173996686935420000e-001) (139, 4.39953655004501340000e-001) (140, -3.97761128842830660000e-002) (141, -9.82638239860534670000e-001) (142, 3.50057095289230350000e-001) (143, -6.45385310053825380000e-002) (144, 2.83715635538101200000e-001) (145, 4.14607822895050050000e-001) (146, -3.28872382640838620000e-001) (147, -1.29274323582649230000e-001) (148, 2.39458326250314710000e-002) (149, -2.23081827163696290000e-001) (150, 8.71025681495666500000e-001) (151, 7.50156641006469730000e-002) (152, 4.08051550388336180000e-001) (153, -3.32418948411941530000e-001) (154, 5.18188118934631350000e-001) (155, -2.94749826192855830000e-001) (156, 3.61658066511154170000e-001) (157, 2.96383142471313480000e-001) (158, 4.49612975120544430000e-001) (159, -1.36801436543464660000e-001) (160, 6.42692863941192630000e-001) (161, -2.64325797557830810000e-001) (162, 1.09155070781707760000e+000) (163, -3.61728608608245850000e-001) (164, 3.57371211051940920000e-001) (165, 1.50084108114242550000e-001) (166, -2.08986386656761170000e-001) (167, 5.87930738925933840000e-001) (168, 7.09125578403472900000e-001) (169, -7.92079195380210880000e-002) (170, -3.11794932931661610000e-002) (171, -3.88232350349426270000e-001) (172, 9.47453901171684270000e-002) (173, 1.01585221290588380000e+000) (174, 4.52033936977386470000e-001) (175, -4.65518742799758910000e-001) (176, 1.45362958312034610000e-001) (177, -2.15303264558315280000e-002) (178, 2.60051637887954710000e-002) (179, -1.97981208562850950000e-001) (180, 7.80098676681518550000e-001) (181, -6.68865561485290530000e-001) (182, 4.21304315328598020000e-001) (183, -2.80041068792343140000e-001) (184, -2.29468867182731630000e-001) (185, 6.96508526802062990000e-001) (186, 3.86821985244750980000e-001) (187, 6.85209408402442930000e-002) (188, -1.61597967147827150000e-001) (189, -1.48087501525878910000e-001) (190, -5.70380836725234990000e-002) (191, 1.28288239240646360000e-001) (192, 2.19815835356712340000e-001) (193, 7.73486077785491940000e-001) (194, 6.08219683170318600000e-001) (195, -2.44592338800430300000e-001) (196, -1.24779678881168370000e-001) (197, -3.24529744684696200000e-002) (198, -4.64484542608261110000e-001) (199, 2.30415940284729000000e+000) (200, 2.74644970893859860000e-001) (201, 2.12392508983612060000e-001) (126, 1.18720507621765140000e+000) (127, 5.53167343139648440000e-001) (128, 7.12887763977050780000e-001) (129, -2.68659949302673340000e-001) (130, 7.19523727893829350000e-001) (131, -1.52301132678985600000e-001) (132, 1.19019031524658200000e+000) (133, 7.19179391860961910000e-001) (134, 9.68681335449218750000e-001) (135, 5.29249250888824460000e-001) (136, -1.61805555224418640000e-001) (137, -4.88709807395935060000e-001) (138, 1.36841177940368650000e+000) (139, 3.72620369307696820000e-003) (140, -6.55694127082824710000e-001) (141, 4.83772873878479000000e-001) (142, 9.07337572425603870000e-003) (143, 7.22852885723114010000e-001) (144, 9.67613995075225830000e-001) (145, 1.68579503893852230000e-001) (146, 6.59081280231475830000e-001) (147, 3.80325049161911010000e-001) (148, 4.81719672679901120000e-001) (149, 1.98161929845809940000e-001) (150, -2.71499335765838620000e-001) (151, -1.11326172947883610000e-001) (152, 9.20539498329162600000e-001) (153, 7.51199841499328610000e-001) (154, -4.71059441566467290000e-001) (155, 1.34077882766723630000e+000) (156, 3.26884865760803220000e-001) (157, 6.26223441213369370000e-003) (158, -3.70741188526153560000e-001) (159, 4.72958356142044070000e-001) (160, -2.14154660701751710000e-001) (161, 1.92763373255729680000e-001) (162, 1.10585309565067290000e-001) (163, 8.30211281776428220000e-001) (164, 1.28372028470039370000e-001) (165, -1.29435360431671140000e-001) (166, 4.27258193492889400000e-001) (167, 4.34292227029800420000e-001) (168, 2.41464704275131230000e-001) (169, -5.55113136768341060000e-001) (170, 2.61754393577575680000e-001) (171, 2.49881863594055180000e-001) (172, 1.55962908267974850000e+000) (173, 4.94606532156467440000e-002) (174, -1.21339477598667140000e-001) (175, 1.76470130681991580000e-001) (176, -7.60231465101242070000e-002) (177, 3.79045367240905760000e-001) (178, 6.15104794502258300000e-001) (179, 3.07099997997283940000e-001) (180, -7.48016610741615300000e-002) (181, -3.97849753499031070000e-002) (182, -9.76495265960693360000e-001) (183, 7.09058701992034910000e-001) (184, 1.14853727817535400000e+000) (185, 6.47677183151245120000e-001) (186, -3.61860133707523350000e-002) (187, 6.40774786472320560000e-001) (188, 2.22896486520767210000e-001) (189, 3.51171046495437620000e-002) (190, 1.00215196609497070000e+000) (191, 1.35788869857788090000e+000) (192, 8.36308956146240230000e-001) (193, -1.11093126237392430000e-001) (194, -2.32089087367057800000e-001) (195, 1.05523765087127690000e+000) (196, 7.94427692890167240000e-001) (197, 4.71094191074371340000e-001) (198, 1.33154407143592830000e-001) (199, 7.73855522274971010000e-002) (200, -8.59963238239288330000e-001) (201, 1.08806586265563960000e+000) (126, -8.19481194019317630000e-001) (127, 4.13244396448135380000e-001) (128, -1.71127989888191220000e-001) (129, 1.43575638532638550000e-001) (130, 3.56718480587005620000e-001) (131, 3.54438386857509610000e-002) (132, 1.00644910335540770000e+000) (133, 2.81287789344787600000e-001) (134, 2.55553394556045530000e-001) (135, 8.33274275064468380000e-002) (136, 1.04267048835754390000e+000) (137, 9.28627252578735350000e-001) (138, 8.73953402042388920000e-002) (139, 1.78129687905311580000e-001) (140, -1.42956435680389400000e-001) (141, 4.24716234207153320000e-001) (142, 6.72885537147521970000e-001) (143, -2.27518528699874880000e-001) (144, 8.24641138315200810000e-002) (145, 1.13912686705589290000e-001) (146, -5.50950691103935240000e-002) (147, -1.74296926707029340000e-002) (148, 1.25767618417739870000e-001) (149, -6.45032757893204690000e-003) (150, 1.98242008686065670000e-001) (151, 1.45790979266166690000e-001) (152, 3.88843119144439700000e-001) (153, 1.79652515798807140000e-002) (154, 4.54381704330444340000e-001) (155, -3.79426628351211550000e-001) (156, 6.94983363151550290000e-001) (157, 8.66089314222335820000e-002) (158, 6.13173902034759520000e-001) (159, -1.90081134438514710000e-001) (160, 3.22931349277496340000e-001) (161, -1.21591198444366460000e+000) (162, 1.18654221296310420000e-001) (163, 1.16415403783321380000e-001) (164, -6.91779330372810360000e-003) (165, 2.20706835389137270000e-001) (166, -4.89241153001785280000e-001) (167, 1.56567081809043880000e-001) (168, -1.67491555213928220000e-001) (169, -5.29934406280517580000e-001) (170, 1.85707714408636090000e-002) (171, -4.75729197263717650000e-001) (172, 4.08144205808639530000e-001) (173, 4.37843352556228640000e-001) (174, -1.22972376644611360000e-001) (175, 3.04855164140462880000e-002) (176, 3.17490786314010620000e-001) (177, 2.32298940420150760000e-001) (178, -3.27703535556793210000e-001) (179, -1.08628951013088230000e-001) (180, -1.29477858543396000000e-001) (181, -8.13949286937713620000e-001) (182, 2.32855036854743960000e-001) (183, 2.22919777035713200000e-001) (184, -1.70815542340278630000e-001) (185, 3.01563948392868040000e-001) (186, -5.28281107544898990000e-002) (187, 3.12142610549926760000e-001) (188, 2.68712133169174190000e-001) (189, 3.72822694480419160000e-002) (190, 1.48295825347304340000e-002) (191, 5.61009645462036130000e-001) (192, 3.25632870197296140000e-001) (193, 1.04533284902572630000e-001) (194, 4.14904654026031490000e-001) (195, 6.14923834800720210000e-001) (196, -5.69569528102874760000e-001) (197, 1.90445333719253540000e-001) (198, 2.09510371088981630000e-001) (199, 1.44486045837402340000e+000) (200, -2.69450396299362180000e-001) (201, -4.16223257780075070000e-001) (126, 3.38730990886688230000e-001) (127, 4.66768920421600340000e-001) (128, 1.75858056545257570000e+000) (129, -7.20197185873985290000e-002) (130, 3.56180787086486820000e-001) (131, -1.32645368576049800000e-001) (132, 4.25574630498886110000e-001) (133, 2.85788744688034060000e-001) (134, 4.96969282627105710000e-001) (135, 3.85132580995559690000e-001) (136, 3.26708436012268070000e-001) (137, 5.24299681186676030000e-001) (138, -2.88924872875213620000e-001) (139, 1.90101015567779540000e+000) (140, 7.82170236110687260000e-001) (141, 1.14863002300262450000e+000) (142, -4.55585271120071410000e-002) (143, 8.41491758823394780000e-001) (144, 2.72181361913681030000e-001) (145, 1.56502842903137210000e-001) (146, 7.28709995746612550000e-001) (147, 8.76258015632629390000e-001) (148, 5.21656095981597900000e-001) (149, 1.53253614902496340000e+000) (150, 6.98793768882751460000e-001) (151, 2.52248191833496090000e+000) (152, 3.19230183959007260000e-002) (153, 8.39712798595428470000e-001) (154, -1.21272169053554530000e-001) (155, 6.81199491024017330000e-001) (156, -1.90764427185058590000e-001) (157, 9.70496118068695070000e-001) (158, 5.24417459964752200000e-001) (159, 9.46404039859771730000e-001) (160, 1.82077482342720030000e-001) (161, 5.63050210475921630000e-001) (162, 2.02718935906887050000e-002) (163, -1.38034474849700930000e+000) (164, 8.71769189834594730000e-001) (165, 1.16223561763763430000e+000) (166, 4.17418144643306730000e-002) (167, -2.07061190158128740000e-002) (168, -2.15654388070106510000e-001) (169, 6.68681621551513670000e-001) (170, 8.12680125236511230000e-001) (171, 5.56016743183135990000e-001) (172, -4.99172955751419070000e-002) (173, 1.77297323942184450000e-001) (174, 2.31027737259864810000e-001) (175, 7.87672638893127440000e-001) (176, 7.78841078281402590000e-001) (177, 7.39942342042922970000e-002) (178, 9.47280824184417720000e-001) (179, -4.18830364942550660000e-001) (180, -1.37408807873725890000e-001) (181, 7.61588454246521000000e-001) (182, 5.87243318557739260000e-001) (183, 6.03630602359771730000e-001) (184, 2.86541521549224850000e-001) (185, 4.10531342029571530000e-001) (186, 1.58013224601745610000e+000) (187, 3.76167327165603640000e-001) (188, 1.79768174886703490000e-001) (189, 3.59895259141922000000e-001) (190, 3.95309597253799440000e-001) (191, 5.06881833076477050000e-001) (192, 2.88965642452239990000e-001) (193, 7.75159478187561040000e-001) (194, -2.63671800494194030000e-002) (195, 5.60809485614299770000e-002) (196, 3.21498662233352660000e-001) (197, 8.92929017543792720000e-001) (198, -3.08569550514221190000e-001) (199, 2.24139735102653500000e-001) (200, -1.95577055215835570000e-001) (201, 6.52454078197479250000e-001) (126, 1.48896753787994380000e+000) (127, -2.22779393196105960000e-001) (128, 3.23270469903945920000e-001) (129, 2.26138904690742490000e-001) (130, 1.08122992515563960000e+000) (131, 1.92892216145992280000e-002) (132, 1.01101553440093990000e+000) (133, 3.22262555360794070000e-001) (134, 2.88129150867462160000e-001) (135, 1.38129353523254390000e+000) (136, 2.11304783821105960000e-001) (137, 8.06970000267028810000e-001) (138, 6.07375651597976680000e-002) (139, -1.87640368938446040000e-001) (140, 1.49003624916076660000e+000) (141, 1.13604307174682620000e+000) (142, -4.08685833215713500000e-001) (143, 8.19871544837951660000e-001) (144, -2.09824293851852420000e-002) (145, 7.13907837867736820000e-001) (146, 8.35061550140380860000e-001) (147, -5.59744060039520260000e-001) (148, 4.17157411575317380000e-001) (149, 1.16651880741119380000e+000) (150, 7.73200750350952150000e-001) (151, 1.39731490612030030000e+000) (152, 3.91435474157333370000e-001) (153, 1.57418936491012570000e-001) (154, -7.90958523750305180000e-001) (155, 5.08699059486389160000e-001) (156, 8.26269462704658510000e-002) (157, 3.63221108913421630000e-001) (158, 7.42110431194305420000e-001) (159, 7.87333250045776370000e-001) (160, 4.98869240283966060000e-001) (161, 1.18272319436073300000e-001) (162, 1.23546719551086430000e-001) (163, -9.29465293884277340000e-001) (164, -5.76010271906852720000e-002) (165, 2.58119672536849980000e-001) (166, 1.18892049789428710000e+000) (167, 1.68204927444458010000e+000) (168, 8.04489031434059140000e-002) (169, 1.20626963675022130000e-001) (170, 2.42442697286605830000e-001) (171, 1.17322158813476560000e+000) (172, 7.95215666294097900000e-001) (173, 7.60779321193695070000e-001) (174, 1.38702854514122010000e-001) (175, 1.29750335216522220000e+000) (176, 5.58604858815670010000e-002) (177, -7.34634280204772950000e-001) (178, 3.88586908578872680000e-001) (179, -4.60139274597167970000e-001) (180, 1.00479006767272950000e+000) (181, -6.41919553279876710000e-001) (182, 1.64832937717437740000e+000) (183, 2.12112739682197570000e-001) (184, 8.14050287008285520000e-002) (185, 9.06650066375732420000e-001) (186, 1.74315583705902100000e+000) (187, 6.04700148105621340000e-001) (188, 6.09945833683013920000e-001) (189, 8.95763754844665530000e-001) (190, -5.14417946338653560000e-001) (191, 1.66542184352874760000e+000) (192, 3.21141064167022710000e-001) (193, 5.70576608180999760000e-001) (194, -2.32272464781999590000e-002) (195, 1.19635105133056640000e+000) (196, 1.32033920288085940000e+000) (197, 9.38635051250457760000e-001) (198, 5.07074654102325440000e-001) (199, -1.34976446628570560000e-001) (200, -8.47265481948852540000e-001) (201, -1.01625862121582030000e+001) (126, 1.86309230327606200000e+000) (127, 8.84644165635108950000e-002) (128, 1.32033038139343260000e+000) (129, 7.25423634052276610000e-001) (130, 4.34942394495010380000e-001) (131, 2.25182190537452700000e-001) (132, 9.24297720193862920000e-002) (133, 4.11887496709823610000e-001) (134, 3.43715161085128780000e-001) (135, -3.11683058738708500000e-001) (136, 1.43527790904045100000e-001) (137, 6.27135753631591800000e-001) (138, 4.59341406822204590000e-001) (139, -2.23431870341300960000e-001) (140, 4.81060028076171880000e-001) (141, 8.27662646770477290000e-001) (142, -4.04007256031036380000e-001) (143, -5.56258440017700200000e-001) (144, 3.36271166801452640000e-001) (145, 6.12659752368927000000e-001) (146, 4.60890419781208040000e-002) (147, -1.67955148220062260000e+000) (148, 1.01837241649627690000e+000) (149, 2.13173642754554750000e-001) (150, 8.98984372615814210000e-002) (151, 1.82677596807479860000e-001) (152, 3.69365274906158450000e-001) (153, 6.81813955307006840000e-001) (154, -1.98895558714866640000e-001) (155, -1.13457396626472470000e-001) (156, -9.80898663401603700000e-002) (157, -4.64078068733215330000e-001) (158, 8.23867261409759520000e-001) (159, 1.43819344043731690000e+000) (160, 2.12618738412857060000e-001) (161, -4.70383167266845700000e-002) (162, 8.74315500259399410000e-002) (163, -1.59145087003707890000e-001) (164, -3.33558350801467900000e-001) (165, -8.04214239120483400000e-001) (166, 6.91023647785186770000e-001) (167, 6.22752428054809570000e-001) (168, -5.00642247498035430000e-002) (169, -8.49436163902282710000e-001) (170, -8.76385793089866640000e-002) (171, -1.08126148581504820000e-001) (172, 6.94550335407257080000e-001) (173, -1.08727747574448590000e-002) (174, 1.45584508776664730000e-001) (175, 7.03155219554901120000e-001) (176, 1.77828729152679440000e-001) (177, 2.46661249548196790000e-002) (178, -1.15658141672611240000e-001) (179, -7.84042775630950930000e-001) (180, 8.36962461471557620000e-002) (181, 5.49886608496308330000e-003) (182, -5.84190972149372100000e-002) (183, 1.58332574367523190000e+000) (184, -1.07471954822540280000e+000) (185, 7.16363608837127690000e-001) (186, -5.19260227680206300000e-001) (187, 1.54500484466552730000e-001) (188, 8.65499377250671390000e-001) (189, 3.94973494112491610000e-002) (190, -5.17389202117919920000e+000) (191, 8.23817312717437740000e-001) (192, 3.83981615304946900000e-001) (193, 1.73144727945327760000e-001) (194, 3.92413878440856930000e+000) (195, 6.11570119857788090000e-001) (196, -3.09085398912429810000e-001) (197, 7.24291563034057620000e-001) (198, -6.85646295547485350000e-001) (199, 1.02736420929431920000e-001) (200, -7.55868196487426760000e-001) (201, 5.09129047393798830000e-001) (126, -1.07633315026760100000e-001) (127, -6.12865149974823000000e-001) (128, -8.64406898617744450000e-002) (129, -2.29491412639617920000e-001) (130, 1.01950421929359440000e-001) (131, 2.12857514619827270000e-001) (132, 1.54617026448249820000e-001) (133, 8.36456716060638430000e-002) (134, -1.72502422332763670000e+000) (135, 5.35560667514801030000e-001) (136, -5.39145469665527340000e+000) (137, -1.89589187502861020000e-001) (138, 3.44114899635314940000e-002) (139, -3.99592369794845580000e-001) (140, 2.85715192556381230000e-001) (141, 4.05858270823955540000e-004) (142, -4.73231822252273560000e-001) (143, -2.11230069398880000000e-001) (144, 6.96168065071105960000e-001) (145, -2.65816688537597660000e+000) (146, 1.12395238876342770000e+000) (147, 7.44601309299468990000e-001) (148, -5.42529284954071040000e-001) (149, -1.76543384790420530000e-001) (150, -1.02515923976898190000e+000) (151, -5.17771005630493160000e-001) (152, 5.86144328117370610000e-001) (153, 3.55149358510971070000e-001) (154, -5.39214670658111570000e-001) (155, -1.04380369186401370000e-001) (156, -4.27574634552001950000e-001) (157, -6.32568657398223880000e-001) (158, -9.78494167327880860000e-001) (159, -1.05483815073966980000e-001) (160, -1.57881724834442140000e+000) (161, -3.92004191875457760000e-001) (162, -1.20879685878753660000e+000) (163, 4.56990540027618410000e-001) (164, 2.56881535053253170000e-001) (165, -1.10271126031875610000e-002) (166, 1.46834170818328860000e+000) (167, 6.34055197238922120000e-001) (168, -1.59149706363677980000e+000) (169, 9.43961977958679200000e-001) (170, -4.06380295753479000000e-002) (171, 7.49401926994323730000e-001) (172, 3.88626337051391600000e-001) (173, 3.59941363334655760000e-001) (174, 2.77279555797576900000e-001) (175, 7.51914739608764650000e-001) (176, -3.42733561992645260000e-001) (177, 4.52366083860397340000e-001) (178, 7.22304701805114750000e-001) (179, 4.22257572412490840000e-001) (180, -1.49098085239529610000e-002) (181, -4.98376876115798950000e-001) (182, -1.89373350143432620000e+000) (183, 1.66073095798492430000e+000) (184, 8.40025126934051510000e-001) (185, -2.55382865667343140000e-001) (186, -2.47214853763580320000e-001) (187, 7.93043255805969240000e-001) (188, 3.68262588977813720000e-001) (189, -8.95987629890441890000e-001) (190, -1.27411976456642150000e-001) (191, -1.42876282334327700000e-001) (192, 9.37987506389617920000e-001) (193, -5.25576829910278320000e-001) (194, -1.28007844090461730000e-001) (195, -7.70901739597320560000e-001) (196, 1.12797427177429200000e+000) (197, 4.02865350246429440000e-001) (198, -2.56242811679840090000e-001) (199, -4.84464883804321290000e+000) (200, 1.90004929900169370000e-001) (201, 2.82531231641769410000e-001) (126, 7.96206414699554440000e-001) (127, -1.14023077487945560000e+000) (128, 2.18338415026664730000e-001) (129, -6.17823861539363860000e-002) (130, -3.05230706930160520000e-001) (131, -5.24457454681396480000e-001) (132, 6.27261638641357420000e-001) (133, -2.23219648003578190000e-001) (134, -1.53404259681701660000e+000) (135, 3.87090623378753660000e-001) (136, -9.06110644340515140000e-001) (137, 1.03127084672451020000e-001) (138, 4.06193524599075320000e-001) (139, -4.15433287620544430000e-001) (140, -2.73513138294219970000e-001) (141, 4.05142456293106080000e-001) (142, -2.27760031819343570000e-001) (143, 6.73582315444946290000e-001) (144, -4.56736564636230470000e-001) (145, -1.08990401029586790000e-001) (146, 3.90589445829391480000e-001) (147, 3.71162950992584230000e-001) (148, 5.10564804077148440000e-001) (149, 1.09157443046569820000e-001) (150, -3.94659638404846190000e-002) (151, 1.01576216518878940000e-001) (152, -5.19052445888519290000e-001) (153, -2.68270164728164670000e-001) (154, 1.06010034680366520000e-001) (155, 1.16323566436767580000e+000) (156, -2.85710841417312620000e-001) (157, -5.89385032653808590000e-001) (158, -9.62559580802917480000e-001) (159, -1.09378555789589880000e-002) (160, -5.89091122150421140000e-001) (161, 3.22437703609466550000e-001) (162, -1.12697768211364750000e+000) (163, 3.60289901494979860000e-001) (164, -1.99158698320388790000e-001) (165, -4.19672697782516480000e-001) (166, 4.43626374006271360000e-001) (167, 1.57092884182929990000e-001) (168, -9.33009684085845950000e-001) (169, 1.44341140985488890000e-001) (170, 2.62913852930068970000e-001) (171, 3.71765941381454470000e-001) (172, 4.44967895746231080000e-001) (173, -7.46338427066802980000e-001) (174, -4.51705098152160640000e-001) (175, 7.40161895751953130000e-001) (176, 8.61122310161590580000e-002) (177, 3.66979807615280150000e-001) (178, -9.92428436875343320000e-002) (179, 2.52489745616912840000e-001) (180, -2.53828316926956180000e-001) (181, 4.70512628555297850000e-001) (182, -3.99668991565704350000e-001) (183, 3.58406662940979000000e-001) (184, 2.27838441729545590000e-001) (185, -3.12504947185516360000e-001) (186, -4.56754982471466060000e-001) (187, 4.17540594935417180000e-002) (188, 3.87396812438964840000e-001) (189, 3.64084094762802120000e-001) (190, 4.52814340591430660000e-001) (191, 6.36069953441619870000e-001) (192, -6.93445920944213870000e-001) (193, -3.07796061038970950000e-001) (194, -6.22156858444213870000e-002) (195, 3.91228497028350830000e-001) (196, 3.64618211984634400000e-001) (197, 5.37146963179111480000e-002) (198, 5.83668172359466550000e-001) (199, -1.12670278549194340000e+000) (200, -9.62118268013000490000e-001) (201, 4.22894150018692020000e-001) (126, 6.24433815479278560000e-001) (127, -3.59624528884887700000e+000) (128, 3.18071842193603520000e-001) (129, -2.50737607479095460000e-001) (130, -3.29046361148357390000e-002) (131, -4.06089097261428830000e-001) (132, 1.36813312768936160000e-001) (133, 2.17420309782028200000e-001) (134, -5.74737489223480220000e-001) (135, -8.56928974390029910000e-002) (136, -2.29653906822204590000e+000) (137, -8.11786890029907230000e-001) (138, 4.06070321798324580000e-001) (139, -5.76018035411834720000e-001) (140, 1.72004908323287960000e-001) (141, 4.43890839815139770000e-001) (142, 1.65320727974176410000e-002) (143, 4.99402374029159550000e-001) (144, -7.30333030223846440000e-001) (145, -5.70027768611907960000e-001) (146, -1.88329204916954040000e-001) (147, 4.58936423063278200000e-001) (148, 5.10438919067382810000e-001) (149, 3.04424971342086790000e-001) (150, -3.10511648654937740000e-001) (151, -1.70639410614967350000e-001) (152, 2.31554344296455380000e-001) (153, 3.59450161457061770000e-001) (154, -2.76813209056854250000e-001) (155, 5.74480831623077390000e-001) (156, 1.56250342726707460000e-001) (157, -7.07721054553985600000e-001) (158, -1.16216957569122310000e+000) (159, 3.43124598264694210000e-001) (160, -4.26512986421585080000e-001) (161, 2.12766385078430180000e+000) (162, -1.52950835227966310000e+000) (163, 3.28306972980499270000e-001) (164, -6.84700980782508850000e-002) (165, -1.56970955431461330000e-002) (166, 2.78755962848663330000e-001) (167, 6.77141785621643070000e-001) (168, -1.04623854160308840000e+000) (169, 5.79683542251586910000e-001) (170, 8.57507467269897460000e-001) (171, 3.97708684206008910000e-001) (172, 8.57662856578826900000e-001) (173, 2.04217582941055300000e-002) (174, -3.26531112194061280000e-001) (175, 5.05211412906646730000e-001) (176, -3.15275639295578000000e-001) (177, -3.82007881999015810000e-002) (178, 5.27891159057617190000e-001) (179, 4.61539208889007570000e-001) (180, -4.77683544158935550000e-001) (181, 6.20706714689731600000e-002) (182, 4.70661744475364690000e-002) (183, 5.78189194202423100000e-001) (184, 4.31372463703155520000e-001) (185, 1.72017619013786320000e-001) (186, -4.14686948060989380000e-001) (187, 7.46765255928039550000e-001) (188, 5.25711953639984130000e-001) (189, 2.00303658843040470000e-001) (190, 3.60694527626037600000e-001) (191, 7.25488960742950440000e-001) (192, -2.15400189161300660000e-001) (193, -3.94375681877136230000e-001) (194, 7.91973695158958440000e-002) (195, 1.95156663656234740000e-001) (196, 7.69438147544860840000e-002) (197, 4.77256178855896000000e-001) (198, -1.29737099632620810000e-002) (199, -1.37247216701507570000e+000) (200, -3.34997832775115970000e-001) (201, 2.96062946319580080000e-001) (126, -1.35663890838623050000e+000) (127, -3.60900878906250000000e+000) (128, 5.15784740447998050000e-001) (129, -4.99724224209785460000e-002) (130, -6.72429382801055910000e-001) (131, -5.24262726306915280000e-001) (132, -4.31845225393772130000e-002) (133, -5.48789560794830320000e-001) (134, 1.15605771541595460000e-001) (135, 6.52200400829315190000e-001) (136, -1.00513011217117310000e-001) (137, -2.36899048089981080000e-001) (138, -2.39352986216545100000e-001) (139, 1.56421184539794920000e-001) (140, 4.21656191349029540000e-001) (141, -6.51156604290008540000e-001) (142, -4.57071006298065190000e-001) (143, 4.25695627927780150000e-001) (144, -2.94956028461456300000e-001) (145, -5.05978539586067200000e-002) (146, 4.42640751600265500000e-001) (147, 3.91974091529846190000e-001) (148, 5.50823509693145750000e-001) (149, 8.10348033905029300000e-001) (150, 8.64323854446411130000e-001) (151, 2.98406869173049930000e-001) (152, -1.51446092128753660000e+000) (153, 6.48607611656188960000e-001) (154, -2.59593665599823000000e-001) (155, 4.22103166580200200000e-001) (156, -3.72603088617324830000e-001) (157, 3.75380814075469970000e-001) (158, -5.20592741668224330000e-002) (159, 5.48882544040679930000e-001) (160, -1.25880002975463870000e-001) (161, 1.00556933879852290000e+000) (162, -1.44107574597001080000e-002) (163, 5.37475109100341800000e-001) (164, 4.73188936710357670000e-001) (165, -5.52614688873291020000e-001) (166, 1.00765550136566160000e+000) (167, -1.41228586435317990000e-001) (168, 1.63159787654876710000e-001) (169, 3.23567897081375120000e-001) (170, 4.44642513990402220000e-001) (171, 3.47448825836181640000e-001) (172, -6.49372115731239320000e-002) (173, -5.41642084717750550000e-002) (174, -3.54438036680221560000e-001) (175, 8.38999211788177490000e-001) (176, 6.05492949485778810000e-001) (177, -4.85076457262039180000e-001) (178, 6.61488056182861330000e-001) (179, -3.47193449735641480000e-001) (180, 1.10309027135372160000e-001) (181, 6.74125730991363530000e-001) (182, 3.45046132802963260000e-001) (183, 5.05722880363464360000e-001) (184, 2.48495593667030330000e-001) (185, -1.71267330646514890000e-001) (186, 6.62275910377502440000e-001) (187, -6.24836862087249760000e-001) (188, 4.20996874570846560000e-001) (189, 3.92949551343917850000e-001) (190, 4.14555311203002930000e-001) (191, -7.08381712436676030000e-001) (192, -2.09618240594863890000e-001) (193, 5.74005126953125000000e-001) (194, -4.22061502933502200000e-001) (195, 8.41616913676261900000e-002) (196, 5.34202484413981440000e-003) (197, 1.87619999051094060000e-001) (198, 3.54371219873428340000e-001) (199, -3.41619062423706050000e+000) (200, 5.05945086479187010000e-002) (201, 1.01137971878051760000e+000) (126, 5.85777401924133300000e-001) (127, 1.91495567560195920000e-001) (128, 2.61912308633327480000e-002) (129, 1.18881368637084960000e+000) (130, 6.08698055148124690000e-002) (131, 4.83272790908813480000e-001) (132, -5.55928945541381840000e-001) (133, -3.40699613094329830000e-001) (134, 9.73831355571746830000e-001) (135, 4.99556183815002440000e-001) (136, 1.08691346645355220000e+000) (137, 8.88896226882934570000e-001) (138, 2.76363968849182130000e-001) (139, 4.02790784835815430000e-001) (140, -2.44154483079910280000e-001) (141, -1.04835307598114010000e+000) (142, 4.71675813198089600000e-001) (143, 2.04691633582115170000e-001) (144, -2.42741763591766360000e-001) (145, 1.19088304042816160000e+000) (146, 8.30378770828247070000e-001) (147, 3.73929023742675780000e-001) (148, -1.17737144231796260000e-001) (149, 5.87196648120880130000e-001) (150, 1.09578192234039310000e+000) (151, 5.42923212051391600000e-001) (152, 5.24419546127319340000e-003) (153, -8.10986578464508060000e-001) (154, 3.52035671472549440000e-001) (155, 7.24780619144439700000e-001) (156, 4.15944248437881470000e-001) (157, 1.27607858180999760000e+000) (158, 1.05100715160369870000e+000) (159, 2.70251035690307620000e-001) (160, 1.08373963832855220000e+000) (161, -4.76419568061828610000e-001) (162, 2.36964535713195800000e+000) (163, 4.83364462852478030000e-002) (164, 4.96632158756256100000e-001) (165, 9.50973391532897950000e-001) (166, 4.33178991079330440000e-001) (167, 8.45005571842193600000e-001) (168, 3.27511525154113770000e+000) (169, 4.05409544706344600000e-001) (170, 1.94025546312332150000e-001) (171, -3.69634121656417850000e-001) (172, 1.60606116056442260000e-001) (173, 4.66627590358257290000e-002) (174, 2.56119221448898320000e-001) (175, 5.44576942920684810000e-001) (176, 1.64451456069946290000e+000) (177, -4.64850127696990970000e-001) (178, 7.38890886306762700000e-001) (179, -1.47556364536285400000e-001) (180, 1.83291554450988770000e+000) (181, 1.27363309264183040000e-001) (182, 1.45966243743896480000e+000) (183, 2.49067559838294980000e-001) (184, 2.10868790745735170000e-001) (185, -1.17279812693595890000e-002) (186, 6.56092703342437740000e-001) (187, 4.83114689588546750000e-001) (188, 2.60575473308563230000e-001) (189, 7.92495757341384890000e-002) (190, 4.93398427963256840000e-001) (191, -2.13197797536849980000e-001) (192, 1.79603144526481630000e-001) (193, 1.04153478145599370000e+000) (194, 1.13093880936503410000e-002) (195, 6.57588362693786620000e-001) (196, -2.40791469812393190000e-001) (197, 7.36389279365539550000e-001) (198, 3.59706073999404910000e-001) (199, 1.90026581287384030000e+000) (200, 5.69320380687713620000e-001) (201, 1.17690944671630860000e+000) (126, -1.95206916332244870000e+000) (127, 6.55834004282951350000e-002) (128, -2.69022750854492190000e+000) (129, -4.25816982984542850000e-001) (130, 3.51181536912918090000e-001) (131, -1.22675776481628420000e+000) (132, 7.65822589397430420000e-001) (133, -7.62597799301147460000e-001) (134, -2.73510605096817020000e-001) (135, 3.32219570875167850000e-001) (136, -3.38354557752609250000e-001) (137, -8.92809569835662840000e-001) (138, 4.46233421564102170000e-001) (139, -9.14535671472549440000e-002) (140, 2.35502406954765320000e-001) (141, -1.26027798652648930000e+000) (142, 1.59199580550193790000e-001) (143, 1.26655817031860350000e+000) (144, -1.27429342269897460000e+000) (145, 6.26341551542282100000e-002) (146, 3.70895683765411380000e-001) (147, -1.93298071622848510000e-001) (148, 9.48424696922302250000e-001) (149, 5.29768645763397220000e-001) (150, -2.06776425242424010000e-001) (151, -1.09962630271911620000e+000) (152, 9.04714286327362060000e-001) (153, -5.89891970157623290000e-001) (154, -6.50655627250671390000e-001) (155, 2.91197204589843750000e+000) (156, 1.15133896470069890000e-001) (157, -1.53580918908119200000e-001) (158, -1.47849583625793460000e+000) (159, -3.40109020471572880000e-001) (160, -6.35334178805351260000e-002) (161, 5.91269969940185550000e-001) (162, -2.71210610866546630000e-001) (163, -6.58810213208198550000e-002) (164, -1.37545660138130190000e-001) (165, 4.54273074865341190000e-001) (166, -1.74013406038284300000e-001) (167, 3.41827541589736940000e-001) (168, 1.53238582611083980000e+000) (169, 8.93407344818115230000e-001) (170, 1.21203638613224030000e-001) (171, 1.66423749923706050000e+000) (172, 3.71442914009094240000e-001) (173, 2.27054208517074580000e-001) (174, -6.52525782585144040000e-001) (175, 9.25079733133316040000e-002) (176, 8.84932950139045720000e-002) (177, 4.31984782218933110000e-001) (178, -3.56835350394248960000e-002) (179, -3.62138897180557250000e-001) (180, -2.74824146181344990000e-002) (181, 3.66992831230163570000e-001) (182, 1.72654259204864500000e+000) (183, 1.16288876533508300000e+000) (184, 5.73530614376068120000e-001) (185, 5.98363220691680910000e-001) (186, 7.74684846401214600000e-001) (187, 2.75141835212707520000e+000) (188, -4.83647704124450680000e-001) (189, 2.93519926071166990000e+000) (190, 1.36354792118072510000e+000) (191, 1.30977654457092290000e+000) (192, 1.29968374967575070000e-001) (193, -6.01694732904434200000e-002) (194, 5.04094623029232030000e-002) (195, 6.12680077552795410000e-001) (196, 1.80917215347290040000e+000) (197, -3.57938468456268310000e-001) (198, 1.28134620189666750000e+000) (199, 6.65589720010757450000e-002) (200, 7.88422226905822750000e-001) (201, 3.26236891746521000000e+000) (126, -1.11974263191223140000e+000) (127, -7.84454941749572750000e-002) (128, -1.11583483219146730000e+000) (129, -4.99026894569396970000e-001) (130, -5.06614670157432560000e-002) (131, 1.04338693618774410000e+000) (132, 5.72139501571655270000e-001) (133, 4.27196353673934940000e-001) (134, -3.04822504520416260000e-001) (135, 1.04222667217254640000e+000) (136, -1.44201964139938350000e-001) (137, -5.94111643731594090000e-002) (138, 8.01701307296752930000e-001) (139, 2.61009007692337040000e-001) (140, -8.98443222045898440000e-001) (141, -8.18274259567260740000e-001) (142, -2.20032081007957460000e-001) (143, 2.05413848161697390000e-001) (144, 8.04954707622528080000e-001) (145, 3.80302339792251590000e-001) (146, 9.26568284630775450000e-002) (147, 1.41063249111175540000e+000) (148, -1.22949135303497310000e+000) (149, -7.34520316123962400000e-001) (150, -1.69841244816780090000e-001) (151, -9.24895823001861570000e-001) (152, 5.57365119457244870000e-001) (153, 9.26848411560058590000e-001) (154, 5.74542105197906490000e-001) (155, -4.62375700473785400000e-001) (156, 5.43757140636444090000e-001) (157, 1.44169151782989500000e-001) (158, -5.88828742504119870000e-001) (159, -1.23614990711212160000e+000) (160, -1.50262862443923950000e-001) (161, -5.88180780410766600000e-001) (162, -2.22558110952377320000e-001) (163, 1.12802648544311520000e+000) (164, 1.05546283721923830000e+000) (165, 4.76063322275877000000e-003) (166, 9.65181663632392880000e-002) (167, 6.35604113340377810000e-002) (168, -8.81515443325042720000e-001) (169, -1.96039587259292600000e-001) (170, -7.16421008110046390000e-001) (171, 2.22634971141815190000e-001) (172, -5.31751513481140140000e-001) (173, 4.29179787635803220000e-001) (174, 6.03254258632659910000e-001) (175, -9.86755251884460450000e-001) (176, -1.67913615703582760000e-001) (177, 5.84733366966247560000e-001) (178, -2.74147927761077880000e-001) (179, 1.33471202850341800000e+000) (180, -2.02534005045890810000e-001) (181, -1.14737546443939210000e+000) (182, -8.48955690860748290000e-001) (183, -1.62345111370086670000e+000) (184, 1.03715252876281740000e+000) (185, -8.93676429986953740000e-002) (186, -1.28170922398567200000e-001) (187, 5.51574766635894780000e-001) (188, -2.05200895667076110000e-001) (189, -8.12855482101440430000e-001) (190, 5.86029958724975590000e+000) (191, 9.38863530755043030000e-002) (192, 6.04925572872161870000e-001) (193, -1.49452745914459230000e-001) (194, -4.85636281967163090000e+000) (195, 7.59604394435882570000e-001) (196, 8.19561541080474850000e-001) (197, 1.72976344823837280000e-001) (198, 3.61596673727035520000e-001) (199, -1.91539123654365540000e-001) (200, 3.39692413806915280000e-001) (201, 1.16852357983589170000e-001) (126, 7.52257943153381350000e-001) (127, -2.51369863748550420000e-001) (128, 6.73713758587837220000e-002) (129, -1.81905403733253480000e-001) (130, 7.19536483287811280000e-001) (131, -3.36029648780822750000e-001) (132, 6.63496673107147220000e-001) (133, 3.18908601999282840000e-001) (134, 2.09736093878746030000e-001) (135, 5.49057006835937500000e-001) (136, 2.11697146296501160000e-001) (137, 6.89389348030090330000e-001) (138, 6.18873775005340580000e-001) (139, -3.06918263435363770000e-001) (140, 5.47613389790058140000e-002) (141, -2.15902045369148250000e-001) (142, -3.09695184230804440000e-001) (143, -1.07524553313851360000e-002) (144, 4.11519140005111690000e-001) (145, 6.10005319118499760000e-001) (146, 4.26090151071548460000e-001) (147, -3.79997342824935910000e-001) (148, 4.23591464757919310000e-001) (149, 3.92676480114459990000e-002) (150, 7.90261924266815190000e-002) (151, -9.24915850162506100000e-001) (152, 1.72663033008575440000e-001) (153, 2.96715497970581050000e-002) (154, -3.53180095553398130000e-002) (155, -3.33748817443847660000e-001) (156, 2.17312425374984740000e-001) (157, -2.50818073749542240000e-001) (158, -3.58680784702301030000e-001) (159, 4.90641631186008450000e-002) (160, 2.38449528813362120000e-001) (161, -1.98349997401237490000e-001) (162, 2.43704356253147130000e-002) (163, 4.71158444881439210000e-001) (164, -2.58252441883087160000e-001) (165, -6.02429449558258060000e-001) (166, 3.78363907337188720000e-001) (167, 6.67267620563507080000e-001) (168, 9.05183926224708560000e-002) (169, -3.16059172153472900000e-001) (170, -1.34655088186264040000e-001) (171, 1.88780412077903750000e-001) (172, 5.69339513778686520000e-001) (173, 7.87306845188140870000e-001) (174, 1.33926481008529660000e-001) (175, 3.15788984298706050000e-001) (176, 7.13491812348365780000e-002) (177, 3.32691043615341190000e-001) (178, -1.55717000365257260000e-001) (179, 6.39384388923645020000e-002) (180, 4.93387401103973390000e-001) (181, 1.61589179188013080000e-002) (182, -2.92820543050765990000e-001) (183, 4.89625632762908940000e-002) (184, 3.01823973655700680000e-001) (185, 3.62976193428039550000e-001) (186, -1.69345423579216000000e-001) (187, 3.10936301946640010000e-001) (188, 5.53478598594665530000e-001) (189, 2.52339392900466920000e-001) (190, -1.75171703100204470000e-001) (191, 2.49855861067771910000e-001) (192, 3.37613344192504880000e-001) (193, -5.61513267457485200000e-002) (194, -3.12355697154998780000e-001) (195, 5.85415005683898930000e-001) (196, 2.76156336069107060000e-001) (197, 5.01247942447662350000e-001) (198, 5.47929992899298670000e-003) (199, -7.15260067954659460000e-003) (200, -2.38403871655464170000e-001) (201, 4.52772349119186400000e-001) (126, -1.12183165550231930000e+000) (127, 3.93123626708984380000e-001) (128, 5.72373390197753910000e-001) (129, -1.51377245783805850000e-001) (130, -4.37749922275543210000e-002) (131, -5.05332708358764650000e-001) (132, 9.21814203262329100000e-001) (133, 3.20531427860260010000e-001) (134, 7.52505242824554440000e-001) (135, 8.21034550666809080000e-001) (136, -1.00262865424156190000e-001) (137, -2.48778313398361210000e-001) (138, -1.36970579624176030000e-001) (139, 1.60159623622894290000e+000) (140, 4.98398482799530030000e-001) (141, -2.32679292559623720000e-001) (142, 7.13007450103759770000e-001) (143, 1.10664749145507810000e+000) (144, -1.17825627326965330000e-001) (145, -6.47382915019989010000e-001) (146, 9.44770455360412600000e-001) (147, 4.89637047052383420000e-001) (148, 5.00213265419006350000e-001) (149, -2.75967210531234740000e-001) (150, 4.60619926452636720000e-001) (151, 4.05095964670181270000e-001) (152, -2.00002819299697880000e-001) (153, 5.91121613979339600000e-001) (154, 1.97936013340950010000e-001) (155, 4.34138506650924680000e-001) (156, 9.16084349155426030000e-001) (157, 5.19618280231952670000e-002) (158, 8.74596312642097470000e-002) (159, 4.46991086006164550000e-001) (160, 9.70984160900115970000e-001) (161, 6.63255393505096440000e-001) (162, 7.17516422271728520000e-001) (163, -5.42479991912841800000e-001) (164, 1.30988442897796630000e+000) (165, 6.90572261810302730000e-001) (166, -3.73414784669876100000e-001) (167, -8.20727199316024780000e-002) (168, 1.02872657775878910000e+000) (169, 1.25113511085510250000e+000) (170, 8.05248796939849850000e-001) (171, 5.57747483253479000000e-001) (172, -4.58118289709091190000e-001) (173, -4.64750915765762330000e-001) (174, 9.96064186096191410000e-001) (175, 8.34436714649200440000e-001) (176, 8.54450166225433350000e-001) (177, -2.76752114295959470000e-001) (178, 9.52976047992706300000e-001) (179, -1.31280899047851560000e-001) (180, 3.10557126998901370000e-001) (181, 8.76346409320831300000e-001) (182, 5.74287950992584230000e-001) (183, 1.19172918796539310000e+000) (184, 6.77262842655181880000e-001) (185, -1.51909828186035160000e-001) (186, 1.47340631484985350000e+000) (187, 6.39547631144523620000e-002) (188, -6.28251582384109500000e-002) (189, 3.15076887607574460000e-001) (190, 5.33467590808868410000e-001) (191, -6.40034154057502750000e-002) (192, 1.99924316257238390000e-002) (193, 1.62307190895080570000e+000) (194, 3.94252568483352660000e-001) (195, 1.84744432568550110000e-001) (196, 1.03755486011505130000e+000) (197, 5.34800589084625240000e-001) (198, 1.09894417226314540000e-001) (199, 6.14233672618865970000e-001) (200, 1.59432458877563480000e+000) (201, 5.42019724845886230000e-001) (126, -6.22850775718688960000e-001) (127, 1.27661824226379390000e+000) (128, -1.17380753159523010000e-001) (129, 3.96647870540618900000e-001) (130, 3.18292379379272460000e-001) (131, 4.98505592346191410000e-001) (132, -8.60694423317909240000e-002) (133, 1.49162366986274720000e-001) (134, 1.17885756492614750000e+000) (135, -8.58948677778244020000e-002) (136, 1.99505054950714110000e+000) (137, 3.41035574674606320000e-001) (138, -4.44050699472427370000e-001) (139, 3.22608470916748050000e-001) (140, -8.08262005448341370000e-002) (141, 5.87358847260475160000e-002) (142, 3.93755614757537840000e-001) (143, -2.95789510011672970000e-001) (144, 2.72435635328292850000e-001) (145, 5.04051744937896730000e-001) (146, -1.82284012436866760000e-001) (147, -1.67842388153076170000e-001) (148, -1.69615596532821660000e-002) (149, -9.35824736952781680000e-002) (150, 6.58637821674346920000e-001) (151, 1.39559358358383180000e-001) (152, 4.08567160367965700000e-001) (153, 3.08451820164918900000e-002) (154, 3.63853245973587040000e-001) (155, -1.78475424647331240000e-001) (156, 3.53386878967285160000e-001) (157, 3.59525173902511600000e-001) (158, 1.02019178867340090000e+000) (159, 1.18988547474145890000e-002) (160, 8.70105981826782230000e-001) (161, -4.38385903835296630000e-001) (162, 1.44684743881225590000e+000) (163, -2.33191743493080140000e-001) (164, 3.50750952959060670000e-001) (165, 2.46730208396911620000e-001) (166, -3.73726874589920040000e-001) (167, 5.69037497043609620000e-001) (168, 7.25045800209045410000e-001) (169, -1.39980744570493700000e-002) (170, -1.55074730515480040000e-001) (171, -4.16203767061233520000e-001) (172, -1.09244085848331450000e-001) (173, -1.42663702368736270000e-001) (174, 2.42879644036293030000e-001) (175, -4.61378604173660280000e-001) (176, 2.66401827335357670000e-001) (177, 1.22821211814880370000e-001) (178, -2.62373745441436770000e-001) (179, -1.02549448609352110000e-001) (180, 5.82131803035736080000e-001) (181, -3.87646049261093140000e-001) (182, 3.99518311023712160000e-001) (183, -4.81661051511764530000e-001) (184, -2.88650274276733400000e-001) (185, 5.65178513526916500000e-001) (186, 6.07172727584838870000e-001) (187, 1.27430230379104610000e-001) (188, -2.69032657146453860000e-001) (189, -3.16888004541397090000e-001) (190, -1.40594378113746640000e-001) (191, -1.59430317580699920000e-003) (192, 4.49708640575408940000e-001) (193, 3.49191844463348390000e-001) (194, 7.04959869384765630000e-001) (195, -2.89369463920593260000e-001) (196, 7.00376778841018680000e-002) (197, -9.25045907497406010000e-002) (198, 6.26993598416447640000e-003) (199, 1.22471582889556880000e+000) (200, 3.46644073724746700000e-001) (201, 5.47637939453125000000e-001) (126, -8.18424105644226070000e-001) (127, -2.38255310058593750000e+000) (128, 7.76169061660766600000e-001) (129, -1.75321504473686220000e-001) (130, -1.62977755069732670000e-001) (131, -3.17495971918106080000e-001) (132, 4.13818627595901490000e-001) (133, 1.42392233014106750000e-001) (134, -4.56690877676010130000e-001) (135, 2.92846441268920900000e-001) (136, -1.00555801391601560000e+000) (137, -3.43868792057037350000e-001) (138, 3.90084147453308110000e-001) (139, -6.47746562957763670000e-001) (140, 9.56604555249214170000e-002) (141, 4.17288303375244140000e-001) (142, -3.38139921426773070000e-001) (143, 5.30661702156066890000e-001) (144, -3.36248874664306640000e-001) (145, -2.74038225412368770000e-001) (146, -2.69651472568511960000e-001) (147, 3.76605093479156490000e-001) (148, 1.58890321850776670000e-001) (149, 2.03523382544517520000e-001) (150, 7.76253491640090940000e-002) (151, 1.28793552517890930000e-001) (152, -3.77132087945938110000e-001) (153, 1.82107293605804440000e+000) (154, -2.46020793914794920000e-001) (155, 2.44427919387817380000e-001) (156, 2.19233036041259770000e-001) (157, -5.42868614196777340000e-001) (158, -2.51371830701828000000e-001) (159, 6.41274929046630860000e-001) (160, -7.47525453567504880000e-001) (161, 1.51912581920623780000e+000) (162, -6.56717538833618160000e-001) (163, 1.62648335099220280000e-001) (164, 3.79664413630962370000e-002) (165, -4.44273859262466430000e-001) (166, 3.78543175756931300000e-002) (167, 6.59450054168701170000e-001) (168, -7.39753901958465580000e-001) (169, 3.84188711643218990000e-001) (170, 4.80549424886703490000e-001) (171, 7.12605953216552730000e-001) (172, 4.85210627317428590000e-001) (173, -1.93402454257011410000e-001) (174, -3.05043190717697140000e-001) (175, 1.12058937549591060000e+000) (176, 1.47324010729789730000e-001) (177, 1.88102960586547850000e-001) (178, 4.28937286138534550000e-001) (179, 3.38963687419891360000e-001) (180, -1.47972539067268370000e-001) (181, 3.88761237263679500000e-002) (182, -1.49195119738578800000e-001) (183, 1.51836007833480830000e-001) (184, 3.45295280218124390000e-001) (185, -2.87174820899963380000e-001) (186, -3.03190678358078000000e-001) (187, 4.43739787442609670000e-004) (188, 1.47035419940948490000e-001) (189, -7.85823538899421690000e-002) (190, 3.80369782447814940000e-001) (191, -4.92082908749580380000e-002) (192, -2.57686406373977660000e-001) (193, -7.47639834880828860000e-001) (194, 9.86453611403703690000e-003) (195, 7.13321805000305180000e-001) (196, 5.82720518112182620000e-001) (197, 3.86412352323532100000e-001) (198, 4.75069403648376460000e-001) (199, -2.71318650245666500000e+000) (200, -6.78346931934356690000e-001) (201, 6.46867811679840090000e-001) (126, 1.79449275135993960000e-001) (127, -2.11412861943244930000e-001) (128, -4.50055688619613650000e-001) (129, -5.04230678081512450000e-001) (130, 7.86719799041748050000e-001) (131, 9.64076668024063110000e-002) (132, -6.75497762858867650000e-003) (133, 5.60971349477767940000e-002) (134, -1.31546631455421450000e-002) (135, 1.25259256362915040000e+000) (136, -2.34158962965011600000e-001) (137, 6.53711616992950440000e-001) (138, 3.16041529178619380000e-001) (139, 4.26978528499603270000e-001) (140, 1.08444869518280030000e-001) (141, -9.50830876827239990000e-001) (142, -2.39573791623115540000e-001) (143, 1.94041699171066280000e-001) (144, 8.66933166980743410000e-001) (145, -4.04184550046920780000e-001) (146, 2.63086467981338500000e-001) (147, -6.50310665369033810000e-002) (148, 6.11632883548736570000e-001) (149, 4.02028076350688930000e-002) (150, -1.25096589326858520000e-001) (151, -2.50639140605926510000e-001) (152, 5.65676331520080570000e-001) (153, -2.15157359838485720000e-001) (154, -4.47611436247825620000e-002) (155, -1.00730943679809570000e+000) (156, 8.49345505237579350000e-001) (157, -3.34586203098297120000e-001) (158, -5.43392658233642580000e-001) (159, -3.41445565223693850000e-001) (160, -2.26292312145233150000e-001) (161, -1.91053044795989990000e+000) (162, -1.04854285717010500000e+000) (163, 2.77933061122894290000e-001) (164, 4.55550998449325560000e-001) (165, -6.75215303897857670000e-001) (166, 4.05165582895278930000e-001) (167, -4.28790658712387080000e-001) (168, -1.09084939956665040000e+000) (169, -7.87070095539093020000e-001) (170, -2.39123955368995670000e-001) (171, 2.41805315017700200000e+000) (172, -6.07112348079681400000e-001) (173, 7.88557529449462890000e-001) (174, 1.18374037742614750000e+000) (175, -5.77580630779266360000e-001) (176, -4.18739140033721920000e-001) (177, 1.27316725254058840000e+000) (178, -5.17148256301879880000e-001) (179, 5.10901987552642820000e-001) (180, -2.52406358718872070000e-001) (181, -1.81644153594970700000e+000) (182, -2.32596063613891600000e+000) (183, -8.38316142559051510000e-001) (184, 2.19456505775451660000e+000) (185, 6.58425450325012210000e-001) (186, 1.41604959964752200000e+000) (187, 2.69681334495544430000e-001) (188, -9.73282217979431150000e-001) (189, -1.41789472103118900000e+000) (190, 2.42847299575805660000e+000) (191, -7.65890300273895260000e-001) (192, 4.42687809467315670000e-001) (193, -2.41581872105598450000e-001) (194, -6.55740547180175780000e+000) (195, 4.11270469427108760000e-001) (196, 2.36100196838378910000e+000) (197, 5.54425597190856930000e-001) (198, 2.84036731719970700000e+000) (199, -9.97620895504951480000e-002) (200, -3.21497321128845210000e-001) (201, -7.76781737804412840000e-001) (202, 2.89249211549758910000e-001) (203, -2.11787033081054690000e+000) (204, -4.14914544671773910000e-003) (205, 2.80921101570129390000e-001) (206, 6.62361085414886470000e-002) (207, 3.75398904085159300000e-001) (208, 3.99733304977416990000e-001) (209, 6.57202780246734620000e-001) (210, -1.00800305604934690000e-001) (211, 6.23437047004699710000e-001) (212, 1.22019350528717040000e+000) (213, -1.58292233943939210000e-001) (214, 8.58000755310058590000e+000) (215, 5.60492157936096190000e-001) (216, 2.27975964546203610000e-001) (217, 1.91354200243949890000e-001) (218, 1.86889618635177610000e-001) (219, -3.05418610572814940000e-001) (220, -1.35163620114326480000e-001) (221, 7.72755670547485350000e+000) (222, 4.99478459358215330000e-001) (223, 8.03014576435089110000e-001) (224, 6.62674725055694580000e-001) (225, 2.00246721506118770000e-001) (226, 5.61908781528472900000e-001) (227, -3.39634669944643970000e-003) (202, 1.53241306543350220000e-001) (203, 3.10713005065917970000e+000) (204, -5.22480130195617680000e-001) (205, 2.51915514469146730000e-001) (206, 1.94517061114311220000e-001) (207, 1.18619956076145170000e-001) (208, 8.68870556354522710000e-001) (209, 6.18859708309173580000e-001) (210, -2.29442343115806580000e-001) (211, 9.62363630533218380000e-002) (212, -2.12272739410400390000e+000) (213, 8.91387081146240230000e+000) (214, 9.74991917610168460000e-001) (215, -2.35778838396072390000e-002) (216, 3.29951524734497070000e-001) (217, 3.12835037708282470000e-001) (218, 1.93532451987266540000e-001) (219, 9.16274935007095340000e-002) (220, 1.14149607717990880000e-001) (221, 1.62742659449577330000e-001) (222, 6.71904802322387700000e-001) (223, -7.28979229927062990000e-001) (224, 5.81599593162536620000e-001) (225, 3.84216964244842530000e-001) (226, 9.85004529356956480000e-002) (227, 8.47222423553466800000e+000) 
