FANN_FLO_2.1
num_layers=4
learning_rate=0.700000
connection_rate=1.000000
network_type=0
learning_momentum=0.500000
training_algorithm=2
train_error_function=0
train_stop_function=0
cascade_output_change_fraction=0.010000
quickprop_decay=-0.000100
quickprop_mu=1.750000
rprop_increase_factor=1.200000
rprop_decrease_factor=0.500000
rprop_delta_min=0.000000
rprop_delta_max=50.000000
rprop_delta_zero=0.100000
cascade_output_stagnation_epochs=12
cascade_candidate_change_fraction=0.010000
cascade_candidate_stagnation_epochs=12
cascade_max_out_epochs=150
cascade_min_out_epochs=50
cascade_max_cand_epochs=150
cascade_min_cand_epochs=50
cascade_num_candidate_groups=2
bit_fail_limit=3.49999994039535520000e-001
cascade_candidate_limit=1.00000000000000000000e+003
cascade_weight_multiplier=4.00000005960464480000e-001
cascade_activation_functions_count=10
cascade_activation_functions=3 5 7 8 10 11 14 15 16 17 
cascade_activation_steepnesses_count=4
cascade_activation_steepnesses=2.50000000000000000000e-001 5.00000000000000000000e-001 7.50000000000000000000e-001 1.00000000000000000000e+000 
layer_sizes=46 28 19 3 
scale_included=1
scale_mean_in=0.257936 0.053468 0.021074 0.156837 0.079579 0.296126 0.054121 -0.003128 0.177247 0.086815 0.258716 0.051010 -0.030328 0.159149 0.077949 0.294701 -0.002420 0.021985 0.174567 0.085562 0.335906 -0.002671 -0.003254 0.194032 0.092614 0.295041 -0.002733 -0.030014 0.175544 0.084359 0.256724 -0.062525 0.022372 0.155109 0.076933 0.294708 -0.067213 -0.003158 0.173588 0.084538 0.257096 -0.064703 -0.029407 0.154886 0.076032 
scale_deviation_in=0.519640 0.939631 1.324985 0.817527 1.179684 0.519400 0.974805 1.524640 0.840999 1.212954 0.520220 0.939660 1.326255 0.817338 1.179993 0.519354 1.090600 1.367420 0.841610 1.209877 0.512940 1.125418 1.562303 0.863245 1.240609 0.519962 1.091367 1.371421 0.841746 1.210891 0.519641 0.936673 1.317332 0.818024 1.176171 0.519362 0.971912 1.520582 0.841988 1.210486 0.520272 0.936778 1.323463 0.818249 1.177550 
scale_new_min_in=-1.000000 -1.000000 -1.000000 -1.000000 -1.000000 -1.000000 -1.000000 -1.000000 -1.000000 -1.000000 -1.000000 -1.000000 -1.000000 -1.000000 -1.000000 -1.000000 -1.000000 -1.000000 -1.000000 -1.000000 -1.000000 -1.000000 -1.000000 -1.000000 -1.000000 -1.000000 -1.000000 -1.000000 -1.000000 -1.000000 -1.000000 -1.000000 -1.000000 -1.000000 -1.000000 -1.000000 -1.000000 -1.000000 -1.000000 -1.000000 -1.000000 -1.000000 -1.000000 -1.000000 -1.000000 
scale_factor_in=1.000000 1.000000 1.000000 1.000000 1.000000 1.000000 1.000000 1.000000 1.000000 1.000000 1.000000 1.000000 1.000000 1.000000 1.000000 1.000000 1.000000 1.000000 1.000000 1.000000 1.000000 1.000000 1.000000 1.000000 1.000000 1.000000 1.000000 1.000000 1.000000 1.000000 1.000000 1.000000 1.000000 1.000000 1.000000 1.000000 1.000000 1.000000 1.000000 1.000000 1.000000 1.000000 1.000000 1.000000 1.000000 
scale_mean_out=-0.040779 0.009416 
scale_deviation_out=3.440986 3.588554 
scale_new_min_out=-1.000000 -1.000000 
scale_factor_out=1.000000 1.000000 
neurons (num_inputs, activation_function, activation_steepness)=(0, 0, 0.00000000000000000000e+000) (0, 0, 0.00000000000000000000e+000) (0, 0, 0.00000000000000000000e+000) (0, 0, 0.00000000000000000000e+000) (0, 0, 0.00000000000000000000e+000) (0, 0, 0.00000000000000000000e+000) (0, 0, 0.00000000000000000000e+000) (0, 0, 0.00000000000000000000e+000) (0, 0, 0.00000000000000000000e+000) (0, 0, 0.00000000000000000000e+000) (0, 0, 0.00000000000000000000e+000) (0, 0, 0.00000000000000000000e+000) (0, 0, 0.00000000000000000000e+000) (0, 0, 0.00000000000000000000e+000) (0, 0, 0.00000000000000000000e+000) (0, 0, 0.00000000000000000000e+000) (0, 0, 0.00000000000000000000e+000) (0, 0, 0.00000000000000000000e+000) (0, 0, 0.00000000000000000000e+000) (0, 0, 0.00000000000000000000e+000) (0, 0, 0.00000000000000000000e+000) (0, 0, 0.00000000000000000000e+000) (0, 0, 0.00000000000000000000e+000) (0, 0, 0.00000000000000000000e+000) (0, 0, 0.00000000000000000000e+000) (0, 0, 0.00000000000000000000e+000) (0, 0, 0.00000000000000000000e+000) (0, 0, 0.00000000000000000000e+000) (0, 0, 0.00000000000000000000e+000) (0, 0, 0.00000000000000000000e+000) (0, 0, 0.00000000000000000000e+000) (0, 0, 0.00000000000000000000e+000) (0, 0, 0.00000000000000000000e+000) (0, 0, 0.00000000000000000000e+000) (0, 0, 0.00000000000000000000e+000) (0, 0, 0.00000000000000000000e+000) (0, 0, 0.00000000000000000000e+000) (0, 0, 0.00000000000000000000e+000) (0, 0, 0.00000000000000000000e+000) (0, 0, 0.00000000000000000000e+000) (0, 0, 0.00000000000000000000e+000) (0, 0, 0.00000000000000000000e+000) (0, 0, 0.00000000000000000000e+000) (0, 0, 0.00000000000000000000e+000) (0, 0, 0.00000000000000000000e+000) (0, 0, 0.00000000000000000000e+000) (46, 5, 5.00000000000000000000e-001) (46, 5, 5.00000000000000000000e-001) (46, 5, 5.00000000000000000000e-001) (46, 5, 5.00000000000000000000e-001) (46, 5, 5.00000000000000000000e-001) (46, 5, 5.00000000000000000000e-001) (46, 5, 5.00000000000000000000e-001) (46, 5, 5.00000000000000000000e-001) (46, 5, 5.00000000000000000000e-001) (46, 5, 5.00000000000000000000e-001) (46, 5, 5.00000000000000000000e-001) (46, 5, 5.00000000000000000000e-001) (46, 5, 5.00000000000000000000e-001) (46, 5, 5.00000000000000000000e-001) (46, 5, 5.00000000000000000000e-001) (46, 5, 5.00000000000000000000e-001) (46, 5, 5.00000000000000000000e-001) (46, 5, 5.00000000000000000000e-001) (46, 5, 5.00000000000000000000e-001) (46, 5, 5.00000000000000000000e-001) (46, 5, 5.00000000000000000000e-001) (46, 5, 5.00000000000000000000e-001) (46, 5, 5.00000000000000000000e-001) (46, 5, 5.00000000000000000000e-001) (46, 5, 5.00000000000000000000e-001) (46, 5, 5.00000000000000000000e-001) (46, 5, 5.00000000000000000000e-001) (0, 5, 0.00000000000000000000e+000) (28, 5, 5.00000000000000000000e-001) (28, 5, 5.00000000000000000000e-001) (28, 5, 5.00000000000000000000e-001) (28, 5, 5.00000000000000000000e-001) (28, 5, 5.00000000000000000000e-001) (28, 5, 5.00000000000000000000e-001) (28, 5, 5.00000000000000000000e-001) (28, 5, 5.00000000000000000000e-001) (28, 5, 5.00000000000000000000e-001) (28, 5, 5.00000000000000000000e-001) (28, 5, 5.00000000000000000000e-001) (28, 5, 5.00000000000000000000e-001) (28, 5, 5.00000000000000000000e-001) (28, 5, 5.00000000000000000000e-001) (28, 5, 5.00000000000000000000e-001) (28, 5, 5.00000000000000000000e-001) (28, 5, 5.00000000000000000000e-001) (28, 5, 5.00000000000000000000e-001) (0, 5, 0.00000000000000000000e+000) (19, 0, 5.00000000000000000000e-001) (19, 0, 5.00000000000000000000e-001) (0, 0, 0.00000000000000000000e+000) 
connections (connected_to_neuron, weight)=(0, 1.02320957183837890000e+001) (1, -6.13986635208129880000e+000) (2, 3.34428191184997560000e+000) (3, -9.61409759521484370000e+000) (4, 4.03548860549926760000e+000) (5, -8.75942516326904300000e+000) (6, 5.30520439147949220000e+000) (7, -4.34084802865982060000e-001) (8, -3.82290458679199220000e+000) (9, 4.75006848573684690000e-002) (10, 1.11939744949340820000e+001) (11, -2.69040012359619140000e+000) (12, -4.91527348756790160000e-001) (13, -4.38949155807495120000e+000) (14, 2.22371721267700200000e+000) (15, -6.59442567825317380000e+000) (16, -1.31258487701416020000e+001) (17, -5.21038103103637700000e+000) (18, 2.61561274528503420000e+000) (19, 3.41154384613037110000e+000) (20, 1.02322351932525630000e+000) (21, -1.50000000000000000000e+003) (22, -6.20734619140625000000e+002) (23, 1.22640724182128910000e+002) (24, 7.22533950805664060000e+001) (25, -3.66062378883361820000e+000) (26, -6.01951503753662110000e+000) (27, 6.05403633117675780000e+001) (28, 1.04387235641479490000e+001) (29, -5.75669670104980470000e+001) (30, 2.28929686546325680000e+000) (31, -4.03241014480590820000e+000) (32, 2.12520265579223630000e+000) (33, 5.59658861160278320000e+000) (34, -1.48892765045166020000e+001) (35, -2.67096614837646480000e+000) (36, 2.74454460144042970000e+001) (37, -8.13166809082031250000e+000) (38, -5.00619277954101560000e+001) (39, 9.52775573730468750000e+000) (40, -3.01814675331115720000e+000) (41, 1.61893939971923830000e+000) (42, 3.64305973052978520000e+000) (43, 3.03599357604980470000e+000) (44, -1.14510660171508790000e+001) (45, 1.67977035045623780000e-001) (0, -6.75385713577270510000e-001) (1, 3.17650064826011660000e-002) (2, 1.13966870307922360000e+000) (3, 6.78772509098052980000e-001) (4, 1.22476804256439210000e+000) (5, 1.13786959648132320000e+000) (6, 3.88385772705078130000e-001) (7, 5.63651859760284420000e-001) (8, 8.69672119617462160000e-001) (9, 3.09703834354877470000e-002) (10, 1.95804107189178470000e+000) (11, 2.71627604961395260000e-001) (12, -1.49142310023307800000e-001) (13, 1.25801467895507810000e+000) (14, 1.25295490026474000000e-001) (15, -2.13423871994018550000e+000) (16, 6.89528226852416990000e-001) (17, -1.88698589801788330000e-001) (18, -4.46865767240524290000e-001) (19, 1.05585539340972900000e+000) (20, 1.90174090862274170000e+000) (21, 6.53102695941925050000e-001) (22, -2.45786929130554200000e+000) (23, 2.79007077217102050000e-001) (24, 4.30686998367309570000e+000) (25, 1.57583463191986080000e+000) (26, 1.85431551933288570000e+000) (27, -2.02210709452629090000e-001) (28, 2.61127114295959470000e-001) (29, 2.38088607788085940000e-001) (30, 1.67644131183624270000e+000) (31, 2.38457173109054570000e-001) (32, 4.62812304496765140000e-001) (33, -2.88569658994674680000e-001) (34, 5.04009902477264400000e-001) (35, 1.22647583484649660000e+000) (36, 3.27297568321228030000e-001) (37, 1.16143739223480220000e+000) (38, -8.05292725563049320000e-001) (39, 8.38216543197631840000e-002) (40, 1.73053503036499020000e+000) (41, 8.71706247329711910000e-001) (42, 4.10397768020629880000e-001) (43, -1.30173051357269290000e+000) (44, -7.63347923755645750000e-001) (45, -2.68323451280593870000e-001) (0, -1.87790679931640620000e+000) (1, -1.70711517333984380000e-001) (2, 1.14720857143402100000e+000) (3, 1.96293488144874570000e-001) (4, 1.59361171722412110000e+000) (5, 1.86491683125495910000e-001) (6, 5.91968953609466550000e-001) (7, 1.41266360878944400000e-001) (8, 1.03527379035949710000e+000) (9, 2.05739542841911320000e-001) (10, 1.22132313251495360000e+000) (11, 3.10918986797332760000e-001) (12, 5.55864751338958740000e-001) (13, 4.07884299755096440000e-001) (14, -5.00305667519569400000e-002) (15, -2.62766385078430180000e+000) (16, 8.56966972351074220000e-001) (17, 1.64508056640625000000e+000) (18, -6.84128582477569580000e-001) (19, 1.59427750110626220000e+000) (20, 2.88685590028762820000e-001) (21, 1.72107660770416260000e+000) (22, -8.13690757751464840000e+000) (23, -5.58966279029846190000e-001) (24, 3.66015338897705080000e+000) (25, 4.51854753494262700000e+000) (26, 3.45534980297088620000e-001) (27, -3.05333375930786130000e+000) (28, 5.59390187263488770000e-001) (29, 3.91448044776916500000e+000) (30, -1.61254823207855220000e-001) (31, 7.31734558939933780000e-002) (32, 1.12866781651973720000e-001) (33, -9.49731748551130290000e-003) (34, 1.83583676815032960000e+000) (35, -4.92974579334259030000e-001) (36, 5.46083211898803710000e-001) (37, 1.02548074722290040000e+000) (38, -1.09365069866180420000e+000) (39, -5.29724657535552980000e-001) (40, -3.79118695855140690000e-002) (41, -5.05467690527439120000e-002) (42, 5.33857822418212890000e-001) (43, -2.55139440298080440000e-001) (44, -1.29228100180625920000e-001) (45, 1.83227753639221190000e+000) (0, -1.85179853439331050000e+000) (1, -2.33522701263427730000e+000) (2, 1.48387148976325990000e-001) (3, -1.73079574108123780000e+000) (4, -2.02274054288864140000e-001) (5, 5.15913867950439450000e+000) (6, -5.80491590499877930000e+000) (7, -4.62808084487915040000e+000) (8, 1.02469432353973390000e+000) (9, 3.41629385948181150000e+000) (10, 1.78070175647735600000e+000) (11, -1.74493110179901120000e+000) (12, -2.36127233505249020000e+000) (13, 4.16579425334930420000e-001) (14, 1.32227039337158200000e+000) (15, -1.11729125976562500000e+001) (16, -2.76898741722106930000e+000) (17, -2.58001184463500980000e+000) (18, -3.67643147706985470000e-001) (19, -3.06662988662719730000e+000) (20, -2.30259761214256290000e-001) (21, -4.75134506225585940000e+001) (22, 1.02544105052948000000e+000) (23, -4.63555186986923220000e-001) (24, 7.30201053619384770000e+000) (25, 1.65576553344726560000e+000) (26, -2.32989239692687990000e+000) (27, 6.80361449718475340000e-001) (28, 2.24419069290161130000e+000) (29, -1.12223386764526370000e+000) (30, -2.40837645530700680000e+000) (31, -4.35044139623641970000e-001) (32, 4.54618215560913090000e-001) (33, 8.88534426689147950000e-001) (34, 4.61975559592247010000e-002) (35, -9.46241736412048340000e-001) (36, -4.52526539564132690000e-001) (37, -4.36619609594345090000e-001) (38, 2.94460058212280270000e+000) (39, -1.14381885528564450000e+000) (40, -2.44312477111816410000e+000) (41, -1.75657168030738830000e-001) (42, -3.09042543172836300000e-001) (43, 3.96105796098709110000e-002) (44, 2.32723891735076900000e-001) (45, 7.74653581902384760000e-003) (0, -5.59063374996185300000e-001) (1, 6.35726809501647950000e-001) (2, -1.84504711627960210000e+000) (3, -3.87184113264083860000e-001) (4, -2.37608003616333010000e+000) (5, -1.92557370662689210000e+000) (6, -1.08078730106353760000e+000) (7, -1.60300934314727780000e+000) (8, -1.26489400863647460000e-001) (9, -1.00005710124969480000e+000) (10, -7.05547511577606200000e-001) (11, 4.62697952985763550000e-001) (12, 9.24001455307006840000e-001) (13, 1.60134553909301760000e-001) (14, 2.39940524101257320000e+000) (15, -2.60078859329223630000e+000) (16, 4.08889502286911010000e-002) (17, 2.63477340340614320000e-002) (18, -3.76487314701080320000e-001) (19, 3.13184708356857300000e-002) (20, -1.59108772873878480000e-001) (21, 6.68948593139648440000e+001) (22, 4.77327117919921880000e+001) (23, 1.15512292832136150000e-002) (24, -7.82368278503417970000e+000) (25, 3.56286972761154170000e-001) (26, -2.70455926656723020000e-001) (27, -5.89230775833129880000e+000) (28, -1.35079133510589600000e+000) (29, 6.65806865692138670000e+000) (30, 5.29255211353302000000e-001) (31, -5.35439886152744290000e-002) (32, 7.81106650829315190000e-002) (33, -5.68492710590362550000e-002) (34, 4.88803803920745850000e-001) (35, 8.46226310729980470000e+000) (36, -1.42087149620056150000e+000) (37, -1.29944419860839840000e+000) (38, -4.70067977905273440000e-001) (39, -1.54398882389068600000e+000) (40, 2.63143348693847660000e+000) (41, -5.71914136409759520000e-001) (42, -3.36676873266696930000e-002) (43, 1.85141134262084960000e+000) (44, 8.45965564250946040000e-001) (45, 1.59068810939788820000e+000) (0, 2.81072854995727540000e-001) (1, -1.76812246441841130000e-001) (2, 2.95783519744873050000e-001) (3, -2.49071061611175540000e-001) (4, 6.14532470703125000000e-001) (5, 6.03930234909057620000e-001) (6, 7.79062137007713320000e-002) (7, 6.93155169486999510000e-001) (8, 3.05250147357583050000e-003) (9, 2.62843370437622070000e-001) (10, 4.05924201011657710000e-001) (11, -1.54549852013587950000e-001) (12, 3.64615321159362790000e-002) (13, -2.52189576625823970000e-001) (14, -3.68325740098953250000e-001) (15, 6.68933057785034180000e+000) (16, -8.13438117504119870000e-001) (17, -9.82189271599054340000e-003) (18, 3.24438035488128660000e-001) (19, -2.98182511329650880000e+000) (20, 7.01290786266326900000e-001) (21, 2.63554453849792480000e-002) (22, -6.49507236480712890000e+000) (23, 8.76831054687500000000e-001) (24, -3.15788688659667970000e+001) (25, -2.40719318389892580000e+000) (26, -3.89822214841842650000e-001) (27, 1.27929973602294920000e+000) (28, -2.88706481456756590000e-001) (29, -4.25903987884521480000e+000) (30, -1.80255264043807980000e-001) (31, -1.86378300189971920000e-001) (32, 6.87912330031394960000e-002) (33, 4.02945756912231450000e-001) (34, 4.36929494142532350000e-001) (35, -4.74679589271545410000e-001) (36, -1.62846118211746220000e-001) (37, 5.97497701644897460000e-001) (38, 8.74141305685043330000e-002) (39, 1.69314011931419370000e-001) (40, -5.65252006053924560000e-001) (41, 4.59801442921161650000e-002) (42, -3.60182411968708040000e-002) (43, -2.51137726008892060000e-002) (44, -3.77913624048233030000e-001) (45, 4.18399721384048460000e-001) (0, 2.50749319791793820000e-001) (1, 3.64611506462097170000e-001) (2, -2.46705517172813420000e-001) (3, 5.19402325153350830000e-001) (4, 8.25089335441589360000e-001) (5, -4.36215966939926150000e-001) (6, 5.27097344398498540000e-001) (7, 5.45951843261718750000e-001) (8, -1.20276864618062970000e-002) (9, -6.75380742177367210000e-003) (10, -1.26319921016693120000e+000) (11, 5.02843260765075680000e-001) (12, 4.72433626651763920000e-001) (13, 1.06501996517181400000e+000) (14, -2.12410479784011840000e-001) (15, 1.12292385101318360000e+000) (16, 7.73897469043731690000e-001) (17, 1.69903945922851560000e+000) (18, 8.63230377435684200000e-002) (19, 1.16531813144683840000e+000) (20, -2.37209469079971310000e-001) (21, 8.57062876224517820000e-001) (22, 1.73359286785125730000e+000) (23, -5.92146396636962890000e-001) (24, -1.75664544105529790000e+000) (25, -6.02102160453796390000e-001) (26, 9.16025117039680480000e-002) (27, -2.41656684875488280000e+000) (28, -1.16087332367897030000e-001) (29, -1.68609070777893070000e+000) (30, 3.13591170310974120000e+000) (31, 2.10419997572898860000e-001) (32, -2.17350530624389650000e+000) (33, 5.54811730980873110000e-002) (34, -5.87384887039661410000e-002) (35, -1.26792514324188230000e+000) (36, 5.61431586742401120000e-001) (37, -7.02221572399139400000e-001) (38, -2.11137551814317700000e-002) (39, 9.28882241249084470000e-001) (40, 1.83394384384155270000e+000) (41, -2.02097639441490170000e-001) (42, 4.68002080917358400000e-001) (43, -5.11357128620147710000e-001) (44, 1.24505233764648440000e+000) (45, -4.43574227392673490000e-002) (0, 7.67169237136840820000e-001) (1, -2.06173270940780640000e-001) (2, 1.15296728909015660000e-001) (3, -3.46385180950164790000e-001) (4, 1.12416125833988190000e-001) (5, 6.11068546772003170000e-001) (6, 2.70819477736949920000e-002) (7, 1.81852027773857120000e-001) (8, -5.97632192075252530000e-002) (9, 1.12229160964488980000e-001) (10, 4.01480823755264280000e-001) (11, -2.39843025803565980000e-001) (12, -2.58634597063064580000e-001) (13, -1.85855224728584290000e-001) (14, -1.41021534800529480000e-001) (15, 1.71571457386016850000e+000) (16, -7.33371317386627200000e-001) (17, -1.15132403373718260000e+000) (18, 4.43995207548141480000e-001) (19, -1.75109910964965820000e+000) (20, 7.89888620376586910000e-001) (21, -4.46981251239776610000e-001) (22, 2.45458558201789860000e-002) (23, 2.56544083356857300000e-001) (24, -1.05540008544921870000e+001) (25, -7.28773593902587890000e-001) (26, 2.94366981834173200000e-002) (27, 1.25518918037414550000e+000) (28, -1.15258894860744480000e-001) (29, -9.46558892726898190000e-001) (30, 1.73086136579513550000e-001) (31, -9.39865857362747190000e-002) (32, 7.24004656076431270000e-002) (33, 3.13206672668457030000e-001) (34, -4.15791183710098270000e-001) (35, -1.45635426044464110000e-001) (36, -3.90088587999343870000e-001) (37, -8.72294977307319640000e-002) (38, 1.91907793283462520000e-001) (39, -2.47479788959026340000e-002) (40, -7.69455909729003910000e-001) (41, 6.72225207090377810000e-002) (42, -6.90982192754745480000e-002) (43, -9.80678796768188480000e-002) (44, -5.95078349113464360000e-001) (45, -8.27339887619018550000e-001) (0, 8.51140022277832030000e-001) (1, 1.29556667804718020000e+000) (2, 9.25798118114471440000e-001) (3, 1.09210896492004390000e+000) (4, 1.72742736339569090000e+000) (5, -1.74848961830139160000e+000) (6, 4.77788634598255160000e-002) (7, 2.14111661911010740000e+000) (8, -6.78970515727996830000e-001) (9, -5.85344769060611720000e-002) (10, -9.04782533645629880000e-001) (11, 8.05549547076225280000e-002) (12, 3.22733354568481450000e+000) (13, -5.75686812400817870000e-001) (14, -2.15063512325286870000e-001) (15, 5.72302162647247310000e-001) (16, 2.00354790687561040000e+000) (17, 6.78316771984100340000e-001) (18, -3.92496138811111450000e-001) (19, 1.31120169162750240000e+000) (20, 1.72198867797851560000e+000) (21, 4.99418348073959350000e-001) (22, 6.57029294967651370000e+000) (23, -6.97872340679168700000e-001) (24, 3.17926101684570310000e+001) (25, -1.88711071014404300000e+000) (26, -8.17959755659103390000e-002) (27, 1.73021450042724610000e+001) (28, -7.12886989116668700000e-001) (29, 8.69013500213623050000e+000) (30, 1.35946261882781980000e+000) (31, 8.32525312900543210000e-001) (32, 1.47183492779731750000e-001) (33, -1.33379757404327390000e+000) (34, 4.73779916763305660000e-001) (35, 1.51352512836456300000e+000) (36, -1.03430509567260740000e-001) (37, 1.45220708847045900000e+000) (38, 1.93915247917175290000e-001) (39, 1.39608871936798100000e+000) (40, 5.20866625010967250000e-002) (41, 2.03106552362442020000e-001) (42, 2.71990275382995610000e+000) (43, -3.40585589408874510000e-001) (44, -7.65511691570281980000e-002) (45, 5.80848455429077150000e-001) (0, -1.49613427734375000000e+003) (1, 6.35214328765869140000e+000) (2, 4.02796249389648440000e+001) (3, -7.20981521606445310000e+001) (4, -5.87855398654937740000e-001) (5, 3.72169723510742190000e+001) (6, 2.42453262329101560000e+002) (7, 1.04287803173065190000e+000) (8, 3.73430228233337400000e+000) (9, 6.61166143417358400000e+000) (10, 2.29406309127807620000e+000) (11, 1.49999609375000000000e+003) (12, 3.90880346298217770000e-001) (13, 1.50000000000000000000e+003) (14, -1.44863879394531250000e+003) (15, -1.50000000000000000000e+003) (16, -1.49012707519531250000e+003) (17, -1.44904699707031250000e+003) (18, -1.43863842773437500000e+003) (19, -4.50891876220703120000e+002) (20, -1.49917700195312500000e+003) (21, -1.42733386230468750000e+003) (22, 1.38238439941406250000e+003) (23, -1.49992260742187500000e+003) (24, -1.50000000000000000000e+003) (25, 9.24051361083984370000e+001) (26, -1.49302722167968750000e+003) (27, 1.67774238586425780000e+001) (28, 1.50000000000000000000e+003) (29, -1.49738610839843750000e+003) (30, 8.23166427612304690000e+001) (31, 1.50000000000000000000e+003) (32, -1.49397192382812500000e+003) (33, 1.15988781738281250000e+003) (34, -1.40972802734375000000e+003) (35, 1.31929912567138670000e+001) (36, 1.50000000000000000000e+003) (37, -6.43516826629638670000e+000) (38, -1.49963122558593750000e+003) (39, -1.48242248535156250000e+003) (40, -2.00964920043945310000e+002) (41, -1.50000000000000000000e+003) (42, 6.75111484527587890000e+000) (43, 1.50000000000000000000e+003) (44, -7.80874755859375000000e+002) (45, 1.50982308387756350000e+000) (0, -1.17748985067009930000e-002) (1, 2.59273797273635860000e-001) (2, 4.36095327138900760000e-001) (3, 7.25980579853057860000e-001) (4, 1.33183741569519040000e+000) (5, 3.51098984479904170000e-001) (6, 1.01076759397983550000e-001) (7, 1.91502285003662110000e+000) (8, 7.30917036533355710000e-001) (9, 2.75578141212463380000e+000) (10, -4.54884737730026250000e-001) (11, 4.30472671985626220000e-001) (12, 2.20929765701293950000e+000) (13, -6.81334286928176880000e-002) (14, -3.53072196245193480000e-001) (15, -1.22465275228023530000e-001) (16, -3.44803661108016970000e-001) (17, -5.24798536300659180000e+000) (18, -5.13529419898986820000e-001) (19, 5.67520904541015630000e+000) (20, -4.16024029254913330000e-001) (21, 1.39561367034912110000e+000) (22, -1.34565448760986330000e+000) (23, -4.46852326393127440000e-001) (24, 7.94619178771972660000e+000) (25, 1.63155305385589600000e+000) (26, 3.76542359590530400000e-001) (27, 8.03395509719848630000e-001) (28, 9.54388231039047240000e-002) (29, -8.78596484661102290000e-001) (30, -5.88682889938354490000e-001) (31, 4.26262766122817990000e-002) (32, 1.00034214556217190000e-001) (33, 4.63607847690582280000e-001) (34, 1.72763645648956300000e-001) (35, 6.05573877692222600000e-002) (36, -3.99978570640087130000e-002) (37, -3.05746793746948240000e-001) (38, -7.64316260814666750000e-001) (39, 2.88631975650787350000e-001) (40, 5.32769560813903810000e-001) (41, 3.04994702339172360000e-001) (42, 9.20264780521392820000e-001) (43, -5.51470816135406490000e-002) (44, -3.41319799423217770000e-001) (45, -4.82926338911056520000e-001) (0, 6.09180390834808350000e-001) (1, 1.92146375775337220000e-001) (2, 1.61138856410980220000e+000) (3, 2.06028676033020020000e+000) (4, 2.36805820465087890000e+000) (5, 3.49246263504028320000e+000) (6, -8.21678519248962400000e-001) (7, 2.63975828886032100000e-001) (8, -1.59296751022338870000e+000) (9, -1.94113540649414060000e+000) (10, 3.57271075248718260000e+000) (11, -6.17501199245452880000e-001) (12, 1.90757304430007930000e-001) (13, -5.87813436985015870000e-001) (14, -5.21605074405670170000e-001) (15, -9.06731128692626950000e+000) (16, 3.63615453243255620000e-001) (17, -2.72609162330627440000e+000) (18, -1.52481183409690860000e-001) (19, -1.29200375080108640000e+000) (20, 1.08243763446807860000e+000) (21, 1.20761072635650630000e+000) (22, -2.74301457405090330000e+000) (23, -1.15215444564819340000e+000) (24, 3.57391700744628910000e+001) (25, 2.00989747047424320000e+000) (26, 1.48631274700164790000e+000) (27, 2.42223054170608520000e-001) (28, 4.24372941255569460000e-001) (29, 1.30264088511466980000e-002) (30, 8.23848724365234380000e-001) (31, 8.73402506113052370000e-002) (32, -2.78653115034103390000e-001) (33, -2.46470183134078980000e-001) (34, 2.60554194450378420000e+000) (35, 1.03804969787597660000e+000) (36, 5.98796725273132320000e-001) (37, 1.61149585247039790000e+000) (38, -8.72695624828338620000e-001) (39, 4.16311509907245640000e-002) (40, 1.78519320487976070000e+000) (41, 3.47332686185836790000e-001) (42, -2.74104952812194820000e-001) (43, -8.34472835063934330000e-001) (44, -2.44963452219963070000e-001) (45, -3.22313666343688960000e-001) (0, -6.41786456108093260000e-001) (1, 1.36568322777748110000e-001) (2, -1.41182631254196170000e-001) (3, 1.20916375890374180000e-002) (4, 1.80134013295173650000e-001) (5, -4.24422073364257810000e+000) (6, 6.49059936404228210000e-002) (7, 1.33334326744079590000e+000) (8, -2.17531546950340270000e-001) (9, -6.95121213793754580000e-002) (10, -2.71789121627807620000e+000) (11, 1.13065682351589200000e-001) (12, 3.76394122838974000000e-001) (13, -8.56655091047286990000e-002) (14, -4.61515069007873540000e-001) (15, 3.54195666313171390000e+000) (16, -4.64868694543838500000e-002) (17, 8.17997038364410400000e-001) (18, -7.93369889259338380000e-001) (19, 1.20462226867675780000e+000) (20, 5.53228914737701420000e-001) (21, 1.40216767787933350000e+000) (22, 1.23410642147064210000e+000) (23, -1.73233225941658020000e-001) (24, 3.06483238935470580000e-001) (25, -2.12766933441162110000e+000) (26, 4.01840835809707640000e-001) (27, 1.21315109729766850000e+000) (28, -3.07736307382583620000e-001) (29, -2.79566788673400880000e+000) (30, 2.66576170921325680000e+000) (31, -4.60396967828273770000e-002) (32, 7.88209855556488040000e-001) (33, 1.48776229470968250000e-002) (34, 1.10250484943389890000e+000) (35, 4.09701585769653320000e+000) (36, 3.70071113109588620000e-001) (37, 3.13693314790725710000e-001) (38, -4.89095002412796020000e-001) (39, 1.55472612380981450000e+000) (40, 5.66501822322607040000e-003) (41, -4.29828390479087830000e-002) (42, 3.25745195150375370000e-001) (43, -1.37896910309791560000e-001) (44, -2.25911244750022890000e-001) (45, 4.98106837272644040000e-001) (0, 1.01635634899139400000e+000) (1, 1.80424857139587400000e+000) (2, 3.20787739753723140000e+000) (3, 7.20852851867675780000e-001) (4, 1.73162901401519780000e+000) (5, 7.00804471969604490000e-001) (6, -3.32326054573059080000e-001) (7, -3.01058006286621090000e+001) (8, -5.51787436008453370000e-001) (9, 1.26497383117675780000e+001) (10, 3.35069566965103150000e-001) (11, 4.54801321029663090000e-001) (12, -3.33863288164138790000e-001) (13, 8.17532837390899660000e-001) (14, 1.13575637340545650000e+000) (15, -1.13070631027221680000e+000) (16, 8.16443324089050290000e-001) (17, 7.04432916641235350000e+000) (18, -1.98515653610229490000e+000) (19, 1.94705314636230470000e+001) (20, -2.26376056671142580000e+000) (21, -9.45613563060760500000e-001) (22, 3.42671704292297360000e+000) (23, -2.70654892921447750000e+000) (24, 2.03512344360351560000e+001) (25, -4.67404842376708980000e+000) (26, 1.64870369434356690000e+000) (27, 1.25310730934143070000e+000) (28, 4.91314440965652470000e-001) (29, -3.15119266510009770000e-001) (30, 1.26658499240875240000e+000) (31, 3.63954007625579830000e-001) (32, -8.47607970237731930000e-001) (33, -5.19416987895965580000e-001) (34, 1.65503144264221190000e+000) (35, -1.90396010875701900000e+000) (36, 2.59744018316268920000e-001) (37, -8.79902422428131100000e-001) (38, -5.38019500672817230000e-002) (39, -6.56789064407348630000e-001) (40, -8.17523598670959470000e-001) (41, 3.55216205120086670000e-001) (42, -1.02455937862396240000e+000) (43, -7.51399934291839600000e-001) (44, 3.98321598768234250000e-001) (45, 1.25812447071075440000e+000) (0, -2.48514389991760250000e+000) (1, 1.39288425445556640000e+000) (2, 1.83324560523033140000e-001) (3, 6.54553174972534180000e-001) (4, 7.80608505010604860000e-003) (5, -1.77246820926666260000e+000) (6, -3.52749556303024290000e-001) (7, 8.18381726741790770000e-001) (8, -3.37142258882522580000e-001) (9, -5.18200099468231200000e-001) (10, 1.28140842914581300000e+000) (11, 3.85616183280944820000e-001) (12, -8.81700962781906130000e-002) (13, -1.46081633865833280000e-002) (14, 1.70622304081916810000e-001) (15, -4.16516685485839840000e+000) (16, 7.63587832450866700000e-001) (17, 1.36270058155059810000e+000) (18, -3.03019672632217410000e-001) (19, 3.67207431793212890000e+000) (20, -9.50959563255310060000e-001) (21, -2.39375960081815720000e-002) (22, 3.88544344902038570000e+000) (23, -3.06383609771728520000e-001) (24, -5.44870078563690190000e-001) (25, 3.98036718368530270000e+000) (26, -4.44318771362304690000e-001) (27, -1.11605346202850340000e+000) (28, 2.99908429384231570000e-001) (29, 9.17697072029113770000e-001) (30, -7.25227147340774540000e-002) (31, 1.20550036430358890000e-001) (32, 5.34509897232055660000e-001) (33, -4.29064303636550900000e-001) (34, -1.07747673988342290000e-001) (35, 1.20841670036315920000e+000) (36, 2.59233266115188600000e-001) (37, 6.69294416904449460000e-001) (38, -4.61890473961830140000e-002) (39, 5.27112424373626710000e-001) (40, 4.14646291732788090000e+000) (41, -2.59300470352172850000e-001) (42, 6.20116055011749270000e-001) (43, 2.31384053826332090000e-001) (44, -1.64623081684112550000e+000) (45, 1.86966180801391600000e-001) (0, 2.10181450843811040000e+000) (1, -3.13002318143844600000e-001) (2, -9.27290856838226320000e-001) (3, 7.56905823945999150000e-002) (4, -1.41467213630676270000e+000) (5, 4.44555282592773440000e-001) (6, -1.09017476439476010000e-001) (7, -3.56576114892959590000e-001) (8, 7.74044513702392580000e-001) (9, 6.13075399398803710000e+000) (10, -1.16098046302795410000e+000) (11, 8.97381365299224850000e-001) (12, -2.20102477073669430000e+000) (13, 2.13584646582603450000e-001) (14, 2.20416605472564700000e-001) (15, 1.35701918601989750000e+000) (16, -5.18353320658206940000e-002) (17, -5.50459563732147220000e-001) (18, 3.60671669244766240000e-001) (19, -6.63477599620819090000e-001) (20, 9.35783982276916500000e-001) (21, 8.46224009990692140000e-001) (22, 6.82871878147125240000e-001) (23, -6.03600084781646730000e-001) (24, 4.86013603210449220000e+000) (25, -1.25439131259918210000e+000) (26, 1.52386069297790530000e+000) (27, -2.77479195594787600000e+000) (28, 7.73506239056587220000e-002) (29, 3.55887144804000850000e-001) (30, 3.07216000556945800000e+000) (31, 1.93863347172737120000e-001) (32, -8.05077925324440000000e-002) (33, -1.15862846374511720000e-001) (34, -3.72397691011428830000e-001) (35, 1.47856903076171870000e+000) (36, 2.97624636441469190000e-002) (37, 5.91328680515289310000e-001) (38, -1.87148377299308780000e-001) (39, 5.02781629562377930000e-001) (40, 2.14121174812316890000e+000) (41, 5.07062733173370360000e-001) (42, 6.08134448528289790000e-001) (43, -7.86566495895385740000e-001) (44, -4.64221864938735960000e-001) (45, -4.38646286725997920000e-001) (0, 2.01736569404602050000e+000) (1, -3.74116063117980960000e-001) (2, 1.33492454886436460000e-001) (3, -2.75025963783264160000e-001) (4, -4.25478592514991760000e-002) (5, 1.17833828926086430000e+000) (6, 2.63467937707901000000e-001) (7, 6.44161462783813480000e-001) (8, 5.68406619131565090000e-002) (9, 2.23220884799957280000e-001) (10, 3.30308526754379270000e-001) (11, -1.79293125867843630000e-001) (12, 5.91452717781066890000e-001) (13, -2.96799927949905400000e-001) (14, -1.27464130520820620000e-001) (15, 2.82330632209777830000e+000) (16, -1.29864931106567380000e+000) (17, 3.34519648551940920000e+000) (18, 5.25866784155368800000e-002) (19, 5.41757822036743160000e+000) (20, 3.66246551275253300000e-001) (21, -9.17025282979011540000e-002) (22, 2.58076786994934080000e+000) (23, 1.49061620235443120000e+000) (24, 5.39164781570434570000e+000) (25, -8.03161501884460450000e-001) (26, 1.61412373185157780000e-001) (27, 5.58387637138366700000e-001) (28, 4.91563349962234500000e-001) (29, -1.27673923969268800000e+000) (30, 1.17749500274658200000e+000) (31, -6.17363631725311280000e-001) (32, 1.78008210659027100000e+000) (33, 8.00271332263946530000e-001) (34, 2.63685679435729980000e+000) (35, -4.02683448791503910000e+000) (36, 3.24675750732421870000e+000) (37, 1.52162504196166990000e+000) (38, 4.72291618585586550000e-001) (39, -1.92968046665191650000e+000) (40, -3.05364847183227540000e+000) (41, 2.93648838996887210000e-001) (42, 1.52842187881469730000e+000) (43, -1.50157129392027850000e-002) (44, -3.00204849243164060000e+000) (45, 2.95989632606506350000e-001) (0, 2.18420720100402830000e+000) (1, -9.05009582638740540000e-002) (2, 1.01689979434013370000e-001) (3, -6.43560364842414860000e-002) (4, 8.12169909477233890000e-002) (5, 1.39830994606018070000e+000) (6, -9.11102652549743650000e-001) (7, 5.92388510704040530000e-002) (8, -1.43328046798706050000e+000) (9, 1.50920553132891650000e-002) (10, 2.56189250946044920000e+000) (11, -4.21353787183761600000e-001) (12, -4.71051037311553960000e-002) (13, -5.63903748989105220000e-001) (14, 1.90205097198486330000e-001) (15, 1.83060562610626220000e+000) (16, -1.73965990543365480000e-001) (17, 2.77908980846405030000e-001) (18, -1.81800410151481630000e-001) (19, 5.00565171241760250000e-001) (20, 5.62671041488647460000e+000) (21, -2.16929173469543460000e+000) (22, -1.80205687880516050000e-001) (23, 1.71094095706939700000e+000) (24, 2.02990484237670900000e+000) (25, 9.90913271903991700000e-001) (26, -1.10853028297424320000e+000) (27, -3.98315727710723880000e-001) (28, -5.13312458992004390000e-001) (29, 6.14560604095458980000e-001) (30, 1.74772012233734130000e+000) (31, -2.50510990619659420000e-001) (32, -7.99098908901214600000e-002) (33, 2.81287636607885360000e-002) (34, 1.24047942459583280000e-001) (35, -2.05238127708435060000e+000) (36, -9.03842598199844360000e-002) (37, -9.29947495460510250000e-001) (38, 9.77548539638519290000e-001) (39, -1.38169157505035400000e+000) (40, -3.57946729660034180000e+000) (41, -1.14894759654998780000e+000) (42, 9.40783500671386720000e-001) (43, -5.41376233100891110000e-001) (44, -1.10961234569549560000e+000) (45, -9.89308357238769530000e-002) (0, 1.35208916664123540000e+000) (1, 6.20793521404266360000e-001) (2, 7.28331804275512700000e-002) (3, 1.14747333526611330000e+000) (4, -4.70661818981170650000e-001) (5, 2.08679032325744630000e+000) (6, -5.88725686073303220000e-001) (7, -7.90550351142883300000e-001) (8, -2.46617889404296870000e+000) (9, -5.96854984760284420000e-001) (10, 1.55078101158142090000e+000) (11, -5.05763053894042970000e-001) (12, -2.99991697072982790000e-001) (13, -6.69256448745727540000e-001) (14, 7.01744616031646730000e-001) (15, -2.68702840805053710000e+000) (16, 5.78581523895263670000e+000) (17, 8.71705551147460940000e+001) (18, -1.31557762622833250000e+000) (19, 3.35441436767578130000e+001) (20, 1.64994132518768310000e+000) (21, -3.90144882202148440000e+001) (22, 2.08010345458984370000e+002) (23, 1.12046271562576290000e-001) (24, 1.55578750610351560000e+002) (25, -1.56300270557403560000e+000) (26, -4.41629439592361450000e-001) (27, 7.95128762722015380000e-001) (28, 2.70759731531143190000e-001) (29, -9.71736335754394530000e+000) (30, -2.34260501861572270000e+001) (31, -7.70696210861206050000e+000) (32, 1.27519674301147460000e+001) (33, 5.27555823326110840000e-001) (34, 5.03563106060028080000e-001) (35, -1.90360277891159060000e-001) (36, 2.45938587188720700000e+000) (37, 3.10262470245361330000e+001) (38, -1.31397294998168950000e+000) (39, 7.03934288024902340000e+000) (40, 1.48051500320434570000e-001) (41, -5.68563759326934810000e-001) (42, 1.97995078563690190000e+000) (43, 1.56158611178398130000e-001) (44, -4.03906917572021480000e+000) (45, 9.12599638104438780000e-002) (0, -3.62077236175537110000e+000) (1, 4.54553723335266110000e-001) (2, 5.20255923271179200000e-001) (3, -8.98549139499664310000e-001) (4, 2.19417476654052730000e+000) (5, -9.95594024658203130000e-001) (6, 5.49767673015594480000e-001) (7, 3.03429627418518070000e+000) (8, 1.32356705144047740000e-002) (9, -3.87533664703369140000e-001) (10, -1.09599852561950680000e+000) (11, 6.07644617557525630000e-001) (12, -6.07874095439910890000e-001) (13, 7.24610686302185060000e-001) (14, 1.19717264175415040000e+000) (15, -1.11859512329101560000e+000) (16, 6.80019974708557130000e-001) (17, 9.39068496227264400000e-001) (18, -6.74851834774017330000e-001) (19, 1.99467420578002930000e+000) (20, -2.39521288871765140000e+000) (21, 1.92433249950408940000e+000) (22, 4.51797008514404300000e+000) (23, -9.13064241409301760000e-001) (24, 1.69619750976562500000e+001) (25, 1.97404253482818600000e+000) (26, 9.39078271389007570000e-001) (27, -1.23351752758026120000e+000) (28, -1.36861085891723630000e-001) (29, 8.46833646297454830000e-001) (30, -7.40452229976654050000e-001) (31, 1.02859951555728910000e-001) (32, 1.70094475150108340000e-001) (33, -3.44844698905944820000e-001) (34, 6.68152794241905210000e-002) (35, -5.98454214632511140000e-002) (36, -2.44935631752014160000e-001) (37, 3.44013243913650510000e-001) (38, -2.94332683086395260000e-001) (39, -1.22071363031864170000e-001) (40, 1.70942580699920650000e+000) (41, 5.44842183589935300000e-002) (42, -2.99807220697402950000e-001) (43, -2.39296704530715940000e-001) (44, 1.46058559417724610000e+000) (45, 9.38471555709838870000e-002) (0, -2.34321765601634980000e-002) (1, 1.93910956382751460000e-001) (2, 2.82816618680953980000e-001) (3, -2.30258017778396610000e-001) (4, 1.99351295828819270000e-001) (5, -1.33317601680755620000e+000) (6, -1.09470784664154050000e+000) (7, 6.65514990687370300000e-002) (8, -1.45837247371673580000e+000) (9, -3.74438852071762080000e-001) (10, -3.52714467048645020000e+000) (11, 8.14442411065101620000e-002) (12, 4.55185085535049440000e-001) (13, -5.76319694519042970000e-001) (14, -1.10913801193237300000e+000) (15, 6.93212866783142090000e-001) (16, -5.06553590297698970000e-001) (17, 1.54803395271301270000e+000) (18, -7.02868998050689700000e-001) (19, 1.75501084327697750000e+000) (20, 1.61090517044067380000e+000) (21, -1.40153145790100100000e+000) (22, -5.21467304229736330000e+000) (23, 4.50546294450759890000e-001) (24, 1.69525337219238280000e+000) (25, -2.66544890403747560000e+000) (26, -1.04828643798828120000e+000) (27, -1.44930324554443360000e+001) (28, -9.84122604131698610000e-002) (29, 2.04623031616210940000e+001) (30, 4.04726076126098630000e+000) (31, -3.99092845618724820000e-002) (32, 9.49335191398859020000e-003) (33, 7.17427968978881840000e-001) (34, -8.19568455219268800000e-001) (35, 2.03560352325439450000e+000) (36, 2.71870821714401250000e-001) (37, -1.79101979732513430000e+000) (38, 3.65947335958480830000e-002) (39, -6.34570419788360600000e-001) (40, -9.80619549751281740000e-001) (41, -3.12226027250289920000e-001) (42, -5.66881477832794190000e-001) (43, 4.23066735267639160000e-001) (44, 9.40432667732238770000e-001) (45, 1.66056621074676510000e+000) (0, -4.18279600143432620000e+000) (1, 2.52156138420104980000e-001) (2, -3.01400095224380490000e-001) (3, 1.15904890000820160000e-001) (4, -5.02312302589416500000e-001) (5, 1.05366563796997070000e+000) (6, 4.22147568315267560000e-004) (7, -9.87114310264587400000e-001) (8, 7.71547555923461910000e-002) (9, 5.95810413360595700000e-001) (10, 6.37969791889190670000e-001) (11, -5.68980425596237180000e-002) (12, 1.19279479980468750000e+000) (13, 3.39210063219070430000e-001) (14, -1.92208981513977050000e+000) (15, -7.37775146961212160000e-001) (16, -6.44615471363067630000e-001) (17, 2.72555947303771970000e+000) (18, -3.59831273555755620000e-001) (19, 6.00212335586547850000e+000) (20, 1.49582338333129880000e+000) (21, 3.43286618590354920000e-002) (22, -1.60133056640625000000e+001) (23, 5.18312454223632810000e-001) (24, 2.92021656036376950000e+000) (25, 1.61701470613479610000e-001) (26, 7.63037919998168950000e-001) (27, -1.77919280529022220000e+000) (28, 6.97236478328704830000e-001) (29, 3.13671350479125980000e+000) (30, -9.85492110252380370000e-001) (31, -1.12652331590652470000e-001) (32, -1.37092614173889160000e+000) (33, 3.87726873159408570000e-001) (34, 2.19035357236862180000e-001) (35, 1.20597863197326660000e+000) (36, -1.14510381221771240000e+000) (37, -8.61439466476440430000e-001) (38, 1.73893952369689940000e+000) (39, 2.74039816856384280000e+000) (40, 1.09196305274963380000e+000) (41, 9.03381884098052980000e-001) (42, -1.71834692358970640000e-001) (43, -3.85625243186950680000e-001) (44, 1.50665149092674260000e-001) (45, 3.98477578163146970000e+000) (0, 1.57637059688568120000e+000) (1, -6.44137978553771970000e-001) (2, -5.56463658809661870000e-001) (3, -3.72264176607131960000e-001) (4, -5.74218630790710450000e-001) (5, 2.12323069572448730000e+000) (6, 4.96870398521423340000e-001) (7, -2.30091169476509090000e-001) (8, 6.99637293815612790000e-001) (9, 1.48954701423645020000e+000) (10, -6.59731850028038020000e-002) (11, -6.58453583717346190000e-001) (12, 1.19825983047485350000e+000) (13, -2.40041470527648930000e+000) (14, 1.07289729639887810000e-002) (15, -2.22916498780250550000e-001) (16, -3.51632028818130490000e-001) (17, 1.03423528671264650000e+001) (18, 9.12397742271423340000e-001) (19, 1.31435317993164060000e+001) (20, 3.67720270156860350000e+000) (21, -1.96316280364990230000e+001) (22, -2.11371631622314450000e+001) (23, 2.57453370094299320000e+000) (24, -1.50738019943237300000e+001) (25, -2.93395948410034180000e+000) (26, -4.77400350570678710000e+000) (27, 5.48121500015258790000e+000) (28, -3.18999600410461430000e+000) (29, 1.15738811492919920000e+001) (30, 1.66212892532348630000e+000) (31, 4.66400831937789920000e-001) (32, 1.40675634145736690000e-001) (33, 2.06327512860298160000e-001) (34, 5.36805093288421630000e-001) (35, -1.16982126235961910000e+000) (36, -1.39586174488067630000e+000) (37, 8.53236913681030270000e-001) (38, 5.59440040588378910000e+000) (39, -2.32133698463439940000e+000) (40, -1.09360146522521970000e+000) (41, -2.35999131202697750000e+000) (42, 6.52830526232719420000e-002) (43, 7.52263736724853520000e+000) (44, -2.02875025570392610000e-002) (45, 7.88244009017944340000e-001) (0, 4.62981343269348140000e-001) (1, 4.76430505514144900000e-001) (2, 9.47050809860229490000e-001) (3, 6.42993628978729250000e-001) (4, 2.10882759094238280000e+000) (5, 4.34889173507690430000e+000) (6, -2.76883751153945920000e-001) (7, 8.21464180946350100000e-001) (8, -1.87018185853958130000e-001) (9, -8.71623754501342770000e-001) (10, 5.20932197570800780000e-001) (11, 2.62475550174713130000e-001) (12, -4.47353869676589970000e-002) (13, 1.15141205489635470000e-001) (14, 3.99988442659378050000e-001) (15, 1.03316318988800050000e+000) (16, 1.42401576042175290000e+000) (17, 3.94380122423172000000e-001) (18, -2.04728126525878910000e-001) (19, 2.11705875396728520000e+000) (20, 2.40001177787780760000e+000) (21, -5.48623502254486080000e-001) (22, 1.16983473300933840000e+000) (23, 3.62339973449707030000e-001) (24, -5.59148597717285160000e+000) (25, -2.60286283493041990000e+000) (26, 8.50114822387695310000e-001) (27, 4.15433645248413090000e-001) (28, -4.55776333808898930000e-001) (29, 4.43968355655670170000e-001) (30, 5.32135128974914550000e-001) (31, 2.80456423759460450000e-001) (32, 1.07805512845516200000e-001) (33, -5.01833856105804440000e-001) (34, 2.70620942115783690000e-001) (35, -1.58419632911682130000e+000) (36, -1.12628370523452760000e-001) (37, 1.86922401189804080000e-001) (38, -2.03937795013189320000e-002) (39, -3.27432304620742800000e-001) (40, -2.97290468215942380000e+000) (41, -2.29566469788551330000e-001) (42, 7.13196694850921630000e-001) (43, 3.63148242235183720000e-001) (44, -2.74446189403533940000e-001) (45, 8.63953173160552980000e-001) (0, 1.88267081975936890000e-002) (1, 1.10676951706409450000e-001) (2, 2.57917135953903200000e-001) (3, 1.74483224749565120000e-001) (4, 2.75558739900588990000e-001) (5, -3.10179561376571660000e-001) (6, -3.49004060029983520000e-001) (7, -2.63955056667327880000e-001) (8, -5.42243301868438720000e-001) (9, -1.21013903617858890000e+000) (10, 8.65721762180328370000e-001) (11, 5.09193399921059610000e-003) (12, -1.88477672636508940000e-002) (13, 1.24398805201053620000e-001) (14, 7.81925022602081300000e-001) (15, 1.09353733062744140000e+000) (16, -1.66951477527618410000e-001) (17, -1.31569890975952150000e+001) (18, -1.94227561354637150000e-001) (19, -2.83884830474853520000e+001) (20, 2.40813517570495610000e+000) (21, -1.78401291370391850000e+000) (22, -1.48138458251953120000e+002) (23, 1.67927765846252440000e+000) (24, -1.72462158203125000000e+001) (25, 1.66886115074157710000e+000) (26, -9.14857760071754460000e-002) (27, 2.55637454986572270000e+001) (28, 1.05026209354400630000e+000) (29, 5.60431480407714840000e-001) (30, 6.21566772460937500000e-001) (31, -1.54520794749259950000e-001) (32, 4.19228792190551760000e-001) (33, 7.86518603563308720000e-002) (34, 2.67465859651565550000e-001) (35, 8.42135965824127200000e-001) (36, -9.46473240852355960000e-001) (37, 4.94271591305732730000e-002) (38, 2.11969256401062010000e+000) (39, -2.89574384689331050000e-001) (40, 1.94868898391723630000e+000) (41, -2.25254848599433900000e-001) (42, 7.25706100463867190000e-001) (43, 2.02226310968399050000e-001) (44, 1.17147371172904970000e-001) (45, 7.45364725589752200000e-001) (0, -2.74404108524322510000e-001) (1, 4.44873273372650150000e-001) (2, -2.84903049468994140000e-001) (3, 7.82406926155090330000e-001) (4, 1.85361541807651520000e-002) (5, 8.91072601079940800000e-002) (6, 8.27586948871612550000e-001) (7, -4.11098331212997440000e-001) (8, 1.09184348583221440000e+000) (9, -3.15556675195693970000e-001) (10, -3.08542579412460330000e-001) (11, 2.26276189088821410000e-001) (12, -7.69079864025115970000e-001) (13, 6.75929844379425050000e-001) (14, 3.23957175016403200000e-001) (15, -1.45560574531555180000e+000) (16, 1.41766464710235600000e+000) (17, 2.06807255744934080000e+000) (18, 3.07515766471624370000e-002) (19, 2.18730300664901730000e-001) (20, -2.77926898002624510000e+000) (21, 5.33476114273071290000e-001) (22, 4.09989690780639650000e+000) (23, -2.02971816062927250000e+000) (24, 1.31363735198974610000e+001) (25, 1.13624441623687740000e+000) (26, 1.98776257038116460000e+000) (27, -1.27837133407592770000e+001) (28, 8.26964080333709720000e-001) (29, 1.10194215774536130000e+001) (30, -4.38396990299224850000e-001) (31, 3.98863464593887330000e-001) (32, 2.26647639274597170000e+000) (33, -4.17450964450836180000e-001) (34, 3.20030212402343750000e+000) (35, 1.14562070369720460000e+000) (36, 5.40093421936035160000e-001) (37, 5.07438123226165770000e-001) (38, -2.20834568142890930000e-001) (39, -1.20484805107116700000e+000) (40, 1.13316702842712400000e+000) (41, 4.13307905197143550000e-001) (42, 4.04563665390014650000e-001) (43, -4.42268937826156620000e-001) (44, -3.13666725158691410000e+000) (45, 1.05806827545166020000e+000) (0, -1.50861108303070070000e+000) (1, 1.19798803329467770000e+000) (2, 9.46602046489715580000e-001) (3, 1.64781048893928530000e-001) (4, 1.35493528842926030000e+000) (5, 7.39253282546997070000e-001) (6, -5.90182058513164520000e-002) (7, 4.15781557559967040000e-001) (8, 1.54872119426727290000e-001) (9, -1.46986389160156250000e+000) (10, 1.73520803451538090000e+000) (11, 3.93871545791625980000e-001) (12, 5.81613555550575260000e-002) (13, 6.52571976184844970000e-001) (14, -2.01697006821632390000e-001) (15, -1.63625490665435790000e+000) (16, -5.64008235931396480000e-001) (17, -4.11031055450439450000e+000) (18, 2.09838554263114930000e-001) (19, -2.27799504995346070000e-001) (20, 7.85079896450042720000e-001) (21, 3.80770862102508540000e-001) (22, -1.87298023700714110000e+000) (23, -3.70085954666137700000e-001) (24, 4.12516355514526370000e+000) (25, 1.16996502876281740000e+000) (26, 8.10137033462524410000e-001) (27, 3.20954144001007080000e-001) (28, 2.17176005244255070000e-001) (29, -2.44497239589691160000e-001) (30, 1.42587113380432130000e+000) (31, 2.63074845075607300000e-001) (32, -2.27631258964538570000e+000) (33, 2.36890092492103580000e-001) (34, 4.96760177612304690000e+000) (35, 4.14781749248504640000e-001) (36, 7.61021077632904050000e-002) (37, -3.41115564107894900000e-001) (38, 6.68705767020583150000e-003) (39, -4.07213479280471800000e-001) (40, 1.43094468116760250000e+000) (41, 7.82891750335693360000e-001) (42, 9.73990038037300110000e-002) (43, -4.10301983356475830000e-001) (44, 3.98402929306030270000e-001) (45, -1.37429130077362060000e+000) (46, 1.11150348186492920000e+000) (47, 6.59390687942504880000e-001) (48, 7.06382691860198970000e-001) (49, 5.13919964432716370000e-002) (50, 1.89542162418365480000e+000) (51, -2.21350461244583130000e-001) (52, 2.75338351726531980000e-001) (53, 4.59405891597270970000e-002) (54, 4.22133773565292360000e-001) (55, -3.88647243380546570000e-002) (56, -5.48206388950347900000e-001) (57, -9.21771526336669920000e-002) (58, -1.54465198516845700000e+000) (59, 5.53981244564056400000e-001) (60, 1.87584340572357180000e+000) (61, 1.96634471416473390000e+000) (62, -4.88968312740325930000e-001) (63, -8.88993501663208010000e-001) (64, 1.20158664882183070000e-001) (65, 2.25535497069358830000e-001) (66, 3.39315235614776610000e-001) (67, 2.38308519124984740000e-001) (68, 2.21902817487716670000e-001) (69, 4.59581799805164340000e-002) (70, -6.88341796398162840000e-001) (71, 8.43489646911621090000e-001) (72, 2.63781309127807620000e-001) (73, -1.92630970478057860000e+000) (46, -1.35216042399406430000e-001) (47, -2.36986979842185970000e-001) (48, 4.47334915399551390000e-001) (49, 1.02580279111862180000e-001) (50, -1.61130696535110470000e-001) (51, 5.70636272430419920000e-001) (52, 5.82517743110656740000e-001) (53, -8.34490507841110230000e-002) (54, 9.65880572795867920000e-001) (55, -1.28446638584136960000e-001) (56, -2.73197084665298460000e-001) (57, 5.11250972747802730000e-001) (58, 6.25504255294799800000e-001) (59, 6.27151906490325930000e-001) (60, -2.11782515048980710000e-001) (61, 1.80339908599853520000e+000) (62, 3.55300903320312500000e-001) (63, -7.84584641456604000000e-001) (64, -3.24069917201995850000e-001) (65, 6.66593909263610840000e-002) (66, -1.09860014915466310000e+000) (67, 2.66075551509857180000e-001) (68, 1.22191742062568660000e-001) (69, -3.76795887947082520000e-001) (70, 1.98177075386047360000e+000) (71, 1.95430290699005130000e+000) (72, -2.18729570508003230000e-001) (73, 3.64716887474060060000e-001) (46, 3.77549320459365840000e-001) (47, -2.73481845855712890000e+000) (48, -1.06783199310302730000e+000) (49, 1.28630250692367550000e-001) (50, 6.57633900642395020000e-001) (51, 1.34886789321899410000e+001) (52, 1.87239378690719600000e-001) (53, 1.91984808444976810000e+000) (54, -1.07415246963500980000e+000) (55, 1.11951865255832670000e-002) (56, 3.97511780261993410000e-001) (57, -1.79210162162780760000e+000) (58, 2.32132339477539060000e+000) (59, -3.18650752305984500000e-001) (60, -2.33083993196487430000e-001) (61, -3.71526122093200680000e-001) (62, -7.54265844821929930000e-001) (63, 1.23085391521453860000e+000) (64, -3.67177248001098630000e-001) (65, -7.49048233032226560000e-001) (66, 1.29436516761779790000e+000) (67, 1.41298973560333250000e+000) (68, 6.41206741333007810000e-001) (69, -1.11616742610931400000e+000) (70, 5.63174962997436520000e+000) (71, -1.83974385261535640000e+000) (72, 1.36245831847190860000e-001) (73, -4.36047231778502460000e-003) (46, -1.07064336538314820000e-001) (47, 6.95791125297546390000e-001) (48, 1.33763909339904790000e-001) (49, -1.37134730815887450000e+000) (50, -1.34210085868835450000e+000) (51, -2.41024756431579590000e+000) (52, -4.48266148567199710000e-001) (53, -4.48929190635681150000e-001) (54, 7.51747190952301030000e-001) (55, 2.99710053950548170000e-002) (56, 2.13701415061950680000e+000) (57, 1.09765744209289550000e+000) (58, 1.58674538135528560000e+000) (59, 2.10335326194763180000e+000) (60, 2.08929014205932620000e+000) (61, -2.21105795353651050000e-002) (62, 1.50377833843231200000e+000) (63, -1.20214521884918210000e+000) (64, 1.31385707855224610000e+000) (65, 2.48769283294677730000e+000) (66, -1.89909791946411130000e+000) (67, -4.87041354179382320000e-001) (68, -3.51768821477890010000e-001) (69, -2.83899831771850590000e+000) (70, -1.01371014118194580000e+000) (71, 3.71366429328918460000e+000) (72, 1.00139522552490230000e+000) (73, 1.95771440863609310000e-001) (46, 5.57907968759536740000e-002) (47, 1.16649174690246580000e+000) (48, 7.54874050617218020000e-001) (49, -4.91410315036773680000e-001) (50, -4.44016367197036740000e-001) (51, -3.04568362236022950000e+000) (52, 8.67723748087883000000e-002) (53, -2.25891327857971190000e+000) (54, 8.52106332778930660000e-001) (55, 2.09273412823677060000e-001) (56, -8.46965461969375610000e-002) (57, 6.08003079891204830000e-001) (58, -3.13754618167877200000e-001) (59, 3.30533802509307860000e-001) (60, -2.44909361004829410000e-001) (61, 8.21131587028503420000e-001) (62, -8.85120034217834470000e-001) (63, -7.55161404609680180000e-001) (64, -3.73686283826828000000e-001) (65, 7.95643568038940430000e-001) (66, 5.03697991371154790000e-001) (67, -9.25975292921066280000e-002) (68, -3.56133282184600830000e-001) (69, -4.59568113088607790000e-001) (70, 4.48323816061019900000e-001) (71, 7.70424842834472660000e-001) (72, -2.28441044688224790000e-001) (73, -1.07222534716129300000e-002) (46, 6.64861917495727540000e-001) (47, 6.97838813066482540000e-002) (48, 2.79782056808471680000e+000) (49, -8.72731581330299380000e-002) (50, 1.12396478652954100000e+000) (51, 8.13634157180786130000e-001) (52, -7.45250284671783450000e-001) (53, 1.42814964056015010000e-001) (54, -4.46879714727401730000e-001) (55, 1.86863422393798830000e-001) (56, -1.00159406661987300000e+000) (57, -1.31348049640655520000e+000) (58, -1.18997228145599370000e+000) (59, -8.46411526203155520000e-001) (60, 6.52740061283111570000e-001) (61, 2.62210629880428310000e-002) (62, 4.34405267238616940000e-001) (63, 3.97177243232727050000e+000) (64, -3.84982883930206300000e-001) (65, -1.22662305831909180000e+000) (66, 2.37741351127624510000e-001) (67, 4.63955521583557130000e-001) (68, 2.42269128561019900000e-001) (69, 1.47233402729034420000e+000) (70, 2.17823103070259090000e-001) (71, -7.92010128498077390000e-002) (72, -4.88202750682830810000e-001) (73, 4.19997978210449220000e+000) (46, 1.32990747690200810000e-001) (47, -1.12046134471893310000e+000) (48, -3.35126757621765140000e-001) (49, 9.23934102058410640000e-001) (50, 1.03392219543457030000e+000) (51, 2.45141053199768070000e+000) (52, 3.48254472017288210000e-001) (53, 3.19174218177795410000e+000) (54, -1.27987504005432130000e+000) (55, -2.12267950177192690000e-001) (56, 4.27530646324157710000e-001) (57, -4.54112023115158080000e-001) (58, 8.52838397026062010000e-001) (59, 2.05562934279441830000e-001) (60, 1.08730375766754150000e+000) (61, -9.79287028312683110000e-001) (62, 1.02339577674865720000e+000) (63, 1.09235751628875730000e+000) (64, 4.38392758369445800000e-001) (65, -3.43002825975418090000e-001) (66, 4.78373527526855470000e-001) (67, 7.94942736625671390000e-001) (68, 5.47218143939971920000e-001) (69, -4.55646902322769170000e-001) (70, -4.34277892112731930000e-001) (71, -8.62031579017639160000e-001) (72, -7.94883538037538530000e-003) (73, 1.99323996901512150000e-001) (46, 2.71392613649368290000e-001) (47, -8.28579604625701900000e-001) (48, 9.59476709365844730000e-001) (49, 9.82257604598999020000e-001) (50, 1.43253314495086670000e+000) (51, 2.00574064254760740000e+000) (52, 7.37754702568054200000e-001) (53, 1.12976241111755370000e+000) (54, 4.93596754968166350000e-002) (55, -7.86905214190483090000e-002) (56, -2.20668125152587890000e+000) (57, -1.06956481933593750000e+000) (58, -1.66937661170959470000e+000) (59, -1.65816617012023930000e+000) (60, -1.13008379936218260000e+000) (61, 3.70926022529602050000e-001) (62, -1.83568978309631350000e+000) (63, 1.02858543395996090000e+000) (64, -9.60335850715637210000e-001) (65, -1.87193763256073000000e+000) (66, 1.18035006523132320000e+000) (67, 5.09450674057006840000e-001) (68, 8.45093727111816410000e-001) (69, 2.61580085754394530000e+000) (70, 1.10532450675964360000e+000) (71, -2.99396467208862300000e+000) (72, -1.09280729293823240000e+000) (73, -4.21022117137908940000e-001) (46, 1.40758261084556580000e-001) (47, 3.97278249263763430000e-001) (48, 2.90251225233078000000e-001) (49, -7.16522783041000370000e-002) (50, 1.92701607942581180000e-001) (51, 4.43377524614334110000e-001) (52, -9.06881451606750490000e-001) (53, -7.07073628902435300000e-001) (54, -7.89617538452148440000e-001) (55, 3.35717558860778810000e-001) (56, -2.58971154689788820000e-001) (57, -7.99905657768249510000e-002) (58, -1.70641943812370300000e-001) (59, -4.82447803020477290000e-001) (60, -1.20112633705139160000e+000) (61, 4.47964817285537720000e-001) (62, -8.43748822808265690000e-003) (63, 1.73911571502685550000e+000) (64, -1.99750944972038270000e-001) (65, -5.95472753047943120000e-001) (66, 6.00923478603363040000e-001) (67, -3.32104980945587160000e-001) (68, -2.94584304094314580000e-001) (69, 3.96789371967315670000e-001) (70, 4.37587350606918330000e-001) (71, -8.53958427906036380000e-001) (72, 6.98266804218292240000e-001) (73, -1.82616174221038820000e+000) (46, -1.88054636120796200000e-001) (47, 7.07521617412567140000e-001) (48, -1.58645719289779660000e-001) (49, -8.08195769786834720000e-001) (50, -9.51609671115875240000e-001) (51, -3.00134992599487300000e+000) (52, 2.87911713123321530000e-001) (53, -2.28187513351440430000e+000) (54, 7.99847915768623350000e-002) (55, 1.47341445088386540000e-001) (56, -1.76784336566925050000e-001) (57, 8.26525330543518070000e-001) (58, -1.80090799927711490000e-001) (59, 4.65798079967498780000e-002) (60, -7.57202684879302980000e-001) (61, 9.51053738594055180000e-001) (62, 2.37928166985511780000e-001) (63, -7.22373425960540770000e-001) (64, 1.73358857631683350000e-001) (65, 6.00298583507537840000e-001) (66, 6.42399132251739500000e-001) (67, -9.86701607704162600000e-001) (68, -8.22820842266082760000e-001) (69, -4.20386850833892820000e-001) (70, 5.19299209117889400000e-001) (71, 5.71701645851135250000e-001) (72, 4.80031788349151610000e-001) (73, 8.22073400020599370000e-001) (46, 2.25705727934837340000e-001) (47, 3.32211554050445560000e-001) (48, -2.61845171451568600000e-001) (49, 8.80454629659652710000e-002) (50, 4.20859128236770630000e-001) (51, 1.68158486485481260000e-001) (52, 6.97539448738098140000e-001) (53, 2.13076457381248470000e-001) (54, 1.61496803164482120000e-001) (55, -1.10095351934432980000e-001) (56, 2.98466477543115620000e-002) (57, 4.39730644226074220000e-001) (58, 2.58782982826232910000e-001) (59, 1.40829920768737790000e-001) (60, 7.85002946853637700000e-001) (61, 2.09261849522590640000e-001) (62, -8.28941166400909420000e-001) (63, -2.56311964988708500000e+000) (64, -3.58532011508941650000e-001) (65, 5.05966544151306150000e-001) (66, -2.28753894567489620000e-001) (67, -1.37271499261260030000e-002) (68, 2.44957342743873600000e-001) (69, -8.71517598628997800000e-001) (70, 3.43186497688293460000e-001) (71, -1.51601210236549380000e-001) (72, -2.81230568885803220000e-001) (73, -1.54684066772460940000e+000) (46, -2.80396670103073120000e-001) (47, 4.85532104969024660000e-001) (48, -1.39505612850189210000e+000) (49, 3.22273597121238710000e-002) (50, -1.69834956526756290000e-001) (51, -5.33501386642456050000e-001) (52, 2.91065096855163570000e-001) (53, 5.96235692501068120000e-003) (54, 4.93380844593048100000e-001) (55, -3.95209565758705140000e-002) (56, 9.44347754120826720000e-002) (57, 6.42562925815582280000e-001) (58, -1.96256709098815920000e+000) (59, 6.39665067195892330000e-001) (60, 8.64270746707916260000e-001) (61, 3.11196863651275630000e-001) (62, -1.84630692005157470000e-001) (63, -1.39925730228424070000e+000) (64, 4.79338556528091430000e-001) (65, 1.02197420597076420000e+000) (66, -4.54558461904525760000e-001) (67, -1.19131080806255340000e-001) (68, -1.40564247965812680000e-001) (69, -2.43479788303375240000e-001) (70, -7.40902662277221680000e-001) (71, 1.32358992099761960000e+000) (72, 4.71474885940551760000e-001) (73, -7.64728367328643800000e-001) (46, -5.78652396798133850000e-002) (47, -6.26030147075653080000e-001) (48, -3.10233801603317260000e-001) (49, 1.03773221373558040000e-001) (50, 3.90960387885570530000e-002) (51, -4.75909173488616940000e-001) (52, 1.42397165298461910000e+000) (53, 8.13812196254730220000e-001) (54, 1.35133016109466550000e+000) (55, -3.49927067756652830000e-001) (56, 4.07202988862991330000e-001) (57, 3.24666023254394530000e-001) (58, 8.56804788112640380000e-001) (59, 1.26691663265228270000e+000) (60, 2.96338200569152830000e+000) (61, 7.91117966175079350000e-001) (62, 4.66651648283004760000e-001) (63, -5.87123453617095950000e-001) (64, 1.49302482604980470000e-001) (65, 2.21983283758163450000e-001) (66, -4.71095204353332520000e-001) (67, 8.67314338684082030000e-002) (68, 2.34253883361816410000e-001) (69, -6.07133746147155760000e-001) (70, -9.69519674777984620000e-001) (71, 1.29994094371795650000e+000) (72, -5.41481196880340580000e-001) (73, -1.15250200033187870000e-001) (46, -1.30611630156636240000e-002) (47, -1.83835661411285400000e+000) (48, 5.03279209136962890000e-001) (49, 2.02260941267013550000e-001) (50, -1.04585304856300350000e-001) (51, -2.31883063912391660000e-001) (52, 3.12796056270599370000e-001) (53, 7.84883439540863040000e-001) (54, -3.42252440750598910000e-002) (55, 1.60338044166564940000e-001) (56, 1.37858137488365170000e-001) (57, 2.99326796084642410000e-002) (58, 2.24154710769653320000e+000) (59, 2.55293577909469600000e-001) (60, -5.67068517208099370000e-001) (61, -9.62922632694244380000e-001) (62, -4.44946289062500000000e-001) (63, 4.96894598007202150000e+000) (64, 1.80054068565368650000e-001) (65, 4.20631378889083860000e-001) (66, 6.22606754302978520000e-001) (67, 5.06861567497253420000e-001) (68, 9.81715321540832520000e-002) (69, -1.33112415671348570000e-001) (70, -2.28415906429290770000e-001) (71, 1.27994641661643980000e-001) (72, -3.30761998891830440000e-001) (73, 2.38583850860595700000e+000) (46, -1.52123481035232540000e-001) (47, 3.17261099815368650000e-001) (48, -6.38271749019622800000e-001) (49, 5.68516291677951810000e-002) (50, -1.92307725548744200000e-001) (51, 4.29026603698730470000e-001) (52, 4.48275990784168240000e-002) (53, -4.04064059257507320000e-001) (54, 4.24495518207550050000e-001) (55, -2.57648564875125890000e-002) (56, 6.47187352180480960000e-001) (57, 4.74240601062774660000e-001) (58, 1.11175119876861570000e+000) (59, 6.16168856620788570000e-001) (60, -7.30542600154876710000e-001) (61, 1.20516121387481690000e+000) (62, 7.84495770931243900000e-001) (63, -7.67227232456207280000e-001) (64, -2.56868362426757810000e-001) (65, 4.46721404790878300000e-001) (66, -3.31427812576293950000e-001) (67, -1.55815988779067990000e-001) (68, -1.51565223932266240000e-001) (69, -3.44548404216766360000e-001) (70, 1.52397656440734860000e+000) (71, 1.49436235427856450000e+000) (72, 9.56305921077728270000e-001) (73, 1.16078495979309080000e+000) (46, -2.66310989856719970000e-001) (47, 2.15104722976684570000e+000) (48, 8.43092918395996090000e-001) (49, 7.39480018615722660000e-001) (50, 1.79522618651390080000e-001) (51, -1.33735446929931640000e+001) (52, 6.62599563598632810000e-001) (53, 1.66511461138725280000e-002) (54, -5.51144732162356380000e-003) (55, -1.74645446240901950000e-002) (56, 2.65815079212188720000e-001) (57, 2.25863051414489750000e+000) (58, -2.27587771415710450000e+000) (59, 8.56836080551147460000e-001) (60, 1.25506103038787840000e+000) (61, 2.43449896574020390000e-001) (62, 9.14960741996765140000e-001) (63, -6.18241071701049800000e-001) (64, 1.02613115310668950000e+000) (65, 1.80394446849823000000e+000) (66, 4.82040733098983760000e-001) (67, -4.87595498561859130000e-001) (68, -1.31329387426376340000e-001) (69, 1.61961063742637630000e-001) (70, -5.65431833267211910000e+000) (71, 1.33176207542419430000e+000) (72, -5.36694526672363280000e-002) (73, 7.10362792015075680000e-001) (46, 3.20365875959396360000e-002) (47, -3.26755285263061520000e-001) (48, 6.27473771572113040000e-001) (49, -1.63755208253860470000e-001) (50, -5.03777265548706050000e-001) (51, -1.05671741068363190000e-001) (52, -4.82817977666854860000e-001) (53, 2.28470370173454280000e-001) (54, 9.33464288711547850000e-001) (55, 9.13737010955810550000e+000) (56, 1.84900358319282530000e-001) (57, -4.38165903091430660000e-001) (58, 1.22354185581207280000e+000) (59, -1.11806534230709080000e-001) (60, 6.63443282246589660000e-002) (61, -3.11983019113540650000e-001) (62, 1.06973850727081300000e+000) (63, -3.64275902509689330000e-001) (64, 3.01845407485961910000e+000) (65, 5.83037845790386200000e-002) (66, -4.80600260198116300000e-002) (67, -7.15890526771545410000e-001) (68, 1.59883629530668260000e-002) (69, 3.42783778905868530000e-001) (70, 2.71708101034164430000e-001) (71, -1.95275574922561650000e-001) (72, 2.21670433878898620000e-001) (73, -5.89454919099807740000e-002) (46, -9.45490419864654540000e-001) (47, -8.30468177795410160000e-001) (48, 1.22571778297424320000e+000) (49, 1.71687400341033940000e+000) (50, 1.13725196570158000000e-002) (51, -9.95595693588256840000e-001) (52, 7.28084623813629150000e-001) (53, 1.65137636661529540000e+000) (54, 2.34136724472045900000e+000) (55, -1.20176668167114260000e+001) (56, -6.80402219295501710000e-001) (57, -1.03509187698364260000e+000) (58, -7.90805935859680180000e-001) (59, 1.33895432949066160000e+000) (60, 2.17537689208984370000e+000) (61, 5.55248498916625980000e-001) (62, -8.09337198734283450000e-001) (63, 1.06065177917480470000e+000) (64, -3.27918148040771480000e+000) (65, 1.31647551059722900000e+000) (66, -2.23209500312805180000e+000) (67, 2.36760640144348140000e+000) (68, 1.38283705711364750000e+000) (69, 2.56078541278839110000e-001) (70, -2.48548698425292970000e+000) (71, -2.83709019422531130000e-001) (72, -2.59002947807312010000e+000) (73, -4.87700074911117550000e-001) (74, -3.38554799556732180000e-001) (75, -2.28271082043647770000e-001) (76, 6.09287834167480470000e+000) (77, 4.70657914876937870000e-001) (78, 1.63790297508239750000e+000) (79, 9.61958542466163640000e-002) (80, 2.60624670982360840000e+000) (81, 2.95820981264114380000e-001) (82, 2.64791518449783330000e-001) (83, 9.88631427288055420000e-001) (84, 1.16224908828735350000e+000) (85, 1.75752043724060060000e-001) (86, 2.49932020902633670000e-001) (87, 8.86798620223999020000e-001) (88, 1.46957814693450930000e-001) (89, 5.96469926834106450000e+000) (90, -7.20963403582572940000e-002) (91, -1.92270949482917790000e-002) (92, -1.84426978230476380000e-002) (74, -8.81155371665954590000e-001) (75, 1.20233714580535890000e+000) (76, -3.47503662109375000000e-001) (77, 2.83152651786804200000e+000) (78, 7.46659517288208010000e-001) (79, 1.35002648830413820000e+000) (80, -1.22811801731586460000e-001) (81, 3.29410338401794430000e+000) (82, 1.12919855117797850000e+000) (83, -6.95891022682189940000e-001) (84, 1.01125681400299070000e+000) (85, 1.31635546684265140000e+000) (86, 1.05494737625122070000e+000) (87, -2.37765759229660030000e-001) (88, -1.40021455287933350000e+000) (89, -1.18778608739376070000e-001) (90, 4.35100746154785160000e+000) (91, 4.35900974273681640000e+000) (92, 1.81808024644851680000e-001) 
