FANN_FLO_2.1
num_layers=4
learning_rate=0.700000
connection_rate=1.000000
network_type=0
learning_momentum=0.700000
training_algorithm=2
train_error_function=0
train_stop_function=0
cascade_output_change_fraction=0.010000
quickprop_decay=-0.000100
quickprop_mu=1.750000
rprop_increase_factor=1.200000
rprop_decrease_factor=0.500000
rprop_delta_min=0.000000
rprop_delta_max=50.000000
rprop_delta_zero=0.100000
cascade_output_stagnation_epochs=12
cascade_candidate_change_fraction=0.010000
cascade_candidate_stagnation_epochs=12
cascade_max_out_epochs=150
cascade_min_out_epochs=50
cascade_max_cand_epochs=150
cascade_min_cand_epochs=50
cascade_num_candidate_groups=2
bit_fail_limit=3.49999994039535520000e-001
cascade_candidate_limit=1.00000000000000000000e+003
cascade_weight_multiplier=4.00000005960464480000e-001
cascade_activation_functions_count=10
cascade_activation_functions=3 5 7 8 10 11 14 15 16 17 
cascade_activation_steepnesses_count=4
cascade_activation_steepnesses=2.50000000000000000000e-001 5.00000000000000000000e-001 7.50000000000000000000e-001 1.00000000000000000000e+000 
layer_sizes=49 33 17 3 
scale_included=1
scale_mean_in=1.349684 0.000934 0.120132 1.419371 0.000584 0.124881 1.415079 -0.000149 0.124895 1.368162 -0.001661 0.119358 1.369296 0.001917 0.124053 1.447348 0.001955 0.130319 1.448218 0.001552 0.130255 1.394340 0.000143 0.123253 1.369231 0.002186 0.124362 1.446151 0.002126 0.130462 1.446555 0.001925 0.130112 1.393223 0.000973 0.122929 1.350992 0.002114 0.120374 1.419873 0.001815 0.125074 1.416447 0.001688 0.124945 1.367373 0.001329 0.119274 
scale_deviation_in=0.980050 0.479644 0.549418 0.938310 0.497108 0.555876 0.941477 0.496741 0.554252 0.976645 0.486539 0.543284 0.967423 0.483382 0.556154 0.911371 0.501652 0.564017 0.910829 0.501961 0.563467 0.960835 0.491469 0.551980 0.970021 0.484236 0.555976 0.913959 0.501880 0.563501 0.913153 0.502214 0.563252 0.961808 0.491782 0.551728 0.981877 0.480621 0.548942 0.939190 0.497415 0.554746 0.942449 0.496824 0.553600 0.978232 0.486543 0.542571 
scale_new_min_in=-1.000000 -1.000000 -1.000000 -1.000000 -1.000000 -1.000000 -1.000000 -1.000000 -1.000000 -1.000000 -1.000000 -1.000000 -1.000000 -1.000000 -1.000000 -1.000000 -1.000000 -1.000000 -1.000000 -1.000000 -1.000000 -1.000000 -1.000000 -1.000000 -1.000000 -1.000000 -1.000000 -1.000000 -1.000000 -1.000000 -1.000000 -1.000000 -1.000000 -1.000000 -1.000000 -1.000000 -1.000000 -1.000000 -1.000000 -1.000000 -1.000000 -1.000000 -1.000000 -1.000000 -1.000000 -1.000000 -1.000000 -1.000000 
scale_factor_in=1.000000 1.000000 1.000000 1.000000 1.000000 1.000000 1.000000 1.000000 1.000000 1.000000 1.000000 1.000000 1.000000 1.000000 1.000000 1.000000 1.000000 1.000000 1.000000 1.000000 1.000000 1.000000 1.000000 1.000000 1.000000 1.000000 1.000000 1.000000 1.000000 1.000000 1.000000 1.000000 1.000000 1.000000 1.000000 1.000000 1.000000 1.000000 1.000000 1.000000 1.000000 1.000000 1.000000 1.000000 1.000000 1.000000 1.000000 1.000000 
scale_mean_out=-0.002834 0.048555 
scale_deviation_out=0.790423 1.057311 
scale_new_min_out=-1.000000 -1.000000 
scale_factor_out=1.000000 1.000000 
neurons (num_inputs, activation_function, activation_steepness)=(0, 0, 0.00000000000000000000e+000) (0, 0, 0.00000000000000000000e+000) (0, 0, 0.00000000000000000000e+000) (0, 0, 0.00000000000000000000e+000) (0, 0, 0.00000000000000000000e+000) (0, 0, 0.00000000000000000000e+000) (0, 0, 0.00000000000000000000e+000) (0, 0, 0.00000000000000000000e+000) (0, 0, 0.00000000000000000000e+000) (0, 0, 0.00000000000000000000e+000) (0, 0, 0.00000000000000000000e+000) (0, 0, 0.00000000000000000000e+000) (0, 0, 0.00000000000000000000e+000) (0, 0, 0.00000000000000000000e+000) (0, 0, 0.00000000000000000000e+000) (0, 0, 0.00000000000000000000e+000) (0, 0, 0.00000000000000000000e+000) (0, 0, 0.00000000000000000000e+000) (0, 0, 0.00000000000000000000e+000) (0, 0, 0.00000000000000000000e+000) (0, 0, 0.00000000000000000000e+000) (0, 0, 0.00000000000000000000e+000) (0, 0, 0.00000000000000000000e+000) (0, 0, 0.00000000000000000000e+000) (0, 0, 0.00000000000000000000e+000) (0, 0, 0.00000000000000000000e+000) (0, 0, 0.00000000000000000000e+000) (0, 0, 0.00000000000000000000e+000) (0, 0, 0.00000000000000000000e+000) (0, 0, 0.00000000000000000000e+000) (0, 0, 0.00000000000000000000e+000) (0, 0, 0.00000000000000000000e+000) (0, 0, 0.00000000000000000000e+000) (0, 0, 0.00000000000000000000e+000) (0, 0, 0.00000000000000000000e+000) (0, 0, 0.00000000000000000000e+000) (0, 0, 0.00000000000000000000e+000) (0, 0, 0.00000000000000000000e+000) (0, 0, 0.00000000000000000000e+000) (0, 0, 0.00000000000000000000e+000) (0, 0, 0.00000000000000000000e+000) (0, 0, 0.00000000000000000000e+000) (0, 0, 0.00000000000000000000e+000) (0, 0, 0.00000000000000000000e+000) (0, 0, 0.00000000000000000000e+000) (0, 0, 0.00000000000000000000e+000) (0, 0, 0.00000000000000000000e+000) (0, 0, 0.00000000000000000000e+000) (0, 0, 0.00000000000000000000e+000) (49, 5, 5.00000000000000000000e-001) (49, 5, 5.00000000000000000000e-001) (49, 5, 5.00000000000000000000e-001) (49, 5, 5.00000000000000000000e-001) (49, 5, 5.00000000000000000000e-001) (49, 5, 5.00000000000000000000e-001) (49, 5, 5.00000000000000000000e-001) (49, 5, 5.00000000000000000000e-001) (49, 5, 5.00000000000000000000e-001) (49, 5, 5.00000000000000000000e-001) (49, 5, 5.00000000000000000000e-001) (49, 5, 5.00000000000000000000e-001) (49, 5, 5.00000000000000000000e-001) (49, 5, 5.00000000000000000000e-001) (49, 5, 5.00000000000000000000e-001) (49, 5, 5.00000000000000000000e-001) (49, 5, 5.00000000000000000000e-001) (49, 5, 5.00000000000000000000e-001) (49, 5, 5.00000000000000000000e-001) (49, 5, 5.00000000000000000000e-001) (49, 5, 5.00000000000000000000e-001) (49, 5, 5.00000000000000000000e-001) (49, 5, 5.00000000000000000000e-001) (49, 5, 5.00000000000000000000e-001) (49, 5, 5.00000000000000000000e-001) (49, 5, 5.00000000000000000000e-001) (49, 5, 5.00000000000000000000e-001) (49, 5, 5.00000000000000000000e-001) (49, 5, 5.00000000000000000000e-001) (49, 5, 5.00000000000000000000e-001) (49, 5, 5.00000000000000000000e-001) (49, 5, 5.00000000000000000000e-001) (0, 5, 0.00000000000000000000e+000) (33, 5, 5.00000000000000000000e-001) (33, 5, 5.00000000000000000000e-001) (33, 5, 5.00000000000000000000e-001) (33, 5, 5.00000000000000000000e-001) (33, 5, 5.00000000000000000000e-001) (33, 5, 5.00000000000000000000e-001) (33, 5, 5.00000000000000000000e-001) (33, 5, 5.00000000000000000000e-001) (33, 5, 5.00000000000000000000e-001) (33, 5, 5.00000000000000000000e-001) (33, 5, 5.00000000000000000000e-001) (33, 5, 5.00000000000000000000e-001) (33, 5, 5.00000000000000000000e-001) (33, 5, 5.00000000000000000000e-001) (33, 5, 5.00000000000000000000e-001) (33, 5, 5.00000000000000000000e-001) (0, 5, 0.00000000000000000000e+000) (17, 0, 5.00000000000000000000e-001) (17, 0, 5.00000000000000000000e-001) (0, 0, 0.00000000000000000000e+000) 
connections (connected_to_neuron, weight)=(0, -8.65953743457794190000e-001) (1, -2.63812422752380370000e+000) (2, -5.11185169219970700000e-001) (3, -1.02683877944946290000e+000) (4, 1.67552280426025390000e+000) (5, -1.46967136859893800000e+000) (6, 4.63879674673080440000e-001) (7, -3.86851012706756590000e-001) (8, -5.06772577762603760000e-001) (9, 2.95853829383850100000e+000) (10, 3.24175047874450680000e+000) (11, 2.04650568962097170000e+000) (12, -7.04437851905822750000e-001) (13, -1.51376855373382570000e+000) (14, -3.49250006675720210000e+000) (15, 4.25318807363510130000e-001) (16, -2.95636439323425290000e+000) (17, 1.67635723948478700000e-001) (18, 7.26163744926452640000e-001) (19, 6.51194763183593750000e+000) (20, 2.48975276947021480000e+000) (21, 2.83221697807312010000e+000) (22, -5.07639789581298830000e+000) (23, -3.59058737754821780000e+000) (24, -1.21846508979797360000e+000) (25, 2.92708158493041990000e+000) (26, 1.92378425598144530000e+000) (27, 1.37481868267059330000e+000) (28, -2.13916420936584470000e+000) (29, -7.52422332763671880000e+000) (30, 1.63285064697265620000e+000) (31, -5.79699563980102540000e+000) (32, 3.16962933540344240000e+000) (33, 1.70692729949951170000e+000) (34, 6.07926893234252930000e+000) (35, 2.45554208755493160000e+000) (36, -4.68894749879837040000e-001) (37, -1.00422155857086180000e+000) (38, 1.89373624324798580000e+000) (39, -5.68023681640625000000e-001) (40, 1.42605915665626530000e-001) (41, -4.34350460767745970000e-001) (42, 1.64387673139572140000e-001) (43, 5.46888780593872070000e+000) (44, 9.85122680664062500000e-001) (45, 2.70910191535949710000e+000) (46, -4.73173046112060550000e+000) (47, -1.83927750587463380000e+000) (48, 5.53581762313842770000e+000) (0, -1.32363748550415040000e+000) (1, 2.40143346786499020000e+000) (2, -5.67462980747222900000e-001) (3, -3.35231685638427730000e+000) (4, -1.08843994140625000000e+000) (5, -4.07108426094055180000e-001) (6, -1.34310340881347660000e+000) (7, 6.79982483386993410000e-001) (8, -1.46462190151214600000e+000) (9, -3.26481938362121580000e+000) (10, -3.75058978796005250000e-001) (11, 3.44933056831359860000e+000) (12, -4.47669553756713870000e+000) (13, -2.74722552299499510000e+000) (14, -1.61579525470733640000e+000) (15, -2.28956073522567750000e-001) (16, 1.16518390178680420000e+000) (17, 1.95831215381622310000e+000) (18, -1.58710801601409910000e+000) (19, -1.23397707939147950000e-001) (20, -1.01324689388275150000e+000) (21, 2.27554917335510250000e+000) (22, 6.22816562652587890000e-001) (23, -2.03410100936889650000e+000) (24, -2.61168509721755980000e-001) (25, 1.66242241859436040000e+000) (26, 9.84283804893493650000e-001) (27, -6.79097533226013180000e-001) (28, 1.19832873344421390000e-001) (29, -1.29747003316879270000e-001) (30, 2.46056199073791500000e+000) (31, -1.30380558967590330000e+000) (32, 2.99341225624084470000e+000) (33, 2.68381744623184200000e-001) (34, 1.54479992389678960000e+000) (35, 2.53924465179443360000e+000) (36, -6.00556850433349610000e-001) (37, 7.99331068992614750000e-001) (38, -9.33764725923538210000e-002) (39, 1.12021088600158690000e+000) (40, -3.30459475517272950000e+000) (41, -4.93802130222320560000e-001) (42, -7.14578151702880860000e-001) (43, -3.27508747577667240000e-001) (44, 1.07516145706176760000e+000) (45, -2.88761675357818600000e-001) (46, 8.16513240337371830000e-001) (47, -5.93904793262481690000e-001) (48, -2.21819615364074710000e+000) (0, -6.73656702041625980000e-001) (1, 5.95750689506530760000e-001) (2, -1.50189146399497990000e-001) (3, 4.71913993358612060000e-001) (4, -4.60402339696884160000e-001) (5, 9.04928565025329590000e-001) (6, -3.71247500181198120000e-001) (7, 5.85506081581115720000e-001) (8, -1.31742894649505620000e-001) (9, 7.96924680471420290000e-002) (10, 4.74266678094863890000e-001) (11, -7.48889207839965820000e-001) (12, -1.66098862886428830000e-001) (13, -3.71094763278961180000e-001) (14, -1.81091710925102230000e-001) (15, -1.69572138786315920000e+000) (16, 6.74391150474548340000e-001) (17, -1.10449206829071040000e+000) (18, 1.20521450042724610000e+000) (19, -9.81043100357055660000e-001) (20, 6.44187569618225100000e-001) (21, 4.75145292282104490000e+000) (22, 2.25966513156890870000e-001) (23, 5.57926833629608150000e-001) (24, 8.41769754886627200000e-001) (25, 5.11074699461460110000e-002) (26, -1.39361783862113950000e-001) (27, -2.77323460578918460000e+000) (28, -8.82561445236206050000e-001) (29, 5.43902218341827390000e-001) (30, 8.46103355288505550000e-002) (31, 2.80434370040893550000e-001) (32, 1.56367850303649900000e+000) (33, -7.75218129158020020000e-001) (34, -8.34013819694519040000e-001) (35, -1.37694096565246580000e+000) (36, 1.29082888364791870000e-001) (37, -2.76610460132360460000e-002) (38, -6.07573240995407100000e-002) (39, 8.19940090179443360000e-001) (40, 3.49626272916793820000e-001) (41, -6.99753165245056150000e-002) (42, -5.20276464521884920000e-002) (43, -2.05691307783126830000e-001) (44, -1.24253404140472410000e+000) (45, -1.58392459154129030000e-001) (46, 3.19663822650909420000e-001) (47, 1.49363255500793460000e+000) (48, -9.11048126220703120000e+000) (0, -9.18571472167968750000e-001) (1, -1.50930726528167720000e+000) (2, -2.16019339859485630000e-004) (3, -8.08342322707176210000e-002) (4, 7.11389064788818360000e-001) (5, 5.67076861858367920000e-001) (6, -1.48950505256652830000e+000) (7, -1.13985157012939450000e+000) (8, 1.20957171916961670000e+000) (9, -6.79156243801116940000e-001) (10, 8.74255239963531490000e-001) (11, -1.44852840900421140000e+000) (12, 1.26111388206481930000e-001) (13, 9.40215468406677250000e-001) (14, 7.81688153743743900000e-001) (15, 4.16202843189239500000e-001) (16, -5.94235324859619140000e+000) (17, -3.02342629432678220000e+000) (18, -1.69262838363647460000e+000) (19, -1.22181711196899410000e+001) (20, -4.40244197845458980000e+000) (21, -1.91954720020294190000e+000) (22, 4.12599277496337890000e+000) (23, 2.27335119247436520000e+000) (24, 2.09364485740661620000e+000) (25, -1.03412032127380370000e+000) (26, -1.08746874332427980000e+000) (27, 2.47465705871582030000e+000) (28, -2.33513045310974120000e+000) (29, -4.86142826080322270000e+000) (30, 1.85875341296195980000e-001) (31, 3.78987526893615720000e+000) (32, 6.57129526138305660000e-001) (33, -6.58053457736968990000e-001) (34, -5.01432456076145170000e-002) (35, -1.08403909206390380000e+000) (36, 2.38524484634399410000e+000) (37, 9.70506548881530760000e-001) (38, -2.89766758680343630000e-001) (39, -1.60927653312683110000e-001) (40, -5.73190927505493160000e+000) (41, 7.32873320579528810000e-001) (42, 3.99333894252777100000e-001) (43, 2.48413968086242680000e+000) (44, 4.43883597850799560000e-001) (45, 1.74907016754150390000e+000) (46, -1.84675729274749760000e+000) (47, -1.51110142469406130000e-001) (48, 4.50592547655105590000e-001) (0, 2.04900956153869630000e+000) (1, -8.76278996467590330000e-001) (2, -4.31224536895751950000e+000) (3, 6.17742395401000980000e+000) (4, -3.83094757795333860000e-001) (5, 6.14918470382690430000e+000) (6, -3.26101469993591310000e+000) (7, 3.01478862762451170000e+000) (8, -5.46301507949829100000e+000) (9, 1.99188783764839170000e-001) (10, 8.72032833099365230000e+000) (11, 6.22307682037353520000e+000) (12, 3.50378847122192380000e+000) (13, 5.11084699630737300000e+000) (14, 5.12251377105712890000e+000) (15, 1.98747888207435610000e-001) (16, 8.97951126098632810000e-001) (17, -7.85518598556518550000e+000) (18, 7.71189570426940920000e-001) (19, -1.14359178543090820000e+001) (20, 3.55316948890686040000e+000) (21, 4.21079359948635100000e-002) (22, -9.35539245605468750000e+000) (23, -9.40086650848388670000e+000) (24, -3.44546604156494140000e+000) (25, -2.93241620063781740000e+000) (26, 9.05397295951843260000e-001) (27, 2.28310599923133850000e-002) (28, 2.59872913360595700000e+000) (29, 1.21546554565429690000e+000) (30, 7.85023629665374760000e-001) (31, 1.02032630920410160000e+002) (32, 4.10584754943847660000e+001) (33, -1.41909742355346680000e+000) (34, -1.37020158767700200000e+001) (35, -3.44065284729003910000e+000) (36, 1.85697817802429200000e+000) (37, 2.31163218617439270000e-001) (38, 2.64430832862854000000e+000) (39, -1.08259940147399900000e+000) (40, -5.00702857971191410000e+000) (41, 1.71088695526123050000e-001) (42, -1.14770579338073730000e+000) (43, 2.51977996826171870000e+001) (44, 6.52861738204956050000e+000) (45, -5.26393890380859380000e+000) (46, 4.39711380004882810000e+000) (47, 9.28419589996337890000e+000) (48, 1.92150259017944340000e+000) (0, 3.42168062925338750000e-001) (1, 1.80939590791240330000e-004) (2, -5.58524485677480700000e-003) (3, 3.83097618818283080000e-001) (4, -4.49773967266082760000e-001) (5, -3.14288854598999020000e-001) (6, -1.33057639002799990000e-001) (7, 3.45706880092620850000e-001) (8, 3.57971251010894780000e-001) (9, -1.69836655259132390000e-001) (10, -1.60039365291595460000e-001) (11, -5.25683909654617310000e-003) (12, 3.63673686981201170000e-001) (13, -4.02286440134048460000e-001) (14, 2.12715998291969300000e-001) (15, 8.14414024353027340000e-001) (16, 4.08333778381347660000e-001) (17, 2.71122843027114870000e-001) (18, 2.59183764457702640000e+000) (19, -7.78970837593078610000e-001) (20, -6.20723366737365720000e-001) (21, -3.37083905935287480000e-001) (22, 1.30753293633461000000e-001) (23, 1.47875919938087460000e-001) (24, 9.68754440546035770000e-002) (25, 5.22196054458618160000e-001) (26, 1.15648722276091580000e-002) (27, 1.08759737014770510000e+000) (28, -4.92977738380432130000e-001) (29, -7.94376373291015630000e-001) (30, 1.37994289398193360000e+000) (31, 2.25022546947002410000e-002) (32, 1.73107787966728210000e-001) (33, -4.62389796972274780000e-001) (34, 4.28168922662734990000e-002) (35, -3.02125990390777590000e-001) (36, 4.28472846746444700000e-001) (37, -4.22121047973632810000e-001) (38, -2.46770709753036500000e-001) (39, 1.04981355369091030000e-001) (40, 3.41947227716445920000e-001) (41, 5.01753032207489010000e-001) (42, -1.85949817299842830000e-001) (43, -2.11133152246475220000e-001) (44, -2.03954651951789860000e-001) (45, -8.82249474525451660000e-002) (46, 1.18764542043209080000e-001) (47, 2.42762371897697450000e-001) (48, 9.70416355133056640000e+000) (0, -2.01423123478889470000e-001) (1, 2.38750055432319640000e-002) (2, 1.01947434246540070000e-001) (3, -1.23568223789334300000e-002) (4, -1.75106421113014220000e-001) (5, -6.92455291748046880000e-001) (6, 2.05049365758895870000e-001) (7, -8.09653326869010930000e-002) (8, 5.76284110546112060000e-001) (9, -1.25871226191520690000e-001) (10, 8.46307724714279170000e-002) (11, -6.24046742916107180000e-001) (12, -2.67234742641448970000e-002) (13, 3.38108271360397340000e-001) (14, -1.94014087319374080000e-001) (15, 5.51332235336303710000e-001) (16, -1.84093371033668520000e-001) (17, 1.12411081790924070000e+000) (18, 9.23465490341186520000e-001) (19, 2.97882616519927980000e-001) (20, -9.57798838615417480000e-001) (21, -4.48569096624851230000e-002) (22, -2.91424453258514400000e-001) (23, 3.99624109268188480000e-001) (24, 2.44832709431648250000e-001) (25, -2.01454520225524900000e-001) (26, 4.02896285057067870000e-001) (27, 6.18825614452362060000e-001) (28, 2.01333798468112950000e-002) (29, -9.60585296154022220000e-001) (30, 9.61096361279487610000e-002) (31, -1.15208280086517330000e+000) (32, 2.56244167685508730000e-002) (33, -5.31032830476760860000e-002) (34, 2.87920653820037840000e-001) (35, 1.99560239911079410000e-001) (36, -5.46270124614238740000e-002) (37, -2.45988294482231140000e-002) (38, 5.14047369360923770000e-002) (39, -1.78797781467437740000e-001) (40, 7.16799795627593990000e-001) (41, -4.14675325155258180000e-001) (42, -2.31437492370605470000e+000) (43, -1.00532695651054380000e-001) (44, 2.14368656277656560000e-001) (45, -3.41573148965835570000e-001) (46, 1.40056177973747250000e-001) (47, 4.19281750917434690000e-001) (48, 6.26644182205200200000e+000) (0, 7.90727585554122920000e-002) (1, 2.54940956830978390000e-001) (2, 2.46790543198585510000e-001) (3, -1.22703862190246580000e+000) (4, 1.31810128688812260000e-001) (5, -1.16103506088256840000e+000) (6, 1.18943743407726290000e-001) (7, 2.25262477993965150000e-001) (8, -2.45039373636245730000e-001) (9, -5.51051378250122070000e-001) (10, 9.05947804450988770000e-001) (11, 1.47362697124481200000e+000) (12, -2.09255766868591310000e+000) (13, -1.16273820400238040000e+000) (14, -9.86775755882263180000e-001) (15, -9.02546942234039310000e-001) (16, -5.85431694984436040000e-001) (17, 2.90091705322265620000e+000) (18, 1.31151998043060300000e+000) (19, -1.17323589324951170000e+000) (20, -3.53134274482727050000e-001) (21, -1.22702324390411380000e+000) (22, 7.76145875453948970000e-001) (23, -5.52474796772003170000e-001) (24, -7.23140716552734380000e-001) (25, -8.62343683838844300000e-002) (26, -5.69275379180908200000e-001) (27, -2.08648753166198730000e+000) (28, -4.15412753820419310000e-001) (29, 1.37219619750976560000e+000) (30, -1.28281617164611820000e+000) (31, 1.88716840744018550000e+000) (32, -4.46890878677368160000e+000) (33, 5.46294376254081730000e-002) (34, -1.07971417903900150000e+000) (35, 1.05004405975341800000e+000) (36, 3.81453633308410640000e-001) (37, 1.02825069427490230000e+000) (38, 1.05280123651027680000e-001) (39, 2.25615546107292180000e-001) (40, 4.17532384395599370000e-001) (41, 1.45196712017059330000e+000) (42, 9.67587888240814210000e-001) (43, -1.15039789676666260000e+000) (44, 1.03339028358459470000e+000) (45, -8.51339027285575870000e-002) (46, 4.85406011343002320000e-001) (47, 7.60530412197113040000e-001) (48, -1.41908001899719240000e+000) (0, -2.87350237369537350000e-001) (1, 1.00175745785236360000e-001) (2, 6.20876215398311610000e-002) (3, 1.35850921273231510000e-001) (4, -6.68647289276123050000e-001) (5, 2.33805194497108460000e-001) (6, 1.93913984298706050000e+000) (7, 1.68209087848663330000e+000) (8, -6.61578848958015440000e-002) (9, 7.07105100154876710000e-001) (10, -1.95463255047798160000e-001) (11, -7.93784379959106450000e-001) (12, -3.83550822734832760000e-001) (13, -2.07563430070877080000e-001) (14, -5.48838913440704350000e-001) (15, -1.39696076512336730000e-001) (16, 7.20895528793334960000e-001) (17, -2.53970235586166380000e-001) (18, 2.06658339500427250000e+000) (19, -1.74964165687561040000e+000) (20, 9.68452334403991700000e-001) (21, 7.24946737289428710000e-001) (22, 7.48575687408447270000e-001) (23, 5.58117508888244630000e-001) (24, -4.87701326608657840000e-001) (25, 1.10293097794055940000e-001) (26, 5.57980418205261230000e-001) (27, -1.62399864196777340000e+000) (28, -5.73300957679748540000e-001) (29, -9.42828118801116940000e-001) (30, 1.95453393459320070000e+000) (31, 7.00722634792327880000e-001) (32, -3.96909534931182860000e-001) (33, -1.25953070819377900000e-002) (34, 3.03092926740646360000e-001) (35, 3.60319525003433230000e-001) (36, -3.85777145624160770000e-001) (37, 1.87005892395973210000e-001) (38, -4.53707873821258540000e-001) (39, -2.61653393507003780000e-001) (40, -4.86335873603820800000e-001) (41, 3.36459308862686160000e-001) (42, 1.51213777065277100000e+000) (43, 4.44828629493713380000e-001) (44, 1.30904495716094970000e-001) (45, 5.84408417344093320000e-002) (46, -4.65977162122726440000e-001) (47, -1.41524642705917360000e-001) (48, 1.08642730712890630000e+001) (0, 7.38468468189239500000e-001) (1, 2.38620138168334960000e+000) (2, -2.12394332885742190000e+000) (3, 3.01415562629699710000e+000) (4, 3.36438512802124020000e+000) (5, 3.79434084892272950000e+000) (6, 2.92126464843750000000e+000) (7, -2.42963814735412600000e+000) (8, 2.26578474044799800000e+000) (9, -6.74979761242866520000e-002) (10, 8.01113986968994140000e+000) (11, -7.68026351928710940000e-001) (12, 7.97516489028930660000e+000) (13, -3.92715811729431150000e+000) (14, 1.47971197962760930000e-001) (15, 2.38396239280700680000e+000) (16, 8.62744331359863280000e+000) (17, -9.75884151458740230000e+000) (18, 8.97065818309783940000e-001) (19, -1.34909191131591800000e+001) (20, 4.19088554382324220000e+000) (21, -1.84175872802734370000e+000) (22, -1.20218687057495120000e+001) (23, 7.87949204444885250000e-001) (24, 7.28072071075439450000e+000) (25, -1.81720185279846190000e+000) (26, 2.46207213401794430000e+000) (27, 8.93751716613769530000e+000) (28, 6.35933113098144530000e+000) (29, -4.56893205642700200000e+000) (30, -1.30382692813873290000e+000) (31, -6.43120574951171880000e+000) (32, 7.08490753173828120000e+000) (33, -2.62140178680419920000e+000) (34, 1.72032928466796880000e+001) (35, -3.10447525978088380000e+000) (36, 6.54542255401611330000e+000) (37, 2.95720720291137700000e+000) (38, -7.17356920242309570000e+000) (39, 2.19024553894996640000e-001) (40, 1.61775603890419010000e-001) (41, 2.14245700836181640000e+000) (42, 2.18276545405387880000e-001) (43, -7.27439737319946290000e+000) (44, -2.34821581840515140000e+000) (45, 9.58998203277587890000e-001) (46, -7.98095846176147460000e+000) (47, -5.99782371520996090000e+000) (48, 6.04872465133666990000e+000) (0, 1.11819612979888920000e+000) (1, 2.19096469879150390000e+000) (2, 2.48732209205627440000e-001) (3, 9.27098870277404790000e-001) (4, -2.87812292575836180000e-001) (5, 1.00018489360809330000e+000) (6, -1.71092152595520020000e+000) (7, 6.74309015274047850000e-001) (8, 4.63760286569595340000e-001) (9, -1.29141139984130860000e+000) (10, -7.09992885589599610000e-001) (11, -4.24424946308135990000e-001) (12, 1.08167290687561040000e+000) (13, -1.20425713062286380000e+000) (14, -5.76602876186370850000e-001) (15, 5.03163623809814450000e+000) (16, -1.86970643699169160000e-002) (17, -9.27211463451385500000e-001) (18, -1.10028886795043950000e+001) (19, -6.75539314746856690000e-001) (20, 9.89914774894714360000e-001) (21, -8.28171133995056150000e-001) (22, -9.64836955070495610000e-001) (23, -7.16694831848144530000e-001) (24, 5.51151216030120850000e-001) (25, 5.92160642147064210000e-001) (26, 8.09115827083587650000e-001) (27, 5.03970623016357420000e+000) (28, -1.84497261047363280000e+000) (29, -3.41590851545333860000e-001) (30, -3.88294696807861330000e+000) (31, 2.22197127342224120000e+000) (32, -5.31349956989288330000e-001) (33, -1.34109258651733400000e+000) (34, -1.03135621547698970000e+000) (35, 1.29465258121490480000e+000) (36, 2.42364048957824710000e+000) (37, -1.31084108352661130000e+000) (38, -6.77530407905578610000e-001) (39, 1.03538644313812260000e+000) (40, 2.10294032096862790000e+000) (41, 1.42072856426239010000e+000) (42, -1.30411779880523680000e+000) (43, -3.12745571136474610000e+000) (44, -2.55592286586761470000e-001) (45, -2.07084560394287110000e+000) (46, 9.95209753513336180000e-001) (47, -1.23832607269287110000e+000) (48, -8.90346622467041020000e+000) (0, -1.70409536361694340000e+000) (1, -1.07293033599853520000e+000) (2, 6.64710581302642820000e-001) (3, 1.43478119373321530000e+000) (4, -3.75761359930038450000e-001) (5, -5.19034624099731450000e-001) (6, 5.01346886157989500000e-001) (7, 2.12435632944107060000e-001) (8, 1.12475645542144780000e+000) (9, -4.41576302051544190000e-001) (10, 4.03733462095260620000e-001) (11, -4.13839638233184810000e-001) (12, 2.89805620908737180000e-001) (13, 1.10234677791595460000e+000) (14, -1.17568306624889370000e-001) (15, 8.26519548892974850000e-001) (16, 5.94961404800415040000e-001) (17, 9.40751254558563230000e-001) (18, 5.56549167633056640000e+000) (19, -1.52194595336914060000e+000) (20, -5.27427577972412110000e+000) (21, 9.40306007862091060000e-001) (22, -4.95979785919189450000e-001) (23, 1.62592983245849610000e+000) (24, -3.45027709007263180000e+000) (25, -3.61775588989257810000e+000) (26, 7.38428115844726560000e-001) (27, -3.00529909133911130000e+000) (28, 6.85942029953002930000e+000) (29, 1.00332031250000000000e+001) (30, 8.53147029876708980000e-001) (31, 3.92445230484008790000e+000) (32, 4.70854854583740230000e+000) (33, -4.59401726722717290000e-001) (34, 7.26041436195373540000e-001) (35, -1.72510027885437010000e-001) (36, 3.53646427392959590000e-001) (37, 5.46537113189697270000e+000) (38, 7.81043708324432370000e-001) (39, -8.63959610462188720000e-001) (40, -3.19987130165100100000e+000) (41, -2.23501038551330570000e+000) (42, 9.81142520904541020000e-001) (43, -1.63633894920349120000e+000) (44, 1.27730119228363040000e+000) (45, -1.10277034342288970000e-001) (46, -1.39570903778076170000e+000) (47, -1.85356512665748600000e-001) (48, 2.03209304809570310000e+000) (0, -1.92697322368621830000e+000) (1, 2.18964532017707820000e-001) (2, 1.21940478682518010000e-001) (3, -1.99973213672637940000e+000) (4, 5.66274464130401610000e-001) (5, 2.52962994575500490000e+000) (6, -1.38292694091796870000e+000) (7, 1.04640865325927730000e+000) (8, -2.98003822565078740000e-001) (9, -2.99027514457702640000e+000) (10, -4.04694259166717530000e-001) (11, 4.03606772422790530000e-001) (12, -1.08054046630859370000e+001) (13, -9.32500720024108890000e-001) (14, -1.51239776611328130000e+000) (15, -1.00353121757507320000e+000) (16, 3.01234316825866700000e+000) (17, 4.79585504531860350000e+000) (18, 6.01615846157073970000e-001) (19, -6.57337129116058350000e-001) (20, 1.04554975032806400000e+000) (21, -8.62832274287939070000e-003) (22, -2.46034598350524900000e+000) (23, 1.13851690292358400000e+000) (24, -6.93908739089965820000e+000) (25, -6.96520328521728520000e-001) (26, -2.39128708839416500000e+000) (27, -7.56292566657066350000e-002) (28, 1.81406593322753910000e+000) (29, 1.28616628646850590000e+001) (30, 2.40248012542724610000e+000) (31, 2.01836681365966800000e+000) (32, 3.46689820289611820000e+000) (33, 2.72741603851318360000e+000) (34, 9.19521272182464600000e-001) (35, 1.59555566310882570000e+000) (36, -1.84537935256958010000e+000) (37, 1.54502809047698970000e+000) (38, 7.07055151462554930000e-001) (39, -5.95824658870697020000e-001) (40, -1.81459689140319820000e+000) (41, 2.10625958442687990000e+000) (42, -2.26553368568420410000e+000) (43, 1.54885128140449520000e-001) (44, -2.03897118568420410000e+000) (45, 1.88135102391242980000e-001) (46, 2.07777455449104310000e-001) (47, -5.68834006786346440000e-001) (48, -1.59766209125518800000e+000) (0, 3.49235773086547850000e-001) (1, 4.66855913400650020000e-001) (2, -1.24076855182647710000e+000) (3, 1.41118645668029790000e-001) (4, -1.42771768569946290000e+000) (5, 1.80269289016723630000e+000) (6, -5.90320765972137450000e-001) (7, 1.01589107513427730000e+000) (8, -5.88180065155029300000e-001) (9, -1.40445873141288760000e-001) (10, 6.92522674798965450000e-002) (11, 4.76701825857162480000e-001) (12, -5.68649530410766600000e-001) (13, 1.03705477714538570000e+000) (14, 3.32068324089050290000e-001) (15, -3.91418886184692380000e+000) (16, 3.13370317220687870000e-001) (17, 9.13413524627685550000e-001) (18, -2.62234747409820560000e-001) (19, -3.92215728759765630000e-001) (20, -9.69564095139503480000e-002) (21, -3.49177658557891850000e-001) (22, -5.57480871677398680000e-001) (23, -3.95380288362503050000e-001) (24, -3.90578150749206540000e-001) (25, -1.34760582447052000000e+000) (26, -4.31979559361934660000e-002) (27, 3.85144829750061040000e+000) (28, -2.96694016456604000000e+000) (29, 2.57080078125000000000e-001) (30, 8.45421504974365230000e+000) (31, 7.83704876899719240000e-001) (32, -1.05595898628234860000e+000) (33, 9.14069235324859620000e-001) (34, -1.81055963039398190000e-001) (35, -6.48079738020896910000e-002) (36, -1.97781169414520260000e+000) (37, -4.62979286909103390000e-001) (38, -1.46681678295135500000e+000) (39, -3.48501384258270260000e-001) (40, 7.18525946140289310000e-001) (41, 1.36693465709686280000e+000) (42, 1.01273214817047120000e+000) (43, -4.73455429077148440000e-001) (44, -1.08283162117004390000e+000) (45, 1.41014349460601810000e+000) (46, 6.91122949123382570000e-001) (47, 1.08550882339477540000e+000) (48, 6.84997129440307620000e+000) (0, -1.12087619304656980000e+000) (1, -5.07665991783142090000e-001) (2, -3.11319637298583980000e+000) (3, -6.51621222496032710000e-001) (4, 2.66016334295272830000e-001) (5, -2.00703763961791990000e+000) (6, -3.38358968496322630000e-001) (7, -3.35300475358963010000e-001) (8, 1.02284026145935060000e+000) (9, -6.33588850498199460000e-001) (10, 2.03918576240539550000e-001) (11, -2.21421599388122560000e+000) (12, 3.26690268516540530000e+000) (13, 7.52707242965698240000e-001) (14, 4.64543199539184570000e+000) (15, 3.79674172401428220000e+000) (16, 1.94104754924774170000e+000) (17, -2.58108472824096680000e+000) (18, -2.80998140573501590000e-001) (19, 1.12507915496826170000e+000) (20, 2.87439966201782230000e+000) (21, 8.50265979766845700000e-001) (22, -3.85880351066589360000e+000) (23, 1.49489450454711910000e+000) (24, 2.97467160224914550000e+000) (25, 7.79437541961669920000e-001) (26, -1.92952358722686770000e+000) (27, 1.18933284282684330000e+000) (28, -5.82077741622924800000e+000) (29, -9.88534629344940190000e-001) (30, -8.27869057655334470000e-001) (31, 3.20798897743225100000e+000) (32, 1.95313107967376710000e+000) (33, 1.90509811043739320000e-001) (34, 2.31215333938598630000e+000) (35, -1.83952546119689940000e+000) (36, -1.67660689353942870000e+000) (37, 1.40426933765411380000e-001) (38, 8.96335661411285400000e-001) (39, -2.45054745674133300000e+000) (40, 1.74728703498840330000e+000) (41, 2.59814119338989260000e+000) (42, -5.27706503868103030000e-001) (43, -6.82706594467163090000e-001) (44, -2.06680822372436520000e+000) (45, 9.75641846656799320000e-001) (46, -6.75419390201568600000e-001) (47, -5.49142479896545410000e-001) (48, -3.46565198898315430000e+000) (0, 3.08932423591613770000e-001) (1, 8.09139683842659000000e-002) (2, -5.91151475906372070000e-001) (3, -2.58523374795913700000e-001) (4, -6.50637030601501460000e-001) (5, 5.26107728481292720000e-001) (6, -1.03085243701934810000e+000) (7, 6.51471495628356930000e-001) (8, -3.64955574274063110000e-001) (9, 8.57302844524383540000e-001) (10, 2.21011608839035030000e-001) (11, 5.98320186138153080000e-001) (12, -5.64988791942596440000e-001) (13, -6.21937960386276250000e-002) (14, 5.61387419700622560000e-001) (15, -1.48119366168975830000e+000) (16, 6.70187473297119140000e-001) (17, -9.09056603908538820000e-001) (18, 8.28131020069122310000e-001) (19, -3.47697675228118900000e-001) (20, 9.77643907070159910000e-001) (21, 1.20411562919616700000e+000) (22, -3.39533318765461440000e-003) (23, -1.16359853744506840000e+000) (24, -4.00217503309249880000e-001) (25, -1.58447355031967160000e-001) (26, -2.13833123445510860000e-001) (27, 3.55885148048400880000e-001) (28, -1.70870706439018250000e-001) (29, -3.80986869335174560000e-001) (30, 2.63634705543518070000e+000) (31, -8.12847077846527100000e-001) (32, -6.47197812795639040000e-002) (33, 1.49835264682769780000e+000) (34, 7.47517287731170650000e-001) (35, 2.94114798307418820000e-001) (36, -8.99888947606086730000e-002) (37, 4.09392565488815310000e-001) (38, 7.10524082183837890000e-001) (39, 1.18045546114444730000e-001) (40, -7.53058731555938720000e-001) (41, -3.58859837055206300000e-001) (42, -1.07957506179809570000e+000) (43, 9.77243423461914060000e-001) (44, 4.32319581508636470000e-001) (45, 1.77592895925045010000e-002) (46, -7.82093405723571780000e-001) (47, -4.42238539457321170000e-001) (48, 3.30615997314453130000e+000) (0, -9.65612113475799560000e-001) (1, -9.41663742065429690000e-001) (2, 7.41025686264038090000e-001) (3, -1.10619902610778810000e+000) (4, 1.04440450668334960000e+000) (5, -4.00059700012207030000e-001) (6, -5.26400744915008540000e-001) (7, -3.60806524753570560000e-001) (8, 1.27485859394073490000e+000) (9, -5.67302048206329350000e-001) (10, 2.64925479888916020000e-001) (11, -1.55139684677124020000e-001) (12, -1.58477509021759030000e+000) (13, 7.92389690876007080000e-001) (14, -6.55001699924468990000e-001) (15, -1.28143206238746640000e-001) (16, -6.43351197242736820000e-001) (17, 7.15503841638565060000e-002) (18, -4.48234230279922490000e-002) (19, -4.68239821493625640000e-002) (20, 3.46698075532913210000e-001) (21, 4.34042185544967650000e-001) (22, 5.03360509872436520000e-001) (23, 2.29217916727066040000e-001) (24, 6.94904506206512450000e-001) (25, -1.23962126672267910000e-001) (26, -5.15896856784820560000e-001) (27, 2.59302258491516110000e+000) (28, 4.11290735006332400000e-001) (29, 4.28290247917175290000e-001) (30, 3.64484786987304690000e-001) (31, 1.61595952510833740000e+000) (32, 4.18062180280685420000e-001) (33, 5.12959420680999760000e-001) (34, -1.35044646263122560000e+000) (35, -2.54106372594833370000e-001) (36, 1.25625789165496830000e-001) (37, 7.34397172927856450000e-002) (38, 3.75309512019157410000e-002) (39, 2.09408417344093320000e-001) (40, -6.92867279052734380000e-001) (41, -6.90948218107223510000e-002) (42, -2.06427440047264100000e-001) (43, -1.31008654832839970000e-001) (44, 3.41846615076065060000e-001) (45, -8.16549897193908690000e-001) (46, 5.47504961490631100000e-001) (47, 8.56406465172767640000e-002) (48, 8.90473365783691410000e-001) (0, 8.16681146621704100000e-001) (1, 7.84293174743652340000e-001) (2, 1.87635362148284910000e-001) (3, -8.86095687747001650000e-002) (4, -1.31258165836334230000e+000) (5, -6.72954171895980830000e-002) (6, -3.56952190399169920000e+000) (7, 2.33693674206733700000e-001) (8, -4.69070732593536380000e-001) (9, 6.39799177646636960000e-001) (10, -5.85074663162231450000e-001) (11, 4.63562101125717160000e-001) (12, -9.06657576560974120000e-001) (13, 2.64520716667175290000e+000) (14, 2.62944054603576660000e+000) (15, 6.56689628958702090000e-002) (16, 1.55031573772430420000e+000) (17, -4.17365759611129760000e-001) (18, 1.60821163654327390000e+000) (19, 1.15213990211486820000e+000) (20, -8.83477687835693360000e-001) (21, 6.97596311569213870000e-001) (22, 8.63997519016265870000e-001) (23, 1.28000390529632570000e+000) (24, -2.52683401107788090000e+000) (25, -7.54308176040649410000e+000) (26, -4.04430627822875980000e+000) (27, -4.78849299252033230000e-002) (28, 1.14927787780761720000e+001) (29, 1.18021154403686520000e+001) (30, 1.17242634296417240000e+000) (31, 2.19670352935791020000e+001) (32, 8.43780231475830080000e+000) (33, 5.56212961673736570000e-002) (34, -6.57445287704467770000e+000) (35, -9.31870698928833010000e-001) (36, -3.96262407302856450000e-001) (37, 3.62904548645019530000e+000) (38, 1.34046673774719240000e+000) (39, 4.85815256834030150000e-002) (40, -2.46285796165466310000e+000) (41, -1.80755627155303960000e+000) (42, -1.42078018188476560000e+000) (43, -1.50481879711151120000e+000) (44, -1.59849059581756590000e+000) (45, -1.72130692005157470000e+000) (46, 5.04648685455322270000e+000) (47, 5.67848563194274900000e-001) (48, 1.00848758220672610000e+000) (0, 7.12922632694244380000e-001) (1, 5.00358760356903080000e-001) (2, -6.44798353314399720000e-002) (3, -6.90038442611694340000e-001) (4, 2.11720848083496090000e+000) (5, -4.97343719005584720000e-001) (6, -4.33547914028167720000e-001) (7, -2.51277399063110350000e+000) (8, 2.07036823034286500000e-001) (9, -8.49273353815078740000e-002) (10, 3.33879679441452030000e-001) (11, -1.43193125724792480000e+000) (12, -1.50296556949615480000e+000) (13, -2.80222833156585690000e-001) (14, 1.52879953384399410000e+000) (15, -8.42391073703765870000e-001) (16, 7.47043228149414060000e+000) (17, 2.76162409782409670000e+000) (18, 1.14614391326904300000e+000) (19, 1.20024089813232420000e+001) (20, 3.76707220077514650000e+000) (21, 2.24396750330924990000e-001) (22, -4.37654972076416020000e+000) (23, 9.54192578792572020000e-001) (24, -1.13718318939208980000e+000) (25, -3.92996478080749510000e+000) (26, -1.05310261249542240000e+000) (27, 5.66180288791656490000e-001) (28, -2.33708769083023070000e-001) (29, 3.32723808288574220000e+000) (30, 5.41370868682861330000e-001) (31, -4.77826309204101560000e+000) (32, -1.50189071893692020000e-001) (33, 1.00770103931427000000e+000) (34, 1.75327956676483150000e+000) (35, -2.85203784704208370000e-001) (36, -1.75643599033355710000e+000) (37, 1.60973894596099850000e+000) (38, -4.49209183454513550000e-001) (39, 2.27737009525299070000e-001) (40, 3.01836967468261720000e+000) (41, 1.31888282299041750000e+000) (42, -5.71447193622589110000e-001) (43, -1.04245865345001220000e+000) (44, -1.39600944519042970000e+000) (45, -1.63322973251342770000e+000) (46, 1.71765327453613280000e+000) (47, 6.69506967067718510000e-001) (48, 7.38637089729309080000e-001) (0, 6.05449855327606200000e-001) (1, -6.64956617355346680000e+000) (2, 2.10978794097900390000e+000) (3, 1.44133615493774410000e+000) (4, 3.04166450500488280000e+001) (5, -2.52006149291992190000e+000) (6, 1.33023786544799800000e+000) (7, -1.74044513702392580000e+001) (8, -2.92369699478149410000e+000) (9, -1.31126213073730470000e+000) (10, 7.49791599810123440000e-003) (11, -7.59852051734924320000e-001) (12, -5.08556318283081050000e+000) (13, -4.54527527093887330000e-001) (14, -3.41222095489501950000e+000) (15, -2.44949340820312500000e-001) (16, 7.18136739730834960000e+000) (17, 8.50244903564453130000e+000) (18, -1.11314105987548830000e+000) (19, 5.07650260925292970000e+001) (20, 1.31190414428710940000e+001) (21, 1.01743793487548830000e+000) (22, -2.91909813880920410000e+000) (23, 3.17147946357727050000e+000) (24, 5.11858606338500980000e+000) (25, 4.19396257400512700000e+000) (26, 6.34893596172332760000e-001) (27, 2.99350333213806150000e+000) (28, -1.19718618392944340000e+001) (29, 1.48898673057556150000e+000) (30, -1.51427805423736570000e+000) (31, 5.13719892501831050000e+000) (32, -6.09026849269866940000e-001) (33, -4.81273698806762700000e+000) (34, -6.48650074005126950000e+000) (35, 1.85881483554840090000e+000) (36, 5.14468431472778320000e+000) (37, 3.86081784963607790000e-001) (38, -2.34625959396362300000e+000) (39, 5.90973615646362300000e+000) (40, 3.13314747810363770000e+000) (41, 1.21896588802337650000e+000) (42, 3.99628281593322750000e+000) (43, 7.47332215309143070000e-001) (44, -1.84941899776458740000e+000) (45, -1.44498050212860110000e+000) (46, 8.67600917816162110000e-001) (47, 1.15417754650115970000e+000) (48, 5.56218767166137700000e+000) (0, 9.34402719140052800000e-002) (1, 2.96893811225891110000e+000) (2, -9.24729630351066590000e-002) (3, 8.13047528266906740000e-001) (4, -2.75936079025268550000e+000) (5, -1.43388271331787110000e+000) (6, 1.24109888076782230000e+000) (7, 3.98022323846817020000e-001) (8, 4.94326323270797730000e-001) (9, -1.31384420394897460000e+000) (10, -1.65105283260345460000e-001) (11, 3.29566784203052520000e-002) (12, -6.97903707623481750000e-002) (13, -3.44238042831420900000e+000) (14, 1.67604792118072510000e+000) (15, -1.01628768444061280000e+000) (16, 5.87213850021362300000e+000) (17, -1.54686129093170170000e+000) (18, -3.15222048759460450000e+000) (19, 1.79542735219001770000e-001) (20, 1.30391108989715580000e+000) (21, 9.36971127986907960000e-001) (22, 8.32881033420562740000e-001) (23, -8.57675254344940190000e-001) (24, -1.95992439985275270000e-001) (25, 1.99593007564544680000e+000) (26, -6.43788993358612060000e-001) (27, 6.66557848453521730000e-001) (28, -6.25136518478393550000e+000) (29, -1.89881944656372070000e+000) (30, 4.22284841537475590000e+000) (31, 2.26428851485252380000e-001) (32, 1.67388439178466800000e+000) (33, 3.86558389663696290000e+000) (34, -9.23363864421844480000e-001) (35, -3.96392047405242920000e-001) (36, 8.41888412833213810000e-002) (37, -8.83888721466064450000e-001) (38, 4.80936199426651000000e-001) (39, -5.28338372707366940000e-001) (40, 3.15536832809448240000e+000) (41, -5.24710044264793400000e-002) (42, -8.80718767642974850000e-001) (43, -1.25591421127319340000e+000) (44, 4.07432824373245240000e-001) (45, -9.74655628204345700000e-001) (46, 6.53209567070007320000e-001) (47, -5.29066324234008790000e-001) (48, -4.25966978073120120000e+000) (0, -9.65142667293548580000e-001) (1, 2.55538916587829590000e+000) (2, 1.23612904548645020000e+000) (3, 1.02450132369995120000e-001) (4, -2.37536907196044920000e+000) (5, -3.92466926574707030000e+000) (6, 2.00520849227905270000e+000) (7, -5.67435860633850100000e-001) (8, 1.08217978477478030000e+000) (9, 6.59771490097045900000e+000) (10, 1.45827782154083250000e+000) (11, -5.85671544075012210000e-001) (12, 1.12948551774024960000e-001) (13, -2.24710083007812500000e+000) (14, -2.67536878585815430000e+000) (15, 5.22327542304992680000e-001) (16, 5.71140766143798830000e+000) (17, 4.48978376388549800000e+000) (18, 6.33450937271118160000e+000) (19, -1.62407612800598140000e+000) (20, 1.13145031034946440000e-001) (21, -1.80830228328704830000e+000) (22, -1.27316045761108400000e+000) (23, 1.28423184156417850000e-001) (24, -1.81000137329101560000e+000) (25, 6.56867086887359620000e-001) (26, 4.74570035934448240000e+000) (27, -2.31891617178916930000e-001) (28, 2.75629310607910160000e+001) (29, 1.10362138748168950000e+001) (30, -3.97803831100463870000e+000) (31, 2.61872053146362300000e+000) (32, 2.85286426544189450000e+000) (33, 7.18406498432159420000e-001) (34, -8.79866600036621090000e-001) (35, -3.31097662448883060000e-001) (36, 9.95300039649009700000e-002) (37, -4.81567811965942380000e+000) (38, -1.00898742675781250000e+000) (39, -1.20204055309295650000e+000) (40, 4.04747438430786130000e+000) (41, -2.25772857666015620000e+000) (42, 2.86802470684051510000e-001) (43, -3.17648005485534670000e+000) (44, 1.34829103946685790000e+000) (45, -1.29979133605957030000e+000) (46, 1.00946342945098880000e+000) (47, 1.34455353021621700000e-001) (48, -1.17830538749694820000e+000) (0, 3.17732000350952150000e+000) (1, -8.22697579860687260000e-001) (2, -1.10470438003540040000e+000) (3, -4.16610360145568850000e-001) (4, -8.41142296791076660000e-001) (5, -2.93348717689514160000e+000) (6, 4.41363239288330080000e+000) (7, -7.52682983875274660000e-001) (8, 2.22427582740783690000e+000) (9, 1.27591931819915770000e+000) (10, 2.70783811807632450000e-001) (11, -2.19371199607849120000e+000) (12, 3.49447250366210940000e+000) (13, 2.23682069778442380000e+000) (14, 4.18353796005249020000e+000) (15, 2.14994311332702640000e+000) (16, -1.90621805191040040000e+000) (17, -5.47903299331665040000e+000) (18, 8.84569585323333740000e-001) (19, 1.14904904365539550000e+000) (20, 4.22992610931396480000e+000) (21, -5.44713318347930910000e-001) (22, 3.10708475112915040000e+000) (23, -1.86234617233276370000e+000) (24, 4.35878849029541020000e+000) (25, -3.49088454246521000000e+000) (26, 6.70257139205932620000e+000) (27, -2.75923037528991700000e+000) (28, -1.59124183654785160000e+000) (29, -1.50621347427368160000e+001) (30, -6.63380086421966550000e-001) (31, -6.49471282958984380000e-002) (32, -1.95968651771545410000e+000) (33, 7.35133469104766850000e-001) (34, -2.16658926010131840000e+000) (35, 1.45393919944763180000e+000) (36, 1.14090013504028320000e+000) (37, 2.74212551116943360000e+000) (38, -1.30005145072937010000e+000) (39, -7.45731770992279050000e-001) (40, 6.99656382203102110000e-002) (41, -6.05700135231018070000e-001) (42, 1.21898984909057620000e+000) (43, -1.64290821552276610000e+000) (44, 2.18926286697387700000e+000) (45, 3.22042703628540040000e-001) (46, 1.85778200626373290000e+000) (47, -2.62635916471481320000e-001) (48, -1.78397083282470700000e+000) (0, 2.74096369743347170000e-001) (1, 1.46754264831542970000e-001) (2, -2.72386893630027770000e-002) (3, 4.81209047138690950000e-002) (4, 2.36022889614105220000e-001) (5, 1.98261931538581850000e-001) (6, 2.17359155416488650000e-001) (7, -1.51220232248306270000e-001) (8, -2.48635619878768920000e-001) (9, -6.74985125660896300000e-002) (10, 9.42983031272888180000e-002) (11, 1.37039497494697570000e-001) (12, 3.25878441333770750000e-001) (13, -3.93983721733093260000e-002) (14, 3.01047623157501220000e-001) (15, 1.22339510917663570000e+000) (16, -6.30847960710525510000e-002) (17, -4.26621735095977780000e-001) (18, -3.79533141851425170000e-001) (19, 8.47319066524505620000e-002) (20, -2.05265372991561890000e-001) (21, -9.22602936625480650000e-002) (22, -1.12924322485923770000e-001) (23, 3.10874711722135540000e-002) (24, 1.30167409777641300000e-001) (25, -3.15099209547042850000e-001) (26, 1.03156395256519320000e-001) (27, -4.24347937107086180000e-001) (28, -3.42836626805365090000e-003) (29, -2.19699233770370480000e-001) (30, -1.14647030830383300000e+000) (31, -1.89819321036338810000e-001) (32, 4.62929725646972660000e-001) (33, 3.55693578720092770000e-001) (34, 2.09466964006423950000e-001) (35, -2.31082454323768620000e-001) (36, 1.08196236193180080000e-001) (37, 2.39895686507225040000e-001) (38, -3.02290022373199460000e-001) (39, -6.59136027097702030000e-002) (40, -1.65478125214576720000e-001) (41, 4.41452413797378540000e-001) (42, 4.71317112445831300000e-001) (43, 2.79327422380447390000e-001) (44, -2.30151057243347170000e-001) (45, -3.01855832338333130000e-001) (46, -1.28681138157844540000e-001) (47, 1.26293331384658810000e-001) (48, -3.50719165802001950000e+000) (0, -6.55999600887298580000e-001) (1, -1.12832319736480710000e+000) (2, 1.28449213504791260000e+000) (3, -3.72709453105926510000e-001) (4, 2.67649173736572270000e-001) (5, -2.44810152053833010000e+000) (6, 1.35345429182052610000e-001) (7, -3.47815823554992680000e+000) (8, -4.53492021560668950000e+000) (9, 1.67676791548728940000e-001) (10, 1.30197656154632570000e+000) (11, 1.04672265052795410000e+000) (12, 3.47769945859909060000e-001) (13, 1.15147387981414790000e+000) (14, -1.49318585172295570000e-002) (15, 1.03970706462860110000e+000) (16, -4.43928194046020510000e+000) (17, -1.94934582710266110000e+000) (18, -4.41325634717941280000e-001) (19, -1.09589958190917970000e+001) (20, -3.49478840827941890000e+000) (21, -7.23131895065307620000e-001) (22, -3.44747328758239750000e+000) (23, -9.87262129783630370000e-001) (24, 2.98743963241577150000e-001) (25, 7.22576200962066650000e-001) (26, 3.06453347206115720000e-001) (27, -3.96669298410415650000e-001) (28, 2.05097007751464840000e+000) (29, 1.07451939582824710000e+000) (30, 1.54932439327239990000e+000) (31, 3.83979976177215580000e-001) (32, -6.18695616722106930000e-001) (33, -1.03886854648590090000e+000) (34, 2.52766513824462890000e+000) (35, 1.30388486385345460000e+000) (36, 1.10617661476135250000e+000) (37, -5.23236870765686040000e-001) (38, -1.35802865028381350000e-001) (39, 7.91054010391235350000e-001) (40, -6.35306835174560550000e-001) (41, -4.15928721427917480000e-001) (42, 9.61209774017333980000e-001) (43, -5.82559466361999510000e-001) (44, 2.47827827930450440000e-001) (45, 1.74081814289093020000e+000) (46, -8.96351993083953860000e-001) (47, -7.61141777038574220000e-001) (48, 3.52185654640197750000e+000) (0, -3.06454122066497800000e-001) (1, -5.78749887645244600000e-002) (2, -5.35311043262481690000e-001) (3, 3.08479338884353640000e-001) (4, 2.14036479592323300000e-001) (5, 1.10694754123687740000e+000) (6, -3.31478744745254520000e-001) (7, -8.81406426429748540000e-001) (8, -1.39265727996826170000e+000) (9, 3.66083204746246340000e-001) (10, -3.30493807792663570000e-001) (11, 1.05345821380615230000e+000) (12, -1.29274344444274900000e+000) (13, -6.64094910025596620000e-002) (14, -5.46044409275054930000e-001) (15, 3.23510479927062990000e+000) (16, -1.41956299543380740000e-001) (17, 8.75425219535827640000e-001) (18, 5.52328765392303470000e-001) (19, 6.25849604606628420000e-001) (20, -5.76212406158447270000e-001) (21, -9.32477355003356930000e-001) (22, 1.17070698738098140000e+000) (23, 5.47388732433319090000e-001) (24, -1.73930311203002930000e+000) (25, -3.89337539672851560000e-001) (26, 3.50306898355484010000e-001) (27, 5.07614850997924800000e-001) (28, -1.53322756290435790000e-001) (29, 6.09964191913604740000e-001) (30, -2.10984915494918820000e-001) (31, -1.50665116310119630000e+000) (32, 9.79976635426282880000e-003) (33, -1.16142809391021730000e-001) (34, -1.67445138096809390000e-001) (35, -2.43564039468765260000e-001) (36, -4.76957648992538450000e-001) (37, 8.69933068752288820000e-001) (38, -5.23723185062408450000e-001) (39, 4.30215448141098020000e-002) (40, -6.18536651134490970000e-001) (41, 1.54908478260040280000e-001) (42, 3.07427048683166500000e-001) (43, 1.56929922103881840000e+000) (44, 5.48754811286926270000e-001) (45, -3.20292502641677860000e-001) (46, -4.79533106088638310000e-001) (47, -7.50488266348838810000e-002) (48, 7.99350929260253910000e+000) (0, 2.26562708616256710000e-001) (1, -1.12910971045494080000e-001) (2, 1.68036743998527530000e-001) (3, 7.53255903720855710000e-001) (4, 2.79268652200698850000e-001) (5, -1.40252694487571720000e-001) (6, 3.28806757926940920000e-001) (7, -3.25639136135578160000e-002) (8, -2.85102933645248410000e-001) (9, 8.52222815155982970000e-002) (10, -1.34345963597297670000e-001) (11, 2.34029546380043030000e-001) (12, -2.44579277932643890000e-002) (13, -1.39231141656637190000e-002) (14, -1.72253642231225970000e-002) (15, -9.44108486175537110000e-001) (16, -3.76681625843048100000e-001) (17, 1.17322042584419250000e-001) (18, -1.28864741325378420000e+000) (19, -4.08297836780548100000e-001) (20, 8.10644030570983890000e-001) (21, 2.10162401199340820000e-002) (22, 5.16668021678924560000e-001) (23, -5.74068903923034670000e-001) (24, 4.53473597764968870000e-001) (25, 1.65849719196558000000e-002) (26, 9.26651002373546360000e-004) (27, 2.28391528129577640000e+000) (28, 3.58649343252182010000e-001) (29, -1.05105638504028320000e+000) (30, 7.72994935512542720000e-001) (31, 8.30352663993835450000e-001) (32, 5.14137931168079380000e-002) (33, -1.07573039829730990000e-001) (34, -5.81856369972229000000e-001) (35, 2.02319368720054630000e-001) (36, -7.93953891843557360000e-003) (37, -1.65433645248413090000e-001) (38, -1.20960943400859830000e-001) (39, -2.00865104794502260000e-001) (40, -1.84352472424507140000e-001) (41, 6.75475001335144040000e-001) (42, 2.63570621609687810000e-002) (43, -3.45172911882400510000e-001) (44, -2.61211633682250980000e-001) (45, 4.56225574016571040000e-002) (46, 3.93029838800430300000e-001) (47, -2.09041610360145570000e-002) (48, 1.97546482086181640000e+000) (0, -4.40308272838592530000e-001) (1, -7.00117468833923340000e-001) (2, 9.75859642028808590000e-001) (3, -4.52856160700321200000e-002) (4, 7.11921155452728270000e-001) (5, -2.61661767959594730000e+000) (6, 1.27427831292152400000e-001) (7, -2.63933849334716800000e+000) (8, -2.16615390777587890000e+000) (9, 4.58288252353668210000e-001) (10, 1.15940380096435550000e+000) (11, -3.89369994401931760000e-001) (12, 2.54664659500122070000e-001) (13, -2.25080430507659910000e-001) (14, 3.03700178861618040000e-001) (15, 4.78778243064880370000e-001) (16, -2.48301053047180180000e+000) (17, -7.43509590625762940000e-001) (18, 1.68017223477363590000e-001) (19, -1.04422731399536130000e+001) (20, -3.15755963325500490000e+000) (21, -9.02073025703430180000e-001) (22, -1.94936311244964600000e+000) (23, -4.64551120996475220000e-001) (24, 8.16697478294372560000e-001) (25, 3.03631186485290530000e-001) (26, -2.52184998244047160000e-002) (27, 4.98992502689361570000e-001) (28, 2.44328618049621580000e+000) (29, -3.37126910686492920000e-001) (30, -2.21818149089813230000e-001) (31, 9.17193472385406490000e-001) (32, -2.41676419973373410000e-001) (33, 1.49599686264991760000e-001) (34, 1.53825795650482180000e+000) (35, 5.29903531074523930000e-001) (36, 4.59970533847808840000e-001) (37, -4.50359970331192020000e-001) (38, 5.38843214511871340000e-001) (39, 6.19914710521698000000e-001) (40, -1.05847883224487300000e+000) (41, -1.64860207587480550000e-002) (42, 5.40144264698028560000e-001) (43, -1.86117812991142270000e-001) (44, 2.22792580723762510000e-001) (45, 1.52091097831726070000e+000) (46, -1.09767007827758790000e+000) (47, -4.06058967113494870000e-001) (48, 2.50626444816589360000e+000) (0, 4.39895838499069210000e-001) (1, 5.45880310237407680000e-002) (2, 4.43544425070285800000e-002) (3, 5.42554855346679690000e-001) (4, 3.14195930957794190000e-001) (5, 3.63749295473098750000e-001) (6, 4.83036011457443240000e-001) (7, -3.09323221445083620000e-002) (8, -5.88508307933807370000e-001) (9, 5.15920937061309810000e-001) (10, 2.35433802008628850000e-002) (11, 2.15661432594060900000e-002) (12, 8.49828124046325680000e-001) (13, 1.24769121408462520000e-001) (14, -5.29381558299064640000e-002) (15, 5.94200015068054200000e-001) (16, -8.35394859313964840000e-001) (17, 2.46503297239542010000e-002) (18, 3.39181721210479740000e-001) (19, 3.42305421829223630000e-001) (20, 1.08277656137943270000e-001) (21, -3.14070731401443480000e-001) (22, -5.61309695243835450000e-001) (23, -2.64478266239166260000e-001) (24, -7.01179862022399900000e-001) (25, 2.09568031132221220000e-002) (26, -6.73333331942558290000e-002) (27, -1.80819594860076900000e+000) (28, 1.50071352720260620000e-001) (29, 2.66422424465417860000e-002) (30, -5.57880043983459470000e-001) (31, -1.21244251728057860000e+000) (32, -1.23072743415832520000e+000) (33, -3.58602285385131840000e-001) (34, 7.97755360603332520000e-001) (35, 3.41666728258132930000e-001) (36, -1.29128888249397280000e-001) (37, -2.02469855546951290000e-001) (38, 7.66527950763702390000e-002) (39, 5.77847138047218320000e-002) (40, 1.98536336421966550000e-001) (41, -3.83225083351135250000e-001) (42, 2.13586673140525820000e-001) (43, 3.76053690910339360000e-001) (44, -3.37814897298812870000e-001) (45, 4.20575201511383060000e-001) (46, -4.30287957191467290000e-001) (47, -6.60223439335823060000e-002) (48, -1.61929976940155030000e+000) (0, 5.47757446765899660000e-001) (1, 1.20902895927429200000e+000) (2, 7.28587210178375240000e-001) (3, 7.30414688587188720000e-002) (4, -1.43357980251312260000e+000) (5, -1.01883256435394290000e+000) (6, 6.08450829982757570000e-001) (7, 1.30107033252716060000e+000) (8, 1.22987353801727290000e+000) (9, -2.62400418519973750000e-001) (10, -1.81341564655303960000e+000) (11, -1.23535442352294920000e+000) (12, 1.58254206180572510000e+000) (13, -6.29970967769622800000e-001) (14, -1.21198427677154540000e+000) (15, 4.17206573486328120000e+000) (16, 7.56909728050231930000e-001) (17, 7.79092311859130860000e-001) (18, -1.76333487033843990000e+000) (19, -1.35686206817626950000e+000) (20, -2.06359434127807620000e+000) (21, -1.19302678108215330000e+000) (22, 1.95418977737426760000e+000) (23, 1.85980415344238280000e+000) (24, 4.52510327100753780000e-001) (25, -2.93325722217559810000e-001) (26, 1.13817727565765380000e+000) (27, 2.96963667869567870000e+000) (28, 1.84728276729583740000e+000) (29, 1.28401800990104680000e-001) (30, -4.21256780624389650000e+000) (31, -2.09020900726318360000e+000) (32, 3.07754069566726680000e-001) (33, -5.89320838451385500000e-001) (34, -4.44659650325775150000e-001) (35, -1.44160747528076170000e-001) (36, 1.83137834072113040000e-001) (37, -1.23367977142333980000e+000) (38, 4.24965351819992070000e-001) (39, -7.81676828861236570000e-001) (40, 5.27275323867797850000e-001) (41, -1.97134959697723390000e+000) (42, 3.27012330293655400000e-001) (43, 5.40934562683105470000e-001) (44, 1.61007559299468990000e+000) (45, -4.61168348789215090000e-001) (46, 7.76405513286590580000e-001) (47, -5.53402602672576900000e-001) (48, -1.43458294868469240000e+000) (0, 1.46447062492370610000e+000) (1, -1.03763771057128910000e+000) (2, -6.36869221925735470000e-002) (3, 7.39411339163780210000e-002) (4, 9.50347900390625000000e-001) (5, 5.48762381076812740000e-001) (6, 8.77604186534881590000e-001) (7, -1.16391038894653320000e+000) (8, -1.55662941932678220000e+000) (9, 2.03757956624031070000e-001) (10, 7.14725703001022340000e-002) (11, 6.66702270507812500000e-001) (12, -3.72537821531295780000e-002) (13, 1.51099717617034910000e+000) (14, 1.64228722453117370000e-001) (15, -7.93847978115081790000e-001) (16, 2.91257429122924800000e+000) (17, 1.05978810787200930000e+000) (18, -1.96176275610923770000e-001) (19, 3.13381099700927730000e+000) (20, 8.75995695590972900000e-001) (21, 7.71871328353881840000e-001) (22, 2.16715216636657710000e+000) (23, 1.26818525791168210000e+000) (24, -1.43821999430656430000e-001) (25, -9.62938964366912840000e-002) (26, 2.70159959793090820000e+000) (27, -2.43092989921569820000e+000) (28, -4.24008703231811520000e+000) (29, -2.76191210746765140000e+000) (30, -1.15290522575378420000e+000) (31, 1.92236125469207760000e+000) (32, 1.12575247883796690000e-001) (33, -1.15301442146301270000e+000) (34, -4.14484834671020510000e+000) (35, -7.81447350978851320000e-001) (36, -4.06643062829971310000e-001) (37, 3.08372646570205690000e-001) (38, 8.74127268791198730000e-001) (39, 3.36504757404327390000e-001) (40, 3.12762427330017090000e+000) (41, -1.04402315616607670000e+000) (42, 2.77312427759170530000e-001) (43, -5.22835731506347660000e-001) (44, 2.31005573272705080000e+000) (45, 1.19283759593963620000e+000) (46, 1.15685379505157470000e+000) (47, -1.34410929679870610000e+000) (48, 7.51935124397277830000e-001) (0, -3.10180652886629100000e-002) (1, -1.44756212830543520000e-001) (2, -5.28403483331203460000e-002) (3, -1.78482815623283390000e-001) (4, 5.48713728785514830000e-002) (5, -1.13755814731121060000e-001) (6, -2.01787397265434270000e-001) (7, 1.69319063425064090000e-001) (8, 1.59435749053955080000e-001) (9, 6.45130127668380740000e-002) (10, -8.81050601601600650000e-002) (11, -8.84663835167884830000e-002) (12, 3.01600396633148190000e-001) (13, 1.07519887387752530000e-001) (14, 1.54447361826896670000e-001) (15, 3.22026193141937260000e-001) (16, -1.54149420559406280000e-002) (17, 1.53386518359184270000e-001) (18, 9.38994050025939940000e-001) (19, 2.55580451339483260000e-002) (20, -2.20226392149925230000e-001) (21, -1.10487729310989380000e-001) (22, -1.07767120003700260000e-001) (23, 1.02593936026096340000e-001) (24, 9.85485762357711790000e-002) (25, 4.65728007256984710000e-002) (26, -1.90563589334487920000e-001) (27, -8.79313588142395020000e-001) (28, -1.90889522433280940000e-001) (29, 1.59577205777168270000e-002) (30, -4.03671383857727050000e-001) (31, -1.45556190982460980000e-002) (32, 2.71103352308273320000e-001) (33, 6.97529464960098270000e-002) (34, 5.95766715705394740000e-002) (35, -1.86129495501518250000e-001) (36, -3.23548540472984310000e-002) (37, 2.12317686527967450000e-002) (38, 5.64898066222667690000e-002) (39, -1.20334789156913760000e-001) (40, 1.60458713769912720000e-001) (41, -6.31771907210350040000e-002) (42, 6.01487159729003910000e-002) (43, -2.01761052012443540000e-002) (44, -6.80408999323844910000e-002) (45, 5.16614317893981930000e-002) (46, -8.38198233395814900000e-003) (47, 2.78158802539110180000e-002) (48, -5.65188705921173100000e-001) (49, 3.09896320104599000000e-001) (50, 8.93422663211822510000e-001) (51, 2.18635603785514830000e-001) (52, 5.67257761955261230000e-001) (53, 2.55564749240875240000e-001) (54, -5.22930026054382320000e-001) (55, -9.88043427467346190000e-001) (56, 3.40783685445785520000e-001) (57, -1.29074192047119140000e+000) (58, 2.57839828729629520000e-001) (59, 4.73530113697052000000e-001) (60, 7.80726969242095950000e-001) (61, -6.18772543966770170000e-002) (62, 9.28983926773071290000e-001) (63, -1.36128857731819150000e-001) (64, 6.54487311840057370000e-001) (65, 1.09705045819282530000e-001) (66, -4.92212414741516110000e-001) (67, 4.33114439249038700000e-001) (68, -3.48516441881656650000e-002) (69, 1.04197405278682710000e-001) (70, 1.15445137023925780000e-001) (71, 1.34403761476278310000e-002) (72, -2.23807144165039060000e+000) (73, 4.62553769350051880000e-001) (74, 6.42135977745056150000e-001) (75, 1.64464616775512700000e+000) (76, -3.98377299308776860000e-001) (77, 4.83315229415893550000e-001) (78, 4.35068666934967040000e-001) (79, 4.42190289497375490000e-001) (80, 2.54362034797668460000e+000) (81, -8.53746086359024050000e-002) (49, 7.12148070335388180000e-001) (50, 8.34003686904907230000e-001) (51, -2.54305750131607060000e-001) (52, 9.83196854591369630000e-001) (53, 1.86790931224823000000e+000) (54, 2.37824726104736330000e+000) (55, 5.58207035064697270000e-001) (56, 2.67115265130996700000e-001) (57, 8.91466498374938960000e-001) (58, -6.74507617950439450000e-001) (59, -3.72647702693939210000e-001) (60, 7.91958272457122800000e-001) (61, -5.86938321590423580000e-001) (62, -1.14160728454589840000e+000) (63, -5.63881397247314450000e-001) (64, -2.03482294082641600000e+000) (65, 1.01015520095825200000e+000) (66, 1.87420916557312010000e+000) (67, -3.40668521821498870000e-002) (68, 1.42779469490051270000e+000) (69, 4.52324338257312770000e-002) (70, 2.30907106399536130000e+000) (71, -1.29299449920654300000e+000) (72, 1.95414125919342040000e+000) (73, -5.61437070369720460000e-001) (74, -9.76075172424316410000e-001) (75, 1.32041478157043460000e+000) (76, -5.04193544387817380000e-001) (77, 1.31343495845794680000e+000) (78, 1.76804900169372560000e-001) (79, -4.33732569217681880000e-003) (80, -2.59399986267089840000e+000) (81, 8.10974061489105220000e-001) (49, -2.30578452348709110000e-001) (50, -1.05584114789962770000e-001) (51, 4.52201336622238160000e-001) (52, 4.40111994743347170000e-001) (53, 2.79312338680028920000e-002) (54, 1.80195868015289310000e+000) (55, 2.61484670639038090000e+000) (56, 3.14074635505676270000e-001) (57, -3.76135483384132390000e-002) (58, 5.31930148601531980000e-001) (59, -6.32532313466072080000e-002) (60, 2.67189025878906250000e-001) (61, -1.00801559165120120000e-003) (62, 6.07487618923187260000e-001) (63, 4.46615785360336300000e-001) (64, 9.74441528320312500000e-001) (65, 1.25682449340820310000e+000) (66, -4.63315576314926150000e-001) (67, 5.58384358882904050000e-001) (68, 4.25903275609016420000e-002) (69, -1.32592558860778810000e-001) (70, 1.23063147068023680000e-001) (71, 3.07318836450576780000e-001) (72, 5.51362156867980960000e-001) (73, 4.96112629771232600000e-002) (74, 1.24863111972808840000e+000) (75, 2.08173060417175290000e+000) (76, -7.82229602336883540000e-002) (77, 1.14965915679931640000e+000) (78, 8.81871759891510010000e-001) (79, 4.59148496389389040000e-001) (80, 5.29021561145782470000e-001) (81, 1.37899410724639890000e+000) (49, 9.52552556991577150000e-001) (50, 2.81059712171554570000e-001) (51, -1.42934724688529970000e-001) (52, 7.61278092861175540000e-001) (53, -4.24378842115402220000e-001) (54, 3.51168417930603030000e+000) (55, 1.04119038581848140000e+000) (56, 1.90723431110382080000e+000) (57, 1.21980352401733400000e+001) (58, 1.04456591606140140000e+000) (59, -1.89001753926277160000e-001) (60, 7.02454507350921630000e-001) (61, -1.58221945166587830000e-001) (62, 2.20361542701721190000e+000) (63, 8.40763092041015630000e-001) (64, -7.94127285480499270000e-001) (65, 5.66058933734893800000e-001) (66, 2.69580394029617310000e-001) (67, -2.70468518137931820000e-002) (68, 2.24210157990455630000e-001) (69, 2.07672739028930660000e+000) (70, 1.81943547725677490000e+000) (71, 1.26568436622619630000e+000) (72, -2.85483062267303470000e-001) (73, -8.38983282446861270000e-002) (74, -4.62896060943603520000e+000) (75, -1.25819432735443120000e+000) (76, 3.77382278442382810000e-001) (77, 1.73282647132873540000e+000) (78, 2.15706372261047360000e+000) (79, 1.79786562919616700000e+000) (80, -1.40718626976013180000e+000) (81, 3.32382202148437500000e+000) (49, 1.66678696870803830000e-001) (50, 5.33141911029815670000e-001) (51, 6.05239681899547580000e-002) (52, 3.34070324897766110000e-001) (53, 2.00715914368629460000e-001) (54, -1.48236262798309330000e+000) (55, 9.66995835304260250000e-001) (56, 2.76954859495162960000e-001) (57, -3.89024555683135990000e-001) (58, 1.26492753624916080000e-001) (59, 2.56331533193588260000e-001) (60, 3.99628162384033200000e-001) (61, 3.65622222423553470000e-001) (62, 6.29232585430145260000e-001) (63, -7.76126682758331300000e-002) (64, 4.48493927717208860000e-001) (65, 1.80784314870834350000e-001) (66, -2.74464637041091920000e-001) (67, 2.51664400100708010000e-001) (68, -4.88243736326694490000e-002) (69, -8.26047435402870180000e-002) (70, 6.17691129446029660000e-002) (71, 1.88862229697406290000e-003) (72, 5.96950590610504150000e-001) (73, 3.12137126922607420000e-001) (74, 6.89519047737121580000e-001) (75, 1.02873182296752930000e+000) (76, -2.61289656162261960000e-001) (77, 3.91678065061569210000e-001) (78, 2.63764858245849610000e-001) (79, 2.89979696273803710000e-001) (80, 1.71016037464141850000e+000) (81, 8.40776979923248290000e-001) (49, -1.80765673518180850000e-001) (50, -1.20116025209426880000e-001) (51, 5.64214766025543210000e-001) (52, -2.70995616912841800000e-001) (53, 2.38026440143585210000e-001) (54, 4.63054090738296510000e-001) (55, 8.57754766941070560000e-001) (56, -1.18848538398742680000e+000) (57, -6.77205610275268550000e+000) (58, -5.85780978202819820000e-001) (59, 2.65514302253723140000e+000) (60, -7.13415861129760740000e-001) (61, 6.61366224288940430000e-001) (62, -1.22635221481323240000e+000) (63, 2.17525899410247800000e-001) (64, -1.09944060444831850000e-001) (65, 1.51910531520843510000e+000) (66, -1.73843204975128170000e-001) (67, -5.16649305820465090000e-001) (68, 1.12228773534297940000e-001) (69, -7.72036239504814150000e-002) (70, -2.56000876426696780000e-001) (71, -3.30433785915374760000e-001) (72, 2.15395236015319820000e+000) (73, -6.51017010211944580000e-001) (74, -3.12822073698043820000e-001) (75, -3.95288944244384770000e-001) (76, 2.13443771004676820000e-001) (77, 1.49733805656433110000e+000) (78, -1.58413755893707280000e+000) (79, -1.09263300895690920000e+000) (80, -1.90196561813354490000e+000) (81, -1.55989062786102290000e+000) (49, -8.10017168521881100000e-001) (50, 1.92990517616271970000e+000) (51, 8.23045790195465090000e-001) (52, 1.91392612457275390000e+000) (53, 5.35348057746887210000e-001) (54, 1.99487304687500000000e+000) (55, 2.41957917809486390000e-001) (56, 6.43320500850677490000e-001) (57, -1.97359716892242430000e+000) (58, -8.87200236320495610000e-001) (59, 1.09860968589782710000e+000) (60, 2.37184143066406250000e+000) (61, 1.57488441467285160000e+001) (62, 3.63231253623962400000e+000) (63, -1.47380304336547850000e+000) (64, 4.66452360153198240000e+000) (65, 2.60006189346313480000e+000) (66, -1.51562643051147460000e+000) (67, 2.07131671905517580000e+000) (68, 4.92400795221328740000e-001) (69, 7.05124676227569580000e-001) (70, 1.76434564590454100000e+000) (71, -1.96643483638763430000e+000) (72, 1.18884563446044920000e+000) (73, -3.72988045215606690000e-001) (74, 6.83998823165893550000e-001) (75, 1.73908567428588870000e+000) (76, 6.74158036708831790000e-001) (77, 2.65469169616699220000e+000) (78, 4.23163938522338870000e+000) (79, -9.94915142655372620000e-002) (80, 8.27892589569091800000e+000) (81, -2.10497903823852540000e+000) (49, -8.96162316203117370000e-002) (50, 2.97620743513107300000e-001) (51, 8.91237631440162660000e-002) (52, 1.97115778923034670000e-001) (53, 3.95132273435592650000e-001) (54, -5.43097448348999020000e+000) (55, 1.94936859607696530000e+000) (56, 1.16312883794307710000e-001) (57, -2.43723154067993160000e+000) (58, -1.15701365470886230000e+000) (59, -4.19067710638046260000e-001) (60, -1.10145056247711180000e+000) (61, -4.71713930368423460000e-001) (62, -1.51098400354385380000e-001) (63, -6.92532241344451900000e-001) (64, -5.26589810848236080000e-001) (65, -1.60693675279617310000e-001) (66, -5.49087524414062500000e-001) (67, -1.83872282505035400000e-001) (68, -9.10081207752227780000e-001) (69, -2.35839664936065670000e-001) (70, -6.99516534805297850000e-001) (71, 6.14551067352294920000e-001) (72, 1.95359599590301510000e+000) (73, 3.96186709403991700000e-001) (74, -2.71358990669250490000e+000) (75, -5.24307608604431150000e-001) (76, -1.69857239723205570000e+000) (77, -9.48518931865692140000e-001) (78, -8.12810480594635010000e-001) (79, -1.32777541875839230000e-001) (80, 4.49939298629760740000e+000) (81, 1.07265937328338620000e+000) (49, 1.17742776870727540000e+000) (50, 4.53433334827423100000e-001) (51, 5.87897109985351560000e+000) (52, 9.40950036048889160000e-001) (53, -4.54198330640792850000e-001) (54, 4.38907623291015630000e+000) (55, 8.80001485347747800000e-001) (56, 1.97898209095001220000e+000) (57, 1.42778997421264650000e+001) (58, 1.29478406906127930000e+000) (59, 2.00937914848327640000e+000) (60, 7.34609007835388180000e-001) (61, 1.04551456868648530000e-001) (62, 2.61264729499816890000e+000) (63, 8.45701038837432860000e-001) (64, -1.17705166339874270000e+000) (65, 4.69660788774490360000e-001) (66, 3.20596516132354740000e-001) (67, -2.99871712923049930000e-001) (68, 2.12620064616203310000e-001) (69, 3.47214365005493160000e+000) (70, 2.32442712783813480000e+000) (71, 1.73078811168670650000e+000) (72, -2.07632392644882200000e-001) (73, -2.45760574936866760000e-001) (74, 2.45811477303504940000e-001) (75, -1.44551861286163330000e+000) (76, 4.17579501867294310000e-001) (77, 1.55477690696716310000e+000) (78, 2.25203704833984370000e+000) (79, 2.02544975280761720000e+000) (80, -1.06119513511657710000e+000) (81, 3.63112759590148930000e+000) (49, -2.95925945043563840000e-001) (50, -2.28781908750534060000e-001) (51, 2.34061792492866520000e-001) (52, -6.58025890588760380000e-002) (53, 3.52055095136165620000e-002) (54, -3.62825775146484380000e+000) (55, 5.88816165924072270000e-001) (56, 1.50315809249877930000e+000) (57, -4.64426279067993160000e-001) (58, 6.02675974369049070000e-001) (59, 2.98248291015625000000e-001) (60, -3.34286838769912720000e-001) (61, 3.85934859514236450000e-001) (62, -6.63357198238372800000e-001) (63, -2.32407063245773320000e-001) (64, -6.38177096843719480000e-001) (65, 1.47976076602935790000e+000) (66, -2.24696561694145200000e-001) (67, -8.29804614186286930000e-002) (68, -1.35076737403869630000e+000) (69, -8.99498462677001950000e-001) (70, 3.85192811489105220000e-001) (71, 5.48539578914642330000e-001) (72, 2.75326943397521970000e+000) (73, 1.83632647991180420000e+000) (74, -8.19392204284667970000e-001) (75, -7.72011950612068180000e-002) (76, -2.13347053527832030000e+000) (77, 2.14975595474243160000e+000) (78, -1.81970500946044920000e+000) (79, -4.21226352453231810000e-001) (80, -4.82328444719314580000e-001) (81, -1.96941494941711430000e+000) (49, -1.16434192657470700000e+000) (50, 2.11055099964141850000e-001) (51, -1.81284916400909420000e+000) (52, -6.24687224626541140000e-002) (53, -1.13297723233699800000e-001) (54, 8.40873813629150390000e+000) (55, 3.92759513854980470000e+000) (56, 8.73607337474823000000e-001) (57, 2.02931571006774900000e+000) (58, 7.28280007839202880000e-001) (59, -2.56256270408630370000e+000) (60, 1.79814398288726810000e+000) (61, -5.93139640986919400000e-002) (62, 1.94848823547363280000e+000) (63, 3.06213641166687010000e+000) (64, 2.00145483016967770000e+000) (65, 2.88408493995666500000e+000) (66, 3.49723964929580690000e-001) (67, -1.75292953848838810000e-001) (68, 2.09070539474487300000e+000) (69, -2.04721736907958980000e+000) (70, 1.59947171807289120000e-001) (71, 1.30527362227439880000e-001) (72, 1.01780569553375240000e+000) (73, -6.91954612731933590000e-001) (74, -7.03571975231170650000e-001) (75, -1.23747289180755620000e-001) (76, 1.00811374187469480000e+000) (77, 6.86456108093261720000e+000) (78, 1.40726256370544430000e+000) (79, 1.14465141296386720000e+000) (80, -9.77797508239746090000e+000) (81, 1.63960444927215580000e+000) (49, 8.04007768630981450000e-001) (50, 8.75735044479370120000e-001) (51, 2.52146720886230470000e-001) (52, 1.03763699531555180000e+000) (53, 1.79223704338073730000e+000) (54, 1.03241598606109620000e+000) (55, 2.04853504896163940000e-001) (56, 1.35753184556961060000e-001) (57, 1.06035721302032470000e+000) (58, -8.04810106754302980000e-001) (59, -1.60645082592964170000e-001) (60, 6.93823993206024170000e-001) (61, -6.03001117706298830000e-001) (62, -1.09214019775390620000e+000) (63, -5.69582521915435790000e-001) (64, -2.22960782051086430000e+000) (65, 9.01115715503692630000e-001) (66, 1.76249861717224120000e+000) (67, -3.80320940166711810000e-003) (68, 1.25684070587158200000e+000) (69, 1.36623576283454900000e-001) (70, 2.22018146514892580000e+000) (71, -1.20186400413513180000e+000) (72, 1.26629793643951420000e+000) (73, -6.13205671310424800000e-001) (74, 1.08284032344818120000e+000) (75, 1.74059081077575680000e+000) (76, -5.95522880554199220000e-001) (77, 1.13638365268707280000e+000) (78, 8.00414830446243290000e-002) (79, -1.19816839694976810000e-001) (80, -1.53598940372467040000e+000) (81, 3.84770393371582030000e-001) (49, -6.09312415122985840000e-001) (50, 1.47784852981567380000e+000) (51, 4.50018584728240970000e-001) (52, -2.20845967531204220000e-001) (53, -8.20089817047119140000e-001) (54, 2.24767327308654790000e+000) (55, -6.50505721569061280000e-001) (56, 4.39384430646896360000e-001) (57, -1.48334336280822750000e+000) (58, -1.30102384090423580000e+000) (59, 7.46547996997833250000e-001) (60, 1.74325954914093020000e+000) (61, 1.58145523071289060000e+001) (62, 3.92516040802001950000e+000) (63, -1.58251357078552250000e+000) (64, 3.30645084381103520000e+000) (65, 1.15807211399078370000e+000) (66, 5.36936223506927490000e-001) (67, 2.31147915124893190000e-001) (68, 1.50338208675384520000e+000) (69, 6.10977947711944580000e-001) (70, 2.92735040187835690000e-001) (71, -1.82074248790740970000e+000) (72, 9.22780573368072510000e-001) (73, -4.12662696838378910000e+000) (74, 1.23863399028778080000e+000) (75, 1.87747275829315190000e+000) (76, 4.46152830123901370000e+000) (77, 5.25870144367218020000e-001) (78, 4.12766456604003910000e+000) (79, -8.78811776638031010000e-001) (80, 8.72064399719238280000e+000) (81, -3.18049478530883790000e+000) (49, 1.18415199220180510000e-001) (50, 5.65999269485473630000e-001) (51, -6.39489233493804930000e-001) (52, 3.55726659297943120000e-001) (53, 1.68680205941200260000e-001) (54, -2.85972118377685550000e-001) (55, 1.17636680603027340000e+000) (56, 3.03497850894927980000e-001) (57, 3.09719085693359380000e-001) (58, 1.96638733148574830000e-001) (59, 2.19712644815444950000e-001) (60, 4.60965931415557860000e-001) (61, 2.56587833166122440000e-001) (62, 7.18188047409057620000e-001) (63, 5.16161955893039700000e-002) (64, 6.66746973991394040000e-001) (65, 1.89857214689254760000e-001) (66, -2.55171358585357670000e-001) (67, 2.67748743295669560000e-001) (68, -4.20105122029781340000e-002) (69, -2.12087571620941160000e-001) (70, 3.51362787187099460000e-002) (71, 2.27386746555566790000e-002) (72, 1.40655529499053960000e+000) (73, 1.72459334135055540000e-001) (74, 6.35232925415039060000e-001) (75, 5.73984444141387940000e-001) (76, -1.38025432825088500000e-001) (77, 3.50853055715560910000e-001) (78, 3.83714646100997920000e-001) (79, 3.89346361160278320000e-001) (80, 5.78484296798706050000e-001) (81, -1.37169313430786130000e+000) (49, 1.41955122351646420000e-001) (50, -1.10095191001892090000e+000) (51, 2.14594170451164250000e-001) (52, -3.18653488159179690000e+000) (53, -6.49809181690216060000e-001) (54, 1.17730188369750980000e+000) (55, 9.23214912414550780000e-001) (56, -3.87525945901870730000e-001) (57, 1.60649311542510990000e+000) (58, 1.72668814659118650000e-001) (59, -1.32416379451751710000e+000) (60, -2.19967436790466310000e+000) (61, -1.53737649917602540000e+001) (62, -4.13646841049194340000e+000) (63, 1.69590544700622560000e+000) (64, -4.48385810852050780000e+000) (65, -2.85159134864807130000e+000) (66, 1.67347609996795650000e+000) (67, -2.92830848693847660000e+000) (68, 5.80486422404646870000e-003) (69, -5.83591163158416750000e-001) (70, -2.86681199073791500000e+000) (71, 1.78674995899200440000e+000) (72, 5.24526178836822510000e-001) (73, -2.82085204124450680000e+000) (74, 4.92081381380558010000e-002) (75, 3.33867287635803220000e+000) (76, 2.52291750907897950000e+000) (77, -1.15547180175781250000e+000) (78, -4.19517898559570310000e+000) (79, -1.11901327967643740000e-001) (80, -4.97999382019042970000e+000) (81, 1.46730810403823850000e-001) (49, -1.17990517616271970000e+000) (50, 1.84861683845520020000e+000) (51, -5.99832963943481450000e+000) (52, -1.53155994415283200000e+000) (53, -6.11821949481964110000e-001) (54, 1.87905006408691410000e+001) (55, -2.36386799812316890000e+000) (56, -1.38963568210601810000e+000) (57, -4.60141515731811520000e+000) (58, 3.21833825111389160000e+000) (59, -1.98988723754882810000e+000) (60, 2.56538796424865720000e+000) (61, 9.87970173358917240000e-001) (62, 1.15752971172332760000e+000) (63, 3.58982110023498540000e+000) (64, 5.60846138000488280000e+000) (65, 4.66468238830566410000e+000) (66, 1.59634995460510250000e+000) (67, 1.22423756122589110000e+000) (68, 1.55426084995269780000e+000) (69, -3.28517675399780270000e+000) (70, 3.84357750415802000000e-001) (71, 1.55686914920806880000e+000) (72, 3.93770647048950200000e+000) (73, -2.84814429283142090000e+000) (74, 6.73557710647583010000e+000) (75, -2.72559762001037600000e+000) (76, 7.28655004501342770000e+000) (77, 7.40016984939575200000e+000) (78, 3.49153113365173340000e+000) (79, -1.04504668712615970000e+000) (80, -1.69775238037109380000e+001) (81, 1.75611615180969240000e+000) (82, -1.19375622272491460000e+000) (83, -3.67557890713214870000e-002) (84, 5.66352272033691410000e+000) (85, -2.83724069595336910000e-001) (86, 3.03407931327819820000e+000) (87, -2.11226999759674070000e-001) (88, 1.97195892333984380000e+001) (89, 2.56979495286941530000e-001) (90, 1.56723365187644960000e-001) (91, 5.82242488861083980000e+000) (92, -2.20529958605766300000e-001) (93, 1.70338619500398640000e-002) (94, -1.42011222839355470000e+001) (95, -9.46790933609008790000e-001) (96, 5.88861942291259770000e+000) (97, 2.30994343757629390000e-001) (98, 5.76844289898872380000e-002) (82, -6.77038908004760740000e-001) (83, 1.87095916271209720000e+000) (84, -9.24481630325317380000e-001) (85, 1.36102199554443360000e+001) (86, -5.12676179409027100000e-001) (87, 2.45154786109924320000e+000) (88, 6.18076801300048830000e-001) (89, 3.40030479431152340000e+000) (90, -1.16942062377929690000e+001) (91, 6.34992241859436040000e-001) (92, 8.55720424652099610000e+000) (93, -1.90983259677886960000e+000) (94, -4.39425796270370480000e-001) (95, 1.43066632747650150000e+000) (96, 2.55437403917312620000e-001) (97, 1.88808083534240720000e+000) (98, -5.18181228637695310000e+000) 
