FANN_FLO_2.1
num_layers=4
learning_rate=0.300000
connection_rate=1.000000
network_type=0
learning_momentum=0.500000
training_algorithm=2
train_error_function=0
train_stop_function=0
cascade_output_change_fraction=0.010000
quickprop_decay=-0.000100
quickprop_mu=1.750000
rprop_increase_factor=1.200000
rprop_decrease_factor=0.500000
rprop_delta_min=0.000000
rprop_delta_max=50.000000
rprop_delta_zero=0.100000
cascade_output_stagnation_epochs=12
cascade_candidate_change_fraction=0.010000
cascade_candidate_stagnation_epochs=12
cascade_max_out_epochs=150
cascade_min_out_epochs=50
cascade_max_cand_epochs=150
cascade_min_cand_epochs=50
cascade_num_candidate_groups=2
bit_fail_limit=3.49999994039535520000e-001
cascade_candidate_limit=1.00000000000000000000e+003
cascade_weight_multiplier=4.00000005960464480000e-001
cascade_activation_functions_count=10
cascade_activation_functions=3 5 7 8 10 11 14 15 16 17 
cascade_activation_steepnesses_count=4
cascade_activation_steepnesses=2.50000000000000000000e-001 5.00000000000000000000e-001 7.50000000000000000000e-001 1.00000000000000000000e+000 
layer_sizes=76 51 26 2 
scale_included=0
neurons (num_inputs, activation_function, activation_steepness)=(0, 0, 0.00000000000000000000e+000) (0, 0, 0.00000000000000000000e+000) (0, 0, 0.00000000000000000000e+000) (0, 0, 0.00000000000000000000e+000) (0, 0, 0.00000000000000000000e+000) (0, 0, 0.00000000000000000000e+000) (0, 0, 0.00000000000000000000e+000) (0, 0, 0.00000000000000000000e+000) (0, 0, 0.00000000000000000000e+000) (0, 0, 0.00000000000000000000e+000) (0, 0, 0.00000000000000000000e+000) (0, 0, 0.00000000000000000000e+000) (0, 0, 0.00000000000000000000e+000) (0, 0, 0.00000000000000000000e+000) (0, 0, 0.00000000000000000000e+000) (0, 0, 0.00000000000000000000e+000) (0, 0, 0.00000000000000000000e+000) (0, 0, 0.00000000000000000000e+000) (0, 0, 0.00000000000000000000e+000) (0, 0, 0.00000000000000000000e+000) (0, 0, 0.00000000000000000000e+000) (0, 0, 0.00000000000000000000e+000) (0, 0, 0.00000000000000000000e+000) (0, 0, 0.00000000000000000000e+000) (0, 0, 0.00000000000000000000e+000) (0, 0, 0.00000000000000000000e+000) (0, 0, 0.00000000000000000000e+000) (0, 0, 0.00000000000000000000e+000) (0, 0, 0.00000000000000000000e+000) (0, 0, 0.00000000000000000000e+000) (0, 0, 0.00000000000000000000e+000) (0, 0, 0.00000000000000000000e+000) (0, 0, 0.00000000000000000000e+000) (0, 0, 0.00000000000000000000e+000) (0, 0, 0.00000000000000000000e+000) (0, 0, 0.00000000000000000000e+000) (0, 0, 0.00000000000000000000e+000) (0, 0, 0.00000000000000000000e+000) (0, 0, 0.00000000000000000000e+000) (0, 0, 0.00000000000000000000e+000) (0, 0, 0.00000000000000000000e+000) (0, 0, 0.00000000000000000000e+000) (0, 0, 0.00000000000000000000e+000) (0, 0, 0.00000000000000000000e+000) (0, 0, 0.00000000000000000000e+000) (0, 0, 0.00000000000000000000e+000) (0, 0, 0.00000000000000000000e+000) (0, 0, 0.00000000000000000000e+000) (0, 0, 0.00000000000000000000e+000) (0, 0, 0.00000000000000000000e+000) (0, 0, 0.00000000000000000000e+000) (0, 0, 0.00000000000000000000e+000) (0, 0, 0.00000000000000000000e+000) (0, 0, 0.00000000000000000000e+000) (0, 0, 0.00000000000000000000e+000) (0, 0, 0.00000000000000000000e+000) (0, 0, 0.00000000000000000000e+000) (0, 0, 0.00000000000000000000e+000) (0, 0, 0.00000000000000000000e+000) (0, 0, 0.00000000000000000000e+000) (0, 0, 0.00000000000000000000e+000) (0, 0, 0.00000000000000000000e+000) (0, 0, 0.00000000000000000000e+000) (0, 0, 0.00000000000000000000e+000) (0, 0, 0.00000000000000000000e+000) (0, 0, 0.00000000000000000000e+000) (0, 0, 0.00000000000000000000e+000) (0, 0, 0.00000000000000000000e+000) (0, 0, 0.00000000000000000000e+000) (0, 0, 0.00000000000000000000e+000) (0, 0, 0.00000000000000000000e+000) (0, 0, 0.00000000000000000000e+000) (0, 0, 0.00000000000000000000e+000) (0, 0, 0.00000000000000000000e+000) (0, 0, 0.00000000000000000000e+000) (0, 0, 0.00000000000000000000e+000) (76, 5, 5.00000000000000000000e-001) (76, 5, 5.00000000000000000000e-001) (76, 5, 5.00000000000000000000e-001) (76, 5, 5.00000000000000000000e-001) (76, 5, 5.00000000000000000000e-001) (76, 5, 5.00000000000000000000e-001) (76, 5, 5.00000000000000000000e-001) (76, 5, 5.00000000000000000000e-001) (76, 5, 5.00000000000000000000e-001) (76, 5, 5.00000000000000000000e-001) (76, 5, 5.00000000000000000000e-001) (76, 5, 5.00000000000000000000e-001) (76, 5, 5.00000000000000000000e-001) (76, 5, 5.00000000000000000000e-001) (76, 5, 5.00000000000000000000e-001) (76, 5, 5.00000000000000000000e-001) (76, 5, 5.00000000000000000000e-001) (76, 5, 5.00000000000000000000e-001) (76, 5, 5.00000000000000000000e-001) (76, 5, 5.00000000000000000000e-001) (76, 5, 5.00000000000000000000e-001) (76, 5, 5.00000000000000000000e-001) (76, 5, 5.00000000000000000000e-001) (76, 5, 5.00000000000000000000e-001) (76, 5, 5.00000000000000000000e-001) (76, 5, 5.00000000000000000000e-001) (76, 5, 5.00000000000000000000e-001) (76, 5, 5.00000000000000000000e-001) (76, 5, 5.00000000000000000000e-001) (76, 5, 5.00000000000000000000e-001) (76, 5, 5.00000000000000000000e-001) (76, 5, 5.00000000000000000000e-001) (76, 5, 5.00000000000000000000e-001) (76, 5, 5.00000000000000000000e-001) (76, 5, 5.00000000000000000000e-001) (76, 5, 5.00000000000000000000e-001) (76, 5, 5.00000000000000000000e-001) (76, 5, 5.00000000000000000000e-001) (76, 5, 5.00000000000000000000e-001) (76, 5, 5.00000000000000000000e-001) (76, 5, 5.00000000000000000000e-001) (76, 5, 5.00000000000000000000e-001) (76, 5, 5.00000000000000000000e-001) (76, 5, 5.00000000000000000000e-001) (76, 5, 5.00000000000000000000e-001) (76, 5, 5.00000000000000000000e-001) (76, 5, 5.00000000000000000000e-001) (76, 5, 5.00000000000000000000e-001) (76, 5, 5.00000000000000000000e-001) (76, 5, 5.00000000000000000000e-001) (0, 5, 0.00000000000000000000e+000) (51, 5, 5.00000000000000000000e-001) (51, 5, 5.00000000000000000000e-001) (51, 5, 5.00000000000000000000e-001) (51, 5, 5.00000000000000000000e-001) (51, 5, 5.00000000000000000000e-001) (51, 5, 5.00000000000000000000e-001) (51, 5, 5.00000000000000000000e-001) (51, 5, 5.00000000000000000000e-001) (51, 5, 5.00000000000000000000e-001) (51, 5, 5.00000000000000000000e-001) (51, 5, 5.00000000000000000000e-001) (51, 5, 5.00000000000000000000e-001) (51, 5, 5.00000000000000000000e-001) (51, 5, 5.00000000000000000000e-001) (51, 5, 5.00000000000000000000e-001) (51, 5, 5.00000000000000000000e-001) (51, 5, 5.00000000000000000000e-001) (51, 5, 5.00000000000000000000e-001) (51, 5, 5.00000000000000000000e-001) (51, 5, 5.00000000000000000000e-001) (51, 5, 5.00000000000000000000e-001) (51, 5, 5.00000000000000000000e-001) (51, 5, 5.00000000000000000000e-001) (51, 5, 5.00000000000000000000e-001) (51, 5, 5.00000000000000000000e-001) (0, 5, 0.00000000000000000000e+000) (26, 0, 5.00000000000000000000e-001) (0, 0, 0.00000000000000000000e+000) 
connections (connected_to_neuron, weight)=(0, 1.35990881347656250000e+003) (1, 1.50000000000000000000e+003) (2, 1.49983959960937500000e+003) (3, 1.48707006835937500000e+003) (4, -1.50000000000000000000e+003) (5, 5.86740539550781250000e+002) (6, 1.45594384765625000000e+003) (7, 1.50000000000000000000e+003) (8, -7.94571166992187500000e+002) (9, 1.47207604980468750000e+003) (10, 1.10958093261718750000e+003) (11, 1.36836242675781250000e+003) (12, 1.47326098632812500000e+003) (13, -1.50000000000000000000e+003) (14, -1.50000000000000000000e+003) (15, 1.45715832519531250000e+003) (16, 1.50000000000000000000e+003) (17, -1.40579748535156250000e+003) (18, 1.50000000000000000000e+003) (19, -1.50000000000000000000e+003) (20, -1.49720520019531250000e+003) (21, 1.41982995605468750000e+003) (22, -1.48798278808593750000e+003) (23, -1.50000000000000000000e+003) (24, 1.37227392578125000000e+003) (25, 1.49993798828125000000e+003) (26, -1.50000000000000000000e+003) (27, -1.49988537597656250000e+003) (28, 1.50000000000000000000e+003) (29, 1.33291992187500000000e+003) (30, 1.50000000000000000000e+003) (31, 1.50000000000000000000e+003) (32, -1.49883544921875000000e+003) (33, 1.49989208984375000000e+003) (34, 1.50000000000000000000e+003) (35, -1.50000000000000000000e+003) (36, 1.41857702636718750000e+003) (37, -1.50000000000000000000e+003) (38, 1.49913818359375000000e+003) (39, 1.49017919921875000000e+003) (40, 1.50000000000000000000e+003) (41, -1.06673229980468750000e+003) (42, 1.45839416503906250000e+003) (43, 1.50000000000000000000e+003) (44, -6.70676879882812500000e+002) (45, 1.49709326171875000000e+003) (46, 1.50000000000000000000e+003) (47, -1.50000000000000000000e+003) (48, 1.49810485839843750000e+003) (49, -1.50000000000000000000e+003) (50, -1.50000000000000000000e+003) (51, 1.42375415039062500000e+003) (52, -1.50000000000000000000e+003) (53, 1.49629809570312500000e+003) (54, 1.46940954589843750000e+003) (55, 1.49999645996093750000e+003) (56, -1.12181176757812500000e+003) (57, 1.45908984375000000000e+003) (58, -1.49998669433593750000e+003) (59, 9.73004882812500000000e+002) (60, 1.48405053710937500000e+003) (61, 1.50000000000000000000e+003) (62, -1.49999987792968750000e+003) (63, 1.45475683593750000000e+003) (64, -1.48696337890625000000e+003) (65, -1.50000000000000000000e+003) (66, 1.46412390136718750000e+003) (67, -1.15518603515625000000e+003) (68, 3.71210632324218750000e+002) (69, 1.47917517089843750000e+003) (70, -1.50000000000000000000e+003) (71, 1.49992309570312500000e+003) (72, 1.48102893066406250000e+003) (73, 1.48211315917968750000e+003) (74, 1.49820642089843750000e+003) (75, 1.50000000000000000000e+003) (0, 2.99654275178909300000e-001) (1, 2.19423651695251460000e-001) (2, -2.25418269634246830000e-001) (3, 1.67991206049919130000e-001) (4, 4.61263179779052730000e-001) (5, 1.83815255761146550000e-001) (6, 1.18582837283611300000e-001) (7, 7.41088271141052250000e-001) (8, -2.02698454260826110000e-001) (9, -7.63130128383636470000e-001) (10, 3.93329650163650510000e-001) (11, 2.07649767398834230000e-002) (12, -2.65579760074615480000e-001) (13, -1.16699419915676120000e-001) (14, -1.47475108504295350000e-001) (15, 2.10875213146209720000e-001) (16, 1.74746308475732800000e-002) (17, 6.37226700782775880000e-002) (18, 4.04597580432891850000e-001) (19, 2.41946399211883540000e-001) (20, 2.76689883321523670000e-002) (21, 1.18795320391654970000e-001) (22, 3.67719411849975590000e-001) (23, -6.71143308281898500000e-002) (24, 3.40926170349121090000e-001) (25, 6.77112221717834470000e-001) (26, 5.45747801661491390000e-002) (27, -5.74765086174011230000e-001) (28, 5.29270529747009280000e-001) (29, 6.67168349027633670000e-002) (30, 1.76454395055770870000e-001) (31, -1.94676946848630910000e-002) (32, 1.19086511433124540000e-001) (33, 4.14617598056793210000e-001) (34, 3.47376883029937740000e-001) (35, 3.86883348226547240000e-001) (36, 1.27044007182121280000e-001) (37, 9.53721940517425540000e-001) (38, 4.50491249561309810000e-001) (39, 2.45286631584167480000e+000) (40, 3.00233542919158940000e-001) (41, -1.12357191741466520000e-001) (42, -8.77988278865814210000e-001) (43, 3.18983256816864010000e-001) (44, -5.58717072010040280000e-001) (45, 3.41272205114364620000e-002) (46, 2.50433441251516340000e-002) (47, 7.14284032583236690000e-002) (48, 2.69898772239685060000e-001) (49, 2.03637376427650450000e-001) (50, -2.41745132952928540000e-002) (51, 3.51259678602218630000e-001) (52, 5.06136953830718990000e-001) (53, 8.69288966059684750000e-002) (54, 5.75804531574249270000e-001) (55, 5.17190337181091310000e-001) (56, -1.54731705784797670000e-001) (57, -4.59566563367843630000e-001) (58, 3.47697496414184570000e-001) (59, -6.68009817600250240000e-002) (60, 3.31322520971298220000e-001) (61, 7.92411118745803830000e-002) (62, -1.04131713509559630000e-001) (63, 1.98359325528144840000e-001) (64, 2.17732563614845280000e-001) (65, 1.06959037482738490000e-001) (66, 3.30959945917129520000e-001) (67, 5.08410394191741940000e-001) (68, -2.89118662476539610000e-002) (69, -4.97878015041351320000e-001) (70, 3.76494109630584720000e-001) (71, 8.19254480302333830000e-003) (72, -7.38799721002578740000e-002) (73, 3.85182872414588930000e-002) (74, -1.83667048811912540000e-001) (75, -1.02413415908813480000e+000) (0, 8.31763446331024170000e-003) (1, -4.45921182632446290000e-001) (2, -1.30183011293411250000e-001) (3, 2.67951935529708860000e-001) (4, -4.53926324844360350000e-001) (5, 1.05816900730133060000e+000) (6, 1.70139700174331670000e-001) (7, 2.50497370958328250000e-001) (8, -2.15468987822532650000e-001) (9, -8.62337425351142880000e-002) (10, 2.16287985444068910000e-001) (11, 4.31742906570434570000e-001) (12, -1.91437795758247380000e-001) (13, -1.16918146610260010000e-001) (14, 2.85384431481361390000e-002) (15, 1.14491969347000120000e-001) (16, -1.11835755407810210000e-001) (17, 3.27347964048385620000e-001) (18, 4.21681344509124760000e-001) (19, 1.85273796319961550000e-001) (20, 1.30192708969116210000e+000) (21, 3.67055952548980710000e-001) (22, -2.95300871133804320000e-001) (23, -2.54376339912414550000e+000) (24, -1.07619822025299070000e-001) (25, 3.04643601179122920000e-001) (26, 6.40117973089218140000e-002) (27, -2.67784059047698970000e-001) (28, 3.95411908626556400000e-001) (29, 4.79758888483047490000e-001) (30, -3.96580934524536130000e-001) (31, -2.35184386372566220000e-001) (32, 4.73839640617370610000e-001) (33, 6.88757419586181640000e-001) (34, -8.58886837959289550000e-002) (35, 1.15529251098632810000e+000) (36, 3.54648113250732420000e-001) (37, -7.59024769067764280000e-002) (38, -3.13873553276062010000e+000) (39, -2.62628704309463500000e-001) (40, 2.01400756835937500000e+000) (41, 9.20817032456398010000e-002) (42, -8.72681975364685060000e-001) (43, 6.02060556411743160000e-001) (44, 1.29917144775390630000e-001) (45, 2.60798037052154540000e-001) (46, -1.84622943401336670000e-001) (47, -5.38336396217346190000e-001) (48, 1.98858648538589480000e-001) (49, -7.85019993782043460000e-002) (50, 1.26603400707244870000e+000) (51, 4.41655218601226810000e-002) (52, -1.66472509503364560000e-001) (53, -2.29332447052001950000e+000) (54, -1.70928046107292180000e-001) (55, -3.57071548700332640000e-001) (56, 2.73455023765563960000e-001) (57, -8.09718966484069820000e-002) (58, 8.09027254581451420000e-002) (59, 2.46317505836486820000e-001) (60, 2.10606276988983150000e-001) (61, -2.74451255798339840000e-001) (62, 2.45149254798889160000e-001) (63, 4.21344220638275150000e-001) (64, -1.05335220694541930000e-001) (65, -1.87475755810737610000e-001) (66, 2.82818526029586790000e-001) (67, -2.33090966939926150000e-001) (68, -4.22804832458496090000e-001) (69, -5.03410026431083680000e-002) (70, 2.36615270376205440000e-001) (71, 5.07833540439605710000e-001) (72, -2.03270033001899720000e-001) (73, 3.05038411170244220000e-002) (74, -4.09629076719284060000e-001) (75, 2.06651926040649410000e-001) (0, -1.50000000000000000000e+003) (1, -1.10009582519531250000e+003) (2, -1.50000000000000000000e+003) (3, -1.50000000000000000000e+003) (4, 1.48830249023437500000e+003) (5, -1.50000000000000000000e+003) (6, -1.50000000000000000000e+003) (7, 1.50000000000000000000e+003) (8, -1.49992932128906250000e+003) (9, -1.50000000000000000000e+003) (10, 1.50000000000000000000e+003) (11, -1.50000000000000000000e+003) (12, -1.50000000000000000000e+003) (13, -1.50000000000000000000e+003) (14, -1.50000000000000000000e+003) (15, -1.50000000000000000000e+003) (16, 5.02404937744140620000e+002) (17, -1.50000000000000000000e+003) (18, -1.50000000000000000000e+003) (19, -1.49926977539062500000e+003) (20, -1.50000000000000000000e+003) (21, -1.50000000000000000000e+003) (22, 1.50000000000000000000e+003) (23, 1.50000000000000000000e+003) (24, -1.50000000000000000000e+003) (25, -1.30732263183593750000e+003) (26, -1.49910217285156250000e+003) (27, -1.50000000000000000000e+003) (28, -1.50000000000000000000e+003) (29, -1.49999780273437500000e+003) (30, -1.50000000000000000000e+003) (31, -1.50000000000000000000e+003) (32, -1.49999780273437500000e+003) (33, -1.50000000000000000000e+003) (34, 1.50000000000000000000e+003) (35, -1.50000000000000000000e+003) (36, -1.50000000000000000000e+003) (37, 1.49964599609375000000e+003) (38, 1.50000000000000000000e+003) (39, -1.50000000000000000000e+003) (40, -1.50000000000000000000e+003) (41, -1.50000000000000000000e+003) (42, -1.50000000000000000000e+003) (43, 1.50000000000000000000e+003) (44, -1.50000000000000000000e+003) (45, -1.50000000000000000000e+003) (46, -1.50000000000000000000e+003) (47, -1.50000000000000000000e+003) (48, -1.50000000000000000000e+003) (49, -1.50000000000000000000e+003) (50, -1.50000000000000000000e+003) (51, -1.50000000000000000000e+003) (52, 1.50000000000000000000e+003) (53, -1.50000000000000000000e+003) (54, -1.50000000000000000000e+003) (55, -1.50000000000000000000e+003) (56, -1.50000000000000000000e+003) (57, -1.50000000000000000000e+003) (58, 1.50000000000000000000e+003) (59, -1.50000000000000000000e+003) (60, -1.50000000000000000000e+003) (61, -1.50000000000000000000e+003) (62, -1.50000000000000000000e+003) (63, -1.50000000000000000000e+003) (64, -1.50000000000000000000e+003) (65, -1.50000000000000000000e+003) (66, -1.50000000000000000000e+003) (67, 1.50000000000000000000e+003) (68, -1.50000000000000000000e+003) (69, -1.50000000000000000000e+003) (70, 1.50000000000000000000e+003) (71, -1.50000000000000000000e+003) (72, -1.50000000000000000000e+003) (73, -1.50000000000000000000e+003) (74, -1.50000000000000000000e+003) (75, -5.40890693664550780000e+000) (0, -1.36256140136718750000e+003) (1, 1.50000000000000000000e+003) (2, 1.50000000000000000000e+003) (3, -1.46264440917968750000e+003) (4, -1.49998852539062500000e+003) (5, -9.01452392578125000000e+002) (6, -8.01039550781250000000e+002) (7, -1.50000000000000000000e+003) (8, 1.50000000000000000000e+003) (9, -1.50000000000000000000e+003) (10, -1.50000000000000000000e+003) (11, 1.50000000000000000000e+003) (12, -1.50000000000000000000e+003) (13, -1.50000000000000000000e+003) (14, 1.50000000000000000000e+003) (15, -1.50000000000000000000e+003) (16, 1.49924621582031250000e+003) (17, 1.50000000000000000000e+003) (18, -1.50000000000000000000e+003) (19, -1.49530700683593750000e+003) (20, 1.50000000000000000000e+003) (21, -1.50000000000000000000e+003) (22, 1.50000000000000000000e+003) (23, 1.50000000000000000000e+003) (24, 1.49993054199218750000e+003) (25, -1.50000000000000000000e+003) (26, -1.46694262695312500000e+003) (27, -1.50000000000000000000e+003) (28, -1.50000000000000000000e+003) (29, 7.45819091796875000000e+000) (30, -1.50000000000000000000e+003) (31, -1.50000000000000000000e+003) (32, 1.50000000000000000000e+003) (33, -1.50000000000000000000e+003) (34, 1.50000000000000000000e+003) (35, 1.50000000000000000000e+003) (36, -1.50000000000000000000e+003) (37, -1.50000000000000000000e+003) (38, 1.50000000000000000000e+003) (39, 2.62934600830078120000e+002) (40, -1.50000000000000000000e+003) (41, -1.49663549804687500000e+003) (42, -1.50000000000000000000e+003) (43, -1.50000000000000000000e+003) (44, -1.50000000000000000000e+003) (45, -1.50000000000000000000e+003) (46, 1.50000000000000000000e+003) (47, -1.49996862792968750000e+003) (48, -1.50000000000000000000e+003) (49, -1.50000000000000000000e+003) (50, 1.49982092285156250000e+003) (51, -1.50000000000000000000e+003) (52, -9.85108581542968750000e+002) (53, 1.50000000000000000000e+003) (54, 1.41993200683593750000e+003) (55, -1.50000000000000000000e+003) (56, 1.49999621582031250000e+003) (57, -1.50000000000000000000e+003) (58, -1.50000000000000000000e+003) (59, -1.50000000000000000000e+003) (60, -1.50000000000000000000e+003) (61, 3.27317504882812500000e+002) (62, -1.50000000000000000000e+003) (63, -1.50000000000000000000e+003) (64, -1.50000000000000000000e+003) (65, 1.50000000000000000000e+003) (66, -1.50000000000000000000e+003) (67, 1.50000000000000000000e+003) (68, 1.50000000000000000000e+003) (69, -1.48532006835937500000e+003) (70, -1.50000000000000000000e+003) (71, -1.50000000000000000000e+003) (72, -1.50000000000000000000e+003) (73, -1.50000000000000000000e+003) (74, -1.21289831542968750000e+003) (75, 1.50000000000000000000e+003) (0, -1.81175187230110170000e-001) (1, -2.00961440801620480000e-001) (2, 4.40083473920822140000e-001) (3, -1.55355110764503480000e-001) (4, 5.54328024387359620000e-001) (5, -3.19344729185104370000e-001) (6, 9.82265695929527280000e-002) (7, 6.19979381561279300000e-001) (8, -3.38127493858337400000e-001) (9, 1.99410751461982730000e-001) (10, 1.87915459275245670000e-001) (11, -5.65773129463195800000e-001) (12, -2.48083427548408510000e-001) (13, -1.17748534679412840000e+000) (14, 5.49067378044128420000e-001) (15, 7.64379054307937620000e-002) (16, 6.05639815330505370000e-001) (17, -5.16471922397613530000e-001) (18, 3.79015356302261350000e-001) (19, 8.76259982585906980000e-001) (20, 5.42371034622192380000e-001) (21, -3.79287391901016240000e-001) (22, -2.22070360183715820000e+000) (23, -1.42499184608459470000e+000) (24, -5.61328381299972530000e-002) (25, 8.28908503055572510000e-001) (26, 5.21632432937622070000e-001) (27, -9.10079121589660640000e-001) (28, 1.12782478332519530000e+000) (29, 1.17068576812744140000e+000) (30, -3.42903971672058110000e-001) (31, -1.71369314193725590000e+000) (32, 6.56313359737396240000e-001) (33, 2.75094687938690190000e-001) (34, 3.62625312805175780000e+000) (35, 1.04388546943664550000e+000) (36, -1.32583570480346680000e+000) (37, 8.96603643894195560000e-001) (38, 3.61695200204849240000e-001) (39, -6.30881369113922120000e-001) (40, 2.92539882659912110000e+000) (41, 1.77909076213836670000e+000) (42, -2.81335920095443730000e-001) (43, 1.08255290985107420000e+000) (44, 1.26358485221862790000e+000) (45, 1.62311628460884090000e-001) (46, 9.42420423030853270000e-001) (47, 7.31356501579284670000e-001) (48, 4.11901017650961880000e-003) (49, 8.22962701320648190000e-001) (50, 5.04381537437438960000e-001) (51, -7.06473052501678470000e-001) (52, -2.86506366729736330000e+000) (53, 1.89954864978790280000e+000) (54, -2.07092747092247010000e-001) (55, -9.30195450782775880000e-001) (56, 2.81762689352035520000e-001) (57, -2.14478597044944760000e-001) (58, -2.43543446063995360000e-001) (59, 1.32347130775451660000e+000) (60, -2.21997022628784180000e-001) (61, 7.81141296029090880000e-002) (62, 5.35876214504241940000e-001) (63, -1.66514322161674500000e-001) (64, 1.03503465652465820000e+000) (65, 3.97252798080444340000e-001) (66, -3.40303480625152590000e-001) (67, -2.84567505121231080000e-001) (68, -1.17297804355621340000e+000) (69, 3.93536895513534550000e-001) (70, -1.13936281204223630000e+000) (71, 1.25431871414184570000e+000) (72, -1.25031515955924990000e-001) (73, 5.51936447620391850000e-001) (74, 1.41631531715393070000e+000) (75, -9.11344051361083980000e-001) (0, -2.89165405273437500000e+002) (1, 1.49996337890625000000e+003) (2, -1.49540295410156250000e+003) (3, 8.87098236083984380000e+001) (4, 1.18129882812500000000e+003) (5, -5.02428222656250000000e+002) (6, 1.49997131347656250000e+003) (7, -1.50000000000000000000e+003) (8, -1.21562683105468750000e+002) (9, 1.34774804687500000000e+003) (10, 1.50000000000000000000e+003) (11, 1.03675878906250000000e+003) (12, 1.49742199707031250000e+003) (13, -3.22538574218750000000e+002) (14, -1.01492694091796870000e+003) (15, 3.99405822753906250000e+002) (16, 1.49999108886718750000e+003) (17, 1.39384960937500000000e+003) (18, 1.74231395721435550000e+001) (19, 2.14655166625976560000e+002) (20, 1.50000000000000000000e+003) (21, 1.49999645996093750000e+003) (22, 1.42416821289062500000e+003) (23, 6.20488159179687500000e+002) (24, 3.61344268798828120000e+002) (25, -3.27011474609375000000e+002) (26, -1.49004223632812500000e+003) (27, 1.43344360351562500000e+003) (28, 1.43229858398437500000e+002) (29, 1.50000000000000000000e+003) (30, -1.49459997558593750000e+003) (31, 5.01401672363281250000e+002) (32, 1.49785180664062500000e+003) (33, -1.50000000000000000000e+003) (34, -1.48749304199218750000e+003) (35, 1.49991210937500000000e+003) (36, 1.20670996093750000000e+003) (37, 1.50000000000000000000e+003) (38, 1.49999890136718750000e+003) (39, 7.12895126342773440000e+001) (40, -1.50000000000000000000e+003) (41, -1.50000000000000000000e+003) (42, -1.49100000000000000000e+003) (43, 1.49998181152343750000e+003) (44, 1.49997155761718750000e+003) (45, 1.01277783203125000000e+003) (46, -1.30187329101562500000e+003) (47, -3.80975708007812500000e+002) (48, 8.27252990722656250000e+002) (49, 1.49999670410156250000e+003) (50, -1.50000000000000000000e+003) (51, 1.47523901367187500000e+003) (52, 8.89082153320312500000e+002) (53, 1.15697705078125000000e+003) (54, 1.09607398986816410000e+002) (55, -1.50000000000000000000e+003) (56, -1.50000000000000000000e+003) (57, 2.43092498779296870000e+002) (58, -1.19814514160156250000e+003) (59, 1.29679275512695310000e+002) (60, -1.49992663574218750000e+003) (61, 9.01892639160156250000e+002) (62, -1.49999938964843750000e+003) (63, 1.37763580322265620000e+002) (64, -6.47995178222656250000e+002) (65, 1.31458056640625000000e+003) (66, 6.16645908355712890000e+000) (67, -8.91679199218750000000e+002) (68, 1.49999890136718750000e+003) (69, 8.54255962371826170000e+000) (70, -6.03760864257812500000e+002) (71, 1.50000000000000000000e+003) (72, 1.66626033782958980000e+001) (73, 1.49974230957031250000e+003) (74, 1.49999121093750000000e+003) (75, 1.50000000000000000000e+003) (0, 1.96942314505577090000e-001) (1, 3.25844955444335940000e+000) (2, 2.54846358299255370000e+000) (3, 1.12586669623851780000e-001) (4, 3.15263152122497560000e+000) (5, -4.26281422376632690000e-001) (6, 4.37342017889022830000e-001) (7, 2.02214336395263670000e+000) (8, -2.81989544630050660000e-001) (9, 9.46237742900848390000e-001) (10, 1.47760033607482910000e+000) (11, 3.05556416511535640000e+000) (12, 1.37962114810943600000e+000) (13, 3.80288791656494140000e+000) (14, -2.82497429847717290000e+000) (15, 2.54492188105359670000e-004) (16, 1.71702480316162110000e+000) (17, -1.59164619445800780000e+000) (18, -9.44616124033927920000e-002) (19, -6.59701108932495120000e-001) (20, -1.10889947414398190000e+000) (21, 1.47653728723526000000e-001) (22, 6.80406999588012700000e+000) (23, 4.64898943901062010000e-001) (24, 9.77192819118499760000e-001) (25, 1.61613202095031740000e+000) (26, 4.47776056826114650000e-002) (27, 1.52992606163024900000e+000) (28, -1.69812679290771480000e+000) (29, 1.71501111984252930000e+000) (30, -1.25028414186090230000e-003) (31, 5.58016836643218990000e-001) (32, -4.99367427825927730000e+000) (33, -2.38701105117797850000e+000) (34, 1.86884438991546630000e+000) (35, 1.82869768142700200000e+000) (36, 1.31204330921173100000e+000) (37, 1.25849742889404300000e+001) (38, 3.52367210388183590000e+000) (39, 6.63122177124023440000e+000) (40, -8.53977298736572270000e+000) (41, 1.66178083419799800000e+000) (42, 1.68116247653961180000e+000) (43, -9.51136946678161620000e-001) (44, -2.39361572265625000000e+000) (45, 9.84877347946166990000e-002) (46, 1.50095403194427490000e+000) (47, 5.29040753841400150000e-001) (48, 4.39175099134445190000e-001) (49, 6.95409679412841800000e+000) (50, 2.98022675514221190000e+000) (51, 6.54789388179779050000e-001) (52, 7.73793363571166990000e+000) (53, 2.85939127206802370000e-001) (54, 1.43694651126861570000e+000) (55, -1.79239660501480100000e-001) (56, 1.72665402293205260000e-001) (57, 1.45904254913330080000e+000) (58, -1.95487749576568600000e+000) (59, 2.34400844573974610000e+000) (60, 3.40007603168487550000e-001) (61, -6.23234391212463380000e-001) (62, 3.82636570930480960000e+000) (63, 3.34636092185974120000e-001) (64, -1.01131558418273930000e+000) (65, -1.46748948097229000000e+000) (66, 2.23990991711616520000e-001) (67, 4.17778539657592770000e+000) (68, -2.38839983940124510000e+000) (69, 9.75796699523925780000e-001) (70, 3.93004965782165530000e+000) (71, -3.58709126710891720000e-001) (72, 1.16194570064544680000e+000) (73, 6.85159301757812500000e+000) (74, -3.50812721252441410000e+000) (75, 4.88423805236816410000e+001) (0, -1.50000000000000000000e+003) (1, -1.50000000000000000000e+003) (2, -1.50000000000000000000e+003) (3, -1.50000000000000000000e+003) (4, 1.50000000000000000000e+003) (5, -1.50000000000000000000e+003) (6, -1.50000000000000000000e+003) (7, -1.50000000000000000000e+003) (8, 2.59647705078125000000e+002) (9, -1.50000000000000000000e+003) (10, -1.49734558105468750000e+003) (11, -1.49445947265625000000e+003) (12, -1.50000000000000000000e+003) (13, -1.50000000000000000000e+003) (14, -1.49715856933593750000e+003) (15, -1.50000000000000000000e+003) (16, -1.50000000000000000000e+003) (17, -1.24283660888671870000e+002) (18, -1.50000000000000000000e+003) (19, -1.50000000000000000000e+003) (20, -1.32687469482421870000e+002) (21, -1.50000000000000000000e+003) (22, 1.50000000000000000000e+003) (23, 1.50000000000000000000e+003) (24, -1.50000000000000000000e+003) (25, -1.50000000000000000000e+003) (26, 1.50000000000000000000e+003) (27, -1.50000000000000000000e+003) (28, -1.50000000000000000000e+003) (29, 1.50000000000000000000e+003) (30, -1.50000000000000000000e+003) (31, -1.50000000000000000000e+003) (32, -1.50000000000000000000e+003) (33, -1.50000000000000000000e+003) (34, -1.50000000000000000000e+003) (35, 1.01176599121093750000e+003) (36, -1.50000000000000000000e+003) (37, 1.50000000000000000000e+003) (38, 1.50000000000000000000e+003) (39, -1.50000000000000000000e+003) (40, -1.50000000000000000000e+003) (41, -1.50000000000000000000e+003) (42, -1.50000000000000000000e+003) (43, 1.50000000000000000000e+003) (44, 1.37390173339843750000e+003) (45, -1.50000000000000000000e+003) (46, -1.50000000000000000000e+003) (47, -1.50000000000000000000e+003) (48, -1.50000000000000000000e+003) (49, -1.50000000000000000000e+003) (50, -1.50000000000000000000e+003) (51, -1.50000000000000000000e+003) (52, 1.50000000000000000000e+003) (53, -1.50000000000000000000e+003) (54, -1.50000000000000000000e+003) (55, -1.50000000000000000000e+003) (56, -1.50000000000000000000e+003) (57, -1.50000000000000000000e+003) (58, 7.77367370605468750000e+002) (59, -1.50000000000000000000e+003) (60, -1.50000000000000000000e+003) (61, -1.50000000000000000000e+003) (62, -1.50000000000000000000e+003) (63, -1.50000000000000000000e+003) (64, -1.50000000000000000000e+003) (65, 1.50000000000000000000e+003) (66, -1.50000000000000000000e+003) (67, 1.50000000000000000000e+003) (68, 1.47712048339843750000e+003) (69, -1.50000000000000000000e+003) (70, 1.50000000000000000000e+003) (71, -1.50000000000000000000e+003) (72, -1.50000000000000000000e+003) (73, -1.50000000000000000000e+003) (74, -1.50000000000000000000e+003) (75, -1.50000000000000000000e+003) (0, 6.64745271205902100000e-002) (1, 2.88051962852478030000e-001) (2, -1.67485058307647710000e-001) (3, 1.54956489801406860000e-001) (4, 5.35730063915252690000e-001) (5, -4.18614074587821960000e-002) (6, 3.47633361816406250000e-002) (7, 1.11596775054931640000e+000) (8, -7.93515324592590330000e-001) (9, -3.23734492063522340000e-001) (10, 7.73612499237060550000e-001) (11, -1.52294501662254330000e-001) (12, -3.45207005739212040000e-001) (13, 2.72677928209304810000e-001) (14, -3.59955281019210820000e-001) (15, 2.04047471284866330000e-001) (16, 1.29536122083663940000e-001) (17, -3.61211001873016360000e-001) (18, 5.01980900764465330000e-001) (19, -4.78839166462421420000e-002) (20, 9.26276221871376040000e-002) (21, 4.06999111175537110000e-001) (22, -2.61831730604171750000e-001) (23, -9.44867789745330810000e-001) (24, -5.87218850851058960000e-002) (25, 7.82671093940734860000e-001) (26, 4.18956816196441650000e-001) (27, -2.80092209577560420000e-001) (28, 4.09051567316055300000e-001) (29, 1.19464837014675140000e-001) (30, -1.00218079984188080000e-001) (31, -1.92695111036300660000e-001) (32, -9.67445666901767250000e-004) (33, 1.53119766712188720000e+000) (34, -8.54580998420715330000e-002) (35, 6.77061498165130620000e-001) (36, 4.23518359661102290000e-001) (37, -2.79992413520812990000e+000) (38, 6.06052875518798830000e-001) (39, -1.86739012598991390000e-001) (40, 1.99960216879844670000e-001) (41, 2.82079994678497310000e-001) (42, -5.28116703033447270000e-001) (43, 1.70554503798484800000e-001) (44, -3.50886493921279910000e-001) (45, 1.78568676114082340000e-001) (46, 1.66309233754873280000e-002) (47, 4.17060941457748410000e-001) (48, 3.63146573305130000000e-001) (49, -2.72164553403854370000e-001) (50, 3.59570920467376710000e-001) (51, 5.07588759064674380000e-002) (52, -3.43903630971908570000e-001) (53, 3.20395171642303470000e-001) (54, -1.83406293392181400000e-001) (55, 2.01661765575408940000e-001) (56, 9.14321541786193850000e-001) (57, -3.16792011260986330000e-001) (58, -8.70891883969306950000e-002) (59, 6.97369873523712160000e-001) (60, 1.15863181650638580000e-001) (61, 4.55647319555282590000e-001) (62, 2.75730162858963010000e-001) (63, 3.77928644418716430000e-001) (64, 8.71436834335327150000e-001) (65, -2.24905148148536680000e-001) (66, 1.27801150083541870000e-001) (67, 1.25047218799591060000e+000) (68, 4.16529066860675810000e-002) (69, -4.47457015514373780000e-001) (70, 7.40393161773681640000e-001) (71, 1.18619417771697040000e-002) (72, -3.66432785987854000000e-001) (73, 3.20717722177505490000e-001) (74, -6.29353821277618410000e-001) (75, 3.39372783899307250000e-001) (0, -1.50000000000000000000e+003) (1, 1.10928674316406250000e+003) (2, -1.50000000000000000000e+003) (3, -1.50000000000000000000e+003) (4, 1.50000000000000000000e+003) (5, -1.49957055664062500000e+003) (6, -1.50000000000000000000e+003) (7, 1.50000000000000000000e+003) (8, -1.42023107910156250000e+003) (9, -1.50000000000000000000e+003) (10, 1.50000000000000000000e+003) (11, -1.50000000000000000000e+003) (12, -1.50000000000000000000e+003) (13, 1.50000000000000000000e+003) (14, -1.50000000000000000000e+003) (15, -1.50000000000000000000e+003) (16, -1.50000000000000000000e+003) (17, -1.50000000000000000000e+003) (18, -1.50000000000000000000e+003) (19, 1.45742651367187500000e+003) (20, 1.50000000000000000000e+003) (21, -1.50000000000000000000e+003) (22, 1.50000000000000000000e+003) (23, 1.50000000000000000000e+003) (24, -1.50000000000000000000e+003) (25, -6.64599670410156250000e+002) (26, -1.50000000000000000000e+003) (27, -1.45067993164062500000e+003) (28, -1.50000000000000000000e+003) (29, -1.50000000000000000000e+003) (30, -1.50000000000000000000e+003) (31, -1.50000000000000000000e+003) (32, 1.49787878417968750000e+003) (33, -1.50000000000000000000e+003) (34, -1.50000000000000000000e+003) (35, 1.50000000000000000000e+003) (36, -1.50000000000000000000e+003) (37, 1.50000000000000000000e+003) (38, 1.50000000000000000000e+003) (39, -1.50000000000000000000e+003) (40, 9.67036376953125000000e+002) (41, -1.49997119140625000000e+003) (42, -1.50000000000000000000e+003) (43, 1.34132922363281250000e+003) (44, 4.37094024658203120000e+002) (45, -1.50000000000000000000e+003) (46, -1.50000000000000000000e+003) (47, 3.33295410156250000000e+002) (48, -1.50000000000000000000e+003) (49, -1.50000000000000000000e+003) (50, 1.50000000000000000000e+003) (51, -1.50000000000000000000e+003) (52, 1.50000000000000000000e+003) (53, 1.50000000000000000000e+003) (54, -1.50000000000000000000e+003) (55, 1.50000000000000000000e+003) (56, -1.49996862792968750000e+003) (57, -1.50000000000000000000e+003) (58, 1.50000000000000000000e+003) (59, -1.20119165039062500000e+003) (60, -1.50000000000000000000e+003) (61, -1.50000000000000000000e+003) (62, -1.49996948242187500000e+003) (63, -1.50000000000000000000e+003) (64, 1.49935925292968750000e+003) (65, 1.50000000000000000000e+003) (66, -1.50000000000000000000e+003) (67, 1.50000000000000000000e+003) (68, 1.50000000000000000000e+003) (69, -1.50000000000000000000e+003) (70, 1.50000000000000000000e+003) (71, -1.49994934082031250000e+003) (72, -1.50000000000000000000e+003) (73, -1.49699572753906250000e+003) (74, 1.50000000000000000000e+003) (75, 1.50000000000000000000e+003) (0, 1.21074676513671870000e+000) (1, -1.49993664550781250000e+003) (2, -1.50000000000000000000e+003) (3, 2.83405542373657230000e+000) (4, 1.50000000000000000000e+003) (5, -1.50000000000000000000e+003) (6, -3.60881958007812500000e+001) (7, -1.50000000000000000000e+003) (8, -1.50000000000000000000e+003) (9, 4.38620030879974370000e-001) (10, 1.50000000000000000000e+003) (11, -2.04790735244750980000e+000) (12, -5.16407072544097900000e-001) (13, -1.50000000000000000000e+003) (14, -6.42186203002929690000e+001) (15, 8.16832482814788820000e-001) (16, 1.50000000000000000000e+003) (17, -1.49999987792968750000e+003) (18, 1.50000000000000000000e+003) (19, 1.50000000000000000000e+003) (20, -1.50000000000000000000e+003) (21, -1.26885592937469480000e-001) (22, -1.50000000000000000000e+003) (23, -1.50000000000000000000e+003) (24, -1.50000000000000000000e+003) (25, 1.50000000000000000000e+003) (26, -1.49433312988281250000e+003) (27, -9.62901992797851560000e+001) (28, 1.50000000000000000000e+003) (29, 1.44925036621093750000e+003) (30, 4.08662796020507810000e+001) (31, 1.50000000000000000000e+003) (32, -1.50000000000000000000e+003) (33, 1.50000000000000000000e+003) (34, 1.50000000000000000000e+003) (35, -1.50000000000000000000e+003) (36, 3.20620894432067870000e+000) (37, -1.50000000000000000000e+003) (38, -1.50000000000000000000e+003) (39, -1.50000000000000000000e+003) (40, 1.50000000000000000000e+003) (41, -1.26906359863281250000e+003) (42, -3.97502410888671870000e+002) (43, 1.50000000000000000000e+003) (44, 1.50000000000000000000e+003) (45, 1.35748267173767090000e+000) (46, 1.50000000000000000000e+003) (47, -1.50000000000000000000e+003) (48, 4.11561981201171870000e+002) (49, 1.50000000000000000000e+003) (50, -1.50000000000000000000e+003) (51, -1.46082854270935060000e+000) (52, -1.50000000000000000000e+003) (53, -1.49329248046875000000e+003) (54, -2.78339935302734370000e+002) (55, 1.50000000000000000000e+003) (56, -1.48897692871093750000e+003) (57, -1.67841663360595700000e+001) (58, 1.50000000000000000000e+003) (59, 1.50000000000000000000e+003) (60, 3.49211072921752930000e+000) (61, 1.50000000000000000000e+003) (62, -1.50000000000000000000e+003) (63, 1.50000000000000000000e+003) (64, 1.34632714843750000000e+003) (65, -1.50000000000000000000e+003) (66, -8.32834148406982420000e+000) (67, -1.50000000000000000000e+003) (68, -2.00712783813476560000e+002) (69, 5.92753589153289790000e-001) (70, -1.50000000000000000000e+003) (71, 1.50000000000000000000e+003) (72, -3.83899993896484370000e+002) (73, 1.50000000000000000000e+003) (74, 1.50000000000000000000e+003) (75, 1.50000000000000000000e+003) (0, -5.06928443908691410000e-001) (1, -3.98065924644470210000e-001) (2, 1.08920969069004060000e-001) (3, -1.16201937198638920000e-002) (4, -3.83835643529891970000e-001) (5, 6.23510405421257020000e-002) (6, 2.81618148088455200000e-001) (7, -4.19212132692337040000e-002) (8, 4.01439592242240910000e-002) (9, 1.34810060262680050000e-003) (10, 3.18417459726333620000e-001) (11, 3.27880948781967160000e-001) (12, -5.69796919822692870000e-001) (13, 5.99502846598625180000e-002) (14, -4.00126159191131590000e-001) (15, 9.24556478857994080000e-002) (16, 9.12691429257392880000e-002) (17, -1.90907508134841920000e-001) (18, 3.13078224658966060000e-001) (19, 4.75250959396362300000e-001) (20, 3.08891758322715760000e-002) (21, 7.25851655006408690000e-001) (22, 4.15942192077636720000e-001) (23, 4.36406075954437260000e-001) (24, 3.32428574562072750000e-001) (25, 1.10216341912746430000e-001) (26, -1.09621894359588620000e+000) (27, 1.38458549976348880000e-001) (28, 4.31732088327407840000e-001) (29, -2.87366677075624470000e-002) (30, 4.32933717966079710000e-002) (31, 1.46786406636238100000e-001) (32, 3.26702982187271120000e-001) (33, 6.97856009006500240000e-001) (34, 6.68182596564292910000e-002) (35, -6.21559768915176390000e-002) (36, 8.72983634471893310000e-001) (37, 2.69798731803894040000e+000) (38, 1.01885282993316650000e+000) (39, 1.02888309955596920000e+000) (40, -8.69977295398712160000e-001) (41, -1.47940087318420410000e+000) (42, 2.84112125635147090000e-001) (43, -4.13103818893432620000e-001) (44, 6.37922585010528560000e-002) (45, -4.79722693562507630000e-002) (46, 1.40333443880081180000e-001) (47, -1.23979292809963230000e-001) (48, 2.52995818853378300000e-001) (49, 5.58799088001251220000e-001) (50, 3.37453603744506840000e-001) (51, 3.05276125669479370000e-001) (52, 8.70576739311218260000e-001) (53, 1.35692429542541500000e+000) (54, 3.04919213056564330000e-001) (55, 3.70847553014755250000e-001) (56, -9.95893716812133790000e-001) (57, -6.83611631393432620000e-002) (58, 4.78748418390750890000e-002) (59, 2.80526101589202880000e-001) (60, -1.68235450983047490000e-001) (61, 7.25015904754400250000e-003) (62, -2.30049103498458860000e-001) (63, -1.42121404409408570000e-001) (64, -1.74776837229728700000e-001) (65, -5.99138557910919190000e-001) (66, 1.67887419462203980000e-001) (67, 2.52678215503692630000e-001) (68, -1.86357870697975160000e-001) (69, -1.11202977597713470000e-001) (70, 1.26017838716506960000e-001) (71, 1.71485230326652530000e-001) (72, -2.30392202734947200000e-001) (73, -6.74560815095901490000e-002) (74, -1.69619366526603700000e-001) (75, -1.78592720031738280000e+001) (0, -2.80338592529296880000e+001) (1, -1.44695727539062500000e+003) (2, -9.08265686035156250000e+000) (3, 3.48735928535461430000e-001) (4, 1.50000000000000000000e+003) (5, 1.47502697753906250000e+003) (6, -7.05633087158203130000e+001) (7, -1.50000000000000000000e+003) (8, -1.50000000000000000000e+003) (9, 2.07080698013305660000e+000) (10, 1.07545959472656250000e+003) (11, 3.91245365142822270000e+000) (12, 4.97773528099060060000e-001) (13, -1.50000000000000000000e+003) (14, 1.44599487304687500000e+003) (15, -3.80386114120483400000e+000) (16, 1.50000000000000000000e+003) (17, -9.08798503875732420000e+000) (18, 1.50000000000000000000e+003) (19, 1.50000000000000000000e+003) (20, -1.47500000000000000000e+003) (21, -1.81143608093261720000e+001) (22, -1.50000000000000000000e+003) (23, -1.50000000000000000000e+003) (24, -8.10751628875732420000e+000) (25, 1.50000000000000000000e+003) (26, -1.45389819517731670000e-002) (27, -1.41738842773437500000e+003) (28, 1.50000000000000000000e+003) (29, 6.89891767501831050000e+000) (30, 1.39343464374542240000e+000) (31, 1.50000000000000000000e+003) (32, -1.49999987792968750000e+003) (33, 1.12700347900390620000e+002) (34, 1.50000000000000000000e+003) (35, -1.50000000000000000000e+003) (36, -7.45223876953125000000e+002) (37, -1.50000000000000000000e+003) (38, -1.49961059570312500000e+003) (39, 1.37593889236450200000e+000) (40, 1.50000000000000000000e+003) (41, -1.99210693359375000000e+002) (42, -3.94300770759582520000e+000) (43, -1.09338635253906250000e+003) (44, 6.04173839092254640000e-001) (45, 1.06680214405059810000e+000) (46, 1.50000000000000000000e+003) (47, -1.49999987792968750000e+003) (48, 9.05592501163482670000e-001) (49, 1.50000000000000000000e+003) (50, -1.50000000000000000000e+003) (51, -5.16153991699218750000e+002) (52, -1.50000000000000000000e+003) (53, -1.49951477050781250000e+003) (54, 9.92485046386718750000e-001) (55, 1.48500000000000000000e+003) (56, -1.49242517089843750000e+003) (57, -4.72994918823242190000e+001) (58, 1.49999694824218750000e+003) (59, -1.27277442932128910000e+002) (60, 3.83158802986145020000e-001) (61, 1.50000000000000000000e+003) (62, -2.48936958312988280000e+001) (63, -1.32722496986389160000e+000) (64, 1.50000000000000000000e+003) (65, -1.49999987792968750000e+003) (66, 5.14388501644134520000e-001) (67, -1.50000000000000000000e+003) (68, -5.40248274803161620000e-001) (69, 9.89076972007751460000e-001) (70, -1.50000000000000000000e+003) (71, 1.50000000000000000000e+003) (72, -3.13284337520599370000e-001) (73, 1.50000000000000000000e+003) (74, 1.50000000000000000000e+003) (75, 1.50000000000000000000e+003) (0, -2.35229179263114930000e-001) (1, 2.90304478257894520000e-002) (2, -6.33180281147360800000e-003) (3, -1.27440825104713440000e-001) (4, -4.70300279557704930000e-002) (5, 4.65826988220214840000e-002) (6, 1.59103423357009890000e-001) (7, 1.90738588571548460000e-001) (8, -4.22945767641067500000e-002) (9, 4.29508656263351440000e-001) (10, -1.34579151868820190000e-001) (11, 2.93037652969360350000e-001) (12, 7.33151018619537350000e-001) (13, -5.04727289080619810000e-002) (14, -1.72880236059427260000e-002) (15, 1.71838521957397460000e-001) (16, -1.15471161901950840000e-001) (17, 1.34348392486572270000e-001) (18, 4.01367306709289550000e-001) (19, -2.53670692443847660000e-001) (20, 4.35206472873687740000e-001) (21, 3.67059141397476200000e-001) (22, -7.89979696273803710000e-001) (23, 5.19655831158161160000e-002) (24, 2.13093733787536620000e+000) (25, 1.52071699500083920000e-001) (26, -4.09928679466247560000e-001) (27, 3.82912397384643550000e-001) (28, 9.17666032910346980000e-002) (29, 2.97147601842880250000e-001) (30, 1.87016338109970090000e-001) (31, 2.15986415743827820000e-001) (32, -6.20674602687358860000e-002) (33, 1.10411429405212400000e+000) (34, 6.16762280464172360000e-001) (35, -2.79765784740448000000e-001) (36, 2.29369699954986570000e-001) (37, 2.05876874923706050000e+000) (38, 1.76434412598609920000e-001) (39, 1.64875006675720210000e+000) (40, -1.71367228031158450000e-001) (41, 2.11454004049301150000e-001) (42, 6.63633704185485840000e-001) (43, 3.93687576055526730000e-001) (44, -1.40097647905349730000e-001) (45, 2.68936783075332640000e-001) (46, 7.55729228258132930000e-002) (47, -2.10058808326721190000e-001) (48, 7.86079764366149900000e-002) (49, -1.53200045228004460000e-001) (50, -1.08462730422616000000e-002) (51, 5.29891669750213620000e-001) (52, -2.50051677227020260000e-001) (53, 7.20425844192504880000e-001) (54, 5.35714745521545410000e-001) (55, -2.78907697647809980000e-002) (56, -3.66412699222564700000e-002) (57, 3.85193109512329100000e-001) (58, -3.43698495998978610000e-003) (59, -5.49045741558074950000e-001) (60, -3.39138954877853390000e-001) (61, 2.22870528697967530000e-001) (62, 2.46168300509452820000e-001) (63, -4.05635178089141850000e-001) (64, -4.48151864111423490000e-002) (65, -2.09985017776489260000e-001) (66, -6.98048248887062070000e-002) (67, -1.20859593152999880000e-002) (68, 1.52430653572082520000e-001) (69, 2.72519707679748540000e-001) (70, -1.13579161465168000000e-001) (71, -1.35898873209953310000e-001) (72, 8.61326754093170170000e-002) (73, -3.19721102714538570000e-002) (74, 1.01907268166542050000e-001) (75, 1.30279123783111570000e+000) (0, 3.20906192064285280000e-002) (1, -1.94147694855928420000e-003) (2, 4.24396339803934100000e-003) (3, 4.41378131508827210000e-002) (4, 1.08123058453202250000e-002) (5, 4.21221591532230380000e-002) (6, 2.39127296954393390000e-002) (7, 1.83212533593177800000e-001) (8, 1.66398629546165470000e-001) (9, -9.25802737474441530000e-002) (10, 1.79941594600677490000e-001) (11, -4.33313176035881040000e-002) (12, -1.09371997416019440000e-001) (13, 9.13465172052383420000e-002) (14, 6.94335773587226870000e-002) (15, 8.66132825613021850000e-002) (16, 5.91258630156517030000e-002) (17, 1.74769222736358640000e-001) (18, 2.14882522821426390000e-001) (19, 1.69528424739837650000e-001) (20, 1.91225200891494750000e-001) (21, 1.37799352407455440000e-001) (22, -1.06377564370632170000e-001) (23, -3.99880826473236080000e-001) (24, -2.74190127849578860000e-001) (25, -1.16244636476039890000e-001) (26, -2.51386046409606930000e-001) (27, -1.39863919466733930000e-002) (28, -7.93651416897773740000e-002) (29, 1.38462692499160770000e-001) (30, 2.87637084722518920000e-001) (31, 1.14683561027050020000e-001) (32, 2.23623365163803100000e-001) (33, 5.68442225456237790000e-001) (34, 3.13840329647064210000e-001) (35, 9.17515397071838380000e-001) (36, -1.84760929550975560000e-003) (37, -1.47672402858734130000e+000) (38, -1.26086187362670900000e+000) (39, 2.93110054917633530000e-003) (40, -1.32496237754821780000e-001) (41, -1.91266909241676330000e-002) (42, 5.00251129269599910000e-002) (43, -3.47240641713142400000e-002) (44, -1.59459933638572690000e-002) (45, 1.34699746966362000000e-001) (46, 8.49757790565490720000e-002) (47, 1.23918078839778900000e-001) (48, 1.46307259798049930000e-001) (49, 2.42297574877738950000e-001) (50, 2.83246159553527830000e-001) (51, 9.14304405450820920000e-002) (52, 1.64424434304237370000e-001) (53, -5.40883779525756840000e-001) (54, -1.77559271454811100000e-001) (55, 1.88019350171089170000e-001) (56, -9.29866358637809750000e-003) (57, -1.51162460446357730000e-001) (58, 7.97365829348564150000e-002) (59, 1.14967800676822660000e-001) (60, -4.44042608141899110000e-002) (61, -1.67514849454164510000e-002) (62, -1.28391668200492860000e-001) (63, 1.76827833056449890000e-001) (64, 1.43494606018066410000e-002) (65, 1.80444139987230300000e-002) (66, 1.49241313338279720000e-001) (67, 3.24031770229339600000e-001) (68, -1.34739562869071960000e-001) (69, -2.97922909259796140000e-001) (70, 1.93229377269744870000e-001) (71, 1.41230359673500060000e-001) (72, -3.72842326760292050000e-002) (73, -2.65578944236040120000e-002) (74, 4.65639382600784300000e-002) (75, -3.60732293128967290000e+000) (0, -7.92421400547027590000e-003) (1, -3.89748066663742070000e-002) (2, -2.61161088943481450000e-001) (3, 8.82089585065841670000e-002) (4, 1.78785379976034160000e-002) (5, -2.57139801979064940000e-001) (6, 2.10635453462600710000e-001) (7, 1.14816933870315550000e-001) (8, 3.30623984336853030000e-001) (9, 2.65062460675835610000e-003) (10, 1.30056574940681460000e-001) (11, -8.73504340648651120000e-001) (12, -2.32075434178113940000e-002) (13, 1.67651727795600890000e-001) (14, 6.02211177349090580000e-001) (15, 1.73369482159614560000e-001) (16, 8.74397978186607360000e-002) (17, 1.04615062475204470000e-001) (18, 1.53972223401069640000e-001) (19, 3.53752374649047850000e-001) (20, 1.44448187202215190000e-002) (21, 1.64433196187019350000e-001) (22, 4.83427047729492190000e-001) (23, 2.66980621963739400000e-002) (24, -1.41740188002586360000e-001) (25, 2.82723367214202880000e-001) (26, 2.88783699274063110000e-001) (27, -9.27020683884620670000e-002) (28, 1.20706349611282350000e-001) (29, -5.17449602484703060000e-002) (30, 6.28887951374053960000e-001) (31, 4.02894318103790280000e-001) (32, -6.90319389104843140000e-002) (33, 5.06318092346191410000e-001) (34, 5.67662358283996580000e-001) (35, -9.77326482534408570000e-002) (36, 2.00893253087997440000e-001) (37, 3.10144364833831790000e-001) (38, -2.18918427824974060000e-001) (39, -2.81904625892639160000e+000) (40, 9.11248445510864260000e-001) (41, 2.04651914536952970000e-002) (42, -4.39773052930831910000e-001) (43, 8.21106582880020140000e-002) (44, 8.29818025231361390000e-002) (45, 3.05821597576141360000e-002) (46, -1.15752704441547390000e-001) (47, -1.62320673465728760000e-001) (48, 1.54013007879257200000e-001) (49, 1.26092284917831420000e-001) (50, 5.78991472721099850000e-001) (51, -4.48864437639713290000e-002) (52, 9.57861989736557010000e-002) (53, -1.15615032613277440000e-001) (54, 6.87456503510475160000e-002) (55, 1.97268262505531310000e-001) (56, 1.00109755992889400000e-001) (57, -1.48926466703414920000e-001) (58, 6.05179220438003540000e-002) (59, 6.55822530388832090000e-002) (60, 8.45854803919792180000e-002) (61, 1.29163324832916260000e-001) (62, -1.65041140280663970000e-003) (63, 4.67990577220916750000e-001) (64, 3.75554084777832030000e-001) (65, -2.70650714635849000000e-001) (66, -1.15503929555416110000e-001) (67, 4.52358126640319820000e-001) (68, 4.97124493122100830000e-001) (69, -2.68099397420883180000e-001) (70, 1.20546989142894740000e-001) (71, -7.10858851671218870000e-002) (72, -1.38594254851341250000e-001) (73, 2.70783398300409320000e-002) (74, -2.56166279315948490000e-001) (75, 1.14720840454101560000e+001) (0, -1.23253382742404940000e-001) (1, -1.28424586728215220000e-002) (2, -1.01998463273048400000e-001) (3, -6.89093098044395450000e-002) (4, 3.36110172793269160000e-003) (5, -2.59306728839874270000e-001) (6, -1.10582426190376280000e-001) (7, -9.25180315971374510000e-002) (8, 2.26149186491966250000e-001) (9, 1.94071039557456970000e-001) (10, -1.64774749428033830000e-002) (11, 2.81896173954010010000e-001) (12, 1.98009032756090160000e-002) (13, -5.48452101647853850000e-002) (14, -2.43385806679725650000e-001) (15, -2.56243012845516200000e-002) (16, 8.33552628755569460000e-002) (17, 7.65485316514968870000e-002) (18, 1.52599915862083440000e-001) (19, 1.79757297039031980000e-001) (20, 2.40567743778228760000e-001) (21, 3.10934726148843770000e-002) (22, 3.67489233613014220000e-002) (23, -3.67309808731079100000e-001) (24, 1.42269097268581390000e-002) (25, 2.31894385069608690000e-002) (26, -1.20929375290870670000e-001) (27, -6.48225545883178710000e-002) (28, 3.91579195857048030000e-002) (29, -4.62240368127822880000e-001) (30, 2.53661900758743290000e-001) (31, 4.32786718010902400000e-002) (32, 3.82935523986816410000e-001) (33, 1.06974184513092040000e+000) (34, 4.77716177701950070000e-001) (35, 1.60887867212295530000e-001) (36, 5.90024590492248540000e-002) (37, -1.10921061038970950000e+000) (38, -5.43495953083038330000e-001) (39, 1.42599239945411680000e-001) (40, -8.56169834733009340000e-002) (41, 3.22208441793918610000e-002) (42, -7.67907351255416870000e-002) (43, 1.21960388496518140000e-002) (44, 1.05908103287220000000e-001) (45, -2.27106437087059020000e-001) (46, -1.06683604419231410000e-001) (47, 1.41283078119158740000e-002) (48, 5.45602262020111080000e-001) (49, 2.94183958321809770000e-002) (50, 8.01088139414787290000e-002) (51, 1.06206439435482030000e-001) (52, 1.78468152880668640000e-001) (53, -3.91644276678562160000e-002) (54, -1.32944703102111820000e-001) (55, 2.72583454847335820000e-001) (56, -3.00275564193725590000e-001) (57, 3.47842252813279630000e-003) (58, 1.46611809730529790000e-001) (59, 6.95097912102937700000e-003) (60, -5.86750656366348270000e-002) (61, 2.24222429096698760000e-002) (62, 1.11244603991508480000e-001) (63, 3.99823486804962160000e-003) (64, -3.84419336915016170000e-002) (65, -1.84854537248611450000e-001) (66, 1.11484870314598080000e-001) (67, 6.97706341743469240000e-002) (68, 1.86186477541923520000e-001) (69, -7.35707283020019530000e-002) (70, 1.04549542069435120000e-001) (71, 3.22910584509372710000e-002) (72, -2.89748370647430420000e-001) (73, -5.83703443408012390000e-002) (74, 1.29049926996231080000e-001) (75, -1.61673965454101560000e+001) (0, -1.50000000000000000000e+003) (1, -1.50000000000000000000e+003) (2, -1.49100000000000000000e+003) (3, -1.50000000000000000000e+003) (4, 1.50000000000000000000e+003) (5, -1.49991198730468750000e+003) (6, -1.50000000000000000000e+003) (7, -1.50000000000000000000e+003) (8, -1.49999267578125000000e+003) (9, -1.50000000000000000000e+003) (10, 1.45136486816406250000e+003) (11, -1.47016113281250000000e+003) (12, -1.50000000000000000000e+003) (13, 1.50000000000000000000e+003) (14, -1.50000000000000000000e+003) (15, -1.50000000000000000000e+003) (16, -1.50000000000000000000e+003) (17, -1.47500000000000000000e+003) (18, -1.50000000000000000000e+003) (19, -1.41496130371093750000e+003) (20, 1.50000000000000000000e+003) (21, -1.50000000000000000000e+003) (22, 1.50000000000000000000e+003) (23, 1.49999975585937500000e+003) (24, -1.50000000000000000000e+003) (25, -1.50000000000000000000e+003) (26, 1.50000000000000000000e+003) (27, -1.50000000000000000000e+003) (28, -1.49619885253906250000e+003) (29, 8.84527038574218750000e+002) (30, -1.50000000000000000000e+003) (31, -1.50000000000000000000e+003) (32, -1.49100000000000000000e+003) (33, -1.50000000000000000000e+003) (34, -1.21261520385742190000e+002) (35, 1.49997802734375000000e+003) (36, -1.50000000000000000000e+003) (37, 1.50000000000000000000e+003) (38, 1.50000000000000000000e+003) (39, -1.50000000000000000000e+003) (40, -1.50000000000000000000e+003) (41, 1.49997924804687500000e+003) (42, -1.50000000000000000000e+003) (43, 1.50000000000000000000e+003) (44, 1.50000000000000000000e+003) (45, -1.50000000000000000000e+003) (46, -1.50000000000000000000e+003) (47, -1.49997180175781250000e+003) (48, -1.50000000000000000000e+003) (49, -1.49720068359375000000e+003) (50, -1.50000000000000000000e+003) (51, -1.49459997558593750000e+003) (52, 1.50000000000000000000e+003) (53, -1.49939355468750000000e+003) (54, -1.50000000000000000000e+003) (55, -1.50000000000000000000e+003) (56, -9.88772827148437500000e+002) (57, -1.50000000000000000000e+003) (58, 1.50000000000000000000e+003) (59, -1.50000000000000000000e+003) (60, -1.50000000000000000000e+003) (61, -1.50000000000000000000e+003) (62, -1.47500000000000000000e+003) (63, -1.50000000000000000000e+003) (64, -1.50000000000000000000e+003) (65, -1.49990576171875000000e+003) (66, -1.50000000000000000000e+003) (67, -1.41184924316406250000e+003) (68, 1.50000000000000000000e+003) (69, -1.50000000000000000000e+003) (70, 1.50000000000000000000e+003) (71, 6.70060913085937500000e+002) (72, -1.50000000000000000000e+003) (73, -1.50000000000000000000e+003) (74, -1.49100000000000000000e+003) (75, 1.50000000000000000000e+003) (0, 1.95972651243209840000e-001) (1, 1.29645943641662600000e-001) (2, 8.01194384694099430000e-002) (3, 1.75781145691871640000e-001) (4, 3.24591428041458130000e-001) (5, -2.55773037672042850000e-001) (6, 1.57994270324707030000e-001) (7, 5.37456393241882320000e-001) (8, -3.71711581945419310000e-001) (9, -3.05744886398315430000e-001) (10, 5.09261667728424070000e-001) (11, 7.00737535953521730000e-001) (12, -3.62923413515090940000e-001) (13, 9.89944338798522950000e-002) (14, 1.23859465122222900000e-001) (15, 5.80180957913398740000e-002) (16, 2.15112090110778810000e-001) (17, -7.05366492271423340000e-001) (18, 5.67909836769104000000e-001) (19, 3.50181013345718380000e-001) (20, 1.29695166833698750000e-003) (21, 4.45694476366043090000e-001) (22, 5.54966330528259280000e-001) (23, 2.14505791664123540000e-001) (24, -2.73460417985916140000e-001) (25, -1.68064668774604800000e-001) (26, 5.77898681163787840000e-001) (27, -4.81767728924751280000e-002) (28, 1.72637253999710080000e-001) (29, -1.16433405876159670000e+000) (30, 3.98421645164489750000e-001) (31, 4.18636016547679900000e-002) (32, -6.64734840393066410000e-001) (33, 4.79110002517700200000e-001) (34, 3.64216983318328860000e-001) (35, 1.33167660236358640000e+000) (36, -2.12967380881309510000e-001) (37, -2.78207063674926760000e-001) (38, -4.14946699142456050000e+000) (39, -2.20971360802650450000e-001) (40, 1.47820091247558590000e+000) (41, 4.04227685928344730000e+000) (42, -7.35691189765930180000e-001) (43, 2.99930907785892490000e-002) (44, 7.69084930419921880000e-001) (45, -2.18181647360324860000e-002) (46, 2.45984807610511780000e-001) (47, -3.00321821123361590000e-002) (48, 2.99943864345550540000e-001) (49, 3.13489198684692380000e-001) (50, 4.61585335433483120000e-002) (51, 1.17846161127090450000e-001) (52, 4.34483826160430910000e-001) (53, -9.35770750045776370000e-001) (54, -2.22404941916465760000e-001) (55, 9.92623746395111080000e-001) (56, 1.11768865585327150000e+000) (57, -3.48322868347167970000e-001) (58, 4.57733213901519780000e-001) (59, 9.30702909827232360000e-002) (60, 4.16686564683914180000e-001) (61, 7.40083083510398860000e-002) (62, -6.24018788337707520000e-001) (63, 2.64190763235092160000e-001) (64, 2.79584288597106930000e-001) (65, -1.54517143964767460000e-001) (66, -3.85579449357464910000e-004) (67, 7.96328723430633540000e-001) (68, -6.06584250926971440000e-001) (69, -1.12091168761253360000e-001) (70, 6.24685943126678470000e-001) (71, 1.55773103237152100000e-001) (72, -2.16048240661621090000e-001) (73, 5.64238548278808590000e-001) (74, -5.78664064407348630000e-001) (75, 3.08522868156433110000e+000) (0, 4.93165433406829830000e-001) (1, 7.31265319824218750000e+002) (2, -1.50000000000000000000e+003) (3, 4.95146691799163820000e-001) (4, 1.50000000000000000000e+003) (5, 9.52445739746093750000e+002) (6, 4.84574496746063230000e-001) (7, -1.50000000000000000000e+003) (8, -1.50000000000000000000e+003) (9, 4.69857782125473020000e-001) (10, 1.49587878417968750000e+003) (11, -1.49426000976562500000e+003) (12, -1.25431984663009640000e-001) (13, -1.50000000000000000000e+003) (14, -1.45809509277343750000e+003) (15, 4.93675053119659420000e-001) (16, 1.50000000000000000000e+003) (17, -1.50000000000000000000e+003) (18, 1.50000000000000000000e+003) (19, 1.50000000000000000000e+003) (20, -1.50000000000000000000e+003) (21, 4.85662579536437990000e-001) (22, -1.50000000000000000000e+003) (23, -1.50000000000000000000e+003) (24, -6.06128871440887450000e-001) (25, 1.50000000000000000000e+003) (26, -1.46445849609375000000e+003) (27, -6.08143925666809080000e-001) (28, 1.50000000000000000000e+003) (29, -1.61869716644287110000e+001) (30, 1.50000000000000000000e+003) (31, 1.50000000000000000000e+003) (32, -1.50000000000000000000e+003) (33, 1.50000000000000000000e+003) (34, 1.50000000000000000000e+003) (35, -1.50000000000000000000e+003) (36, 5.21153807640075680000e-001) (37, -1.50000000000000000000e+003) (38, -1.50000000000000000000e+003) (39, -2.09714508056640620000e+000) (40, 1.50000000000000000000e+003) (41, -1.41867602539062500000e+003) (42, -3.43749642372131350000e-001) (43, 1.50000000000000000000e+003) (44, -1.47615747070312500000e+003) (45, 5.97839772701263430000e-001) (46, 1.50000000000000000000e+003) (47, -1.50000000000000000000e+003) (48, 4.12314682006835940000e+001) (49, 1.50000000000000000000e+003) (50, -1.50000000000000000000e+003) (51, 2.56907772272825240000e-002) (52, -1.50000000000000000000e+003) (53, -1.50000000000000000000e+003) (54, -8.80981922149658200000e-001) (55, 1.50000000000000000000e+003) (56, -8.44825561523437500000e+002) (57, -1.22304320335388180000e-001) (58, 1.50000000000000000000e+003) (59, -1.12603479003906250000e+003) (60, 7.49752521514892580000e-001) (61, 1.50000000000000000000e+003) (62, -1.50000000000000000000e+003) (63, 8.56385231018066410000e-001) (64, 1.45169348144531250000e+003) (65, -1.50000000000000000000e+003) (66, 5.73175251483917240000e-001) (67, -1.50000000000000000000e+003) (68, -6.27467651367187500000e+002) (69, 4.00708645582199100000e-001) (70, -1.50000000000000000000e+003) (71, 1.50000000000000000000e+003) (72, 6.94499909877777100000e-002) (73, 1.50000000000000000000e+003) (74, 1.50000000000000000000e+003) (75, 2.67390608787536620000e+000) (0, -8.11326885223388670000e+000) (1, 1.21770980834960940000e+002) (2, -1.50000000000000000000e+003) (3, -3.63433837890625000000e+000) (4, 1.50000000000000000000e+003) (5, -1.50000000000000000000e+003) (6, -1.86490802764892580000e+001) (7, -1.50000000000000000000e+003) (8, -1.50000000000000000000e+003) (9, -7.16683721542358400000e+000) (10, 1.50000000000000000000e+003) (11, -5.82770395278930660000e+000) (12, -7.24221229553222660000e+000) (13, -1.50000000000000000000e+003) (14, -1.49998925781250000000e+003) (15, 1.50000000000000000000e+003) (16, 1.50000000000000000000e+003) (17, -9.24930786132812500000e+002) (18, 1.50000000000000000000e+003) (19, 1.50000000000000000000e+003) (20, -1.50000000000000000000e+003) (21, -4.18807373046875000000e+001) (22, -1.50000000000000000000e+003) (23, -1.50000000000000000000e+003) (24, -7.54903030395507810000e+001) (25, 1.50000000000000000000e+003) (26, 7.37405700683593750000e+002) (27, -4.20487594604492190000e+001) (28, 1.50000000000000000000e+003) (29, -1.49988781738281250000e+003) (30, 1.50000000000000000000e+003) (31, 1.50000000000000000000e+003) (32, -1.50000000000000000000e+003) (33, 1.50000000000000000000e+003) (34, 1.50000000000000000000e+003) (35, -1.50000000000000000000e+003) (36, -3.74405860900878910000e+001) (37, -1.50000000000000000000e+003) (38, -1.50000000000000000000e+003) (39, -1.49981542968750000000e+003) (40, 1.50000000000000000000e+003) (41, -1.44872338867187500000e+003) (42, -3.78596069335937500000e+002) (43, 1.50000000000000000000e+003) (44, -1.48563745117187500000e+003) (45, 1.12309643554687500000e+003) (46, 8.49409423828125000000e+002) (47, -1.49993725585937500000e+003) (48, 7.58509765625000000000e+002) (49, 1.50000000000000000000e+003) (50, -1.50000000000000000000e+003) (51, -2.31082870483398440000e+002) (52, -1.50000000000000000000e+003) (53, -1.49951477050781250000e+003) (54, -3.03715686798095700000e+001) (55, 1.50000000000000000000e+003) (56, -2.28449676513671870000e+002) (57, -3.40009346008300780000e+001) (58, 1.50000000000000000000e+003) (59, -1.48825976562500000000e+003) (60, 2.62872934341430660000e-001) (61, 1.50000000000000000000e+003) (62, -1.50000000000000000000e+003) (63, 1.50000000000000000000e+003) (64, -1.49958801269531250000e+003) (65, -1.50000000000000000000e+003) (66, -1.43865337371826170000e+001) (67, -1.50000000000000000000e+003) (68, -1.50000000000000000000e+003) (69, -1.02637233734130860000e+001) (70, -1.50000000000000000000e+003) (71, 1.50000000000000000000e+003) (72, -8.89117527008056640000e+000) (73, 1.50000000000000000000e+003) (74, 1.50000000000000000000e+003) (75, 6.13771259784698490000e-001) (0, 1.50000000000000000000e+003) (1, 1.50000000000000000000e+003) (2, 1.50000000000000000000e+003) (3, 1.50000000000000000000e+003) (4, -1.49344128417968750000e+003) (5, 1.50000000000000000000e+003) (6, 1.50000000000000000000e+003) (7, -1.50000000000000000000e+003) (8, 1.50000000000000000000e+003) (9, 1.50000000000000000000e+003) (10, -1.50000000000000000000e+003) (11, 1.50000000000000000000e+003) (12, 1.50000000000000000000e+003) (13, -1.50000000000000000000e+003) (14, 1.49997094726562500000e+003) (15, 1.50000000000000000000e+003) (16, 1.50000000000000000000e+003) (17, 1.50000000000000000000e+003) (18, 1.50000000000000000000e+003) (19, 1.50000000000000000000e+003) (20, 1.49997119140625000000e+003) (21, 1.50000000000000000000e+003) (22, -1.50000000000000000000e+003) (23, 1.50000000000000000000e+003) (24, 1.49990087890625000000e+003) (25, -1.49997131347656250000e+003) (26, 1.50000000000000000000e+003) (27, 1.49989465332031250000e+003) (28, -2.24001007080078130000e+001) (29, 1.50000000000000000000e+003) (30, 1.50000000000000000000e+003) (31, 1.50000000000000000000e+003) (32, 1.50000000000000000000e+003) (33, 1.50000000000000000000e+003) (34, 1.50000000000000000000e+003) (35, -4.37876281738281250000e+002) (36, 1.50000000000000000000e+003) (37, -1.50000000000000000000e+003) (38, -1.50000000000000000000e+003) (39, 1.50000000000000000000e+003) (40, 1.50000000000000000000e+003) (41, 1.50000000000000000000e+003) (42, 1.49989599609375000000e+003) (43, -1.50000000000000000000e+003) (44, -8.90809448242187500000e+002) (45, 1.50000000000000000000e+003) (46, -1.50000000000000000000e+003) (47, 1.49996582031250000000e+003) (48, 1.50000000000000000000e+003) (49, 1.50000000000000000000e+003) (50, -1.50000000000000000000e+003) (51, 1.50000000000000000000e+003) (52, -1.50000000000000000000e+003) (53, -1.50000000000000000000e+003) (54, 1.50000000000000000000e+003) (55, 1.41732434082031250000e+003) (56, 1.49996643066406250000e+003) (57, 1.50000000000000000000e+003) (58, -1.50000000000000000000e+003) (59, 1.49908898925781250000e+003) (60, 1.50000000000000000000e+003) (61, 1.50000000000000000000e+003) (62, 1.49997143554687500000e+003) (63, 1.50000000000000000000e+003) (64, 1.50000000000000000000e+003) (65, 1.21800097656250000000e+003) (66, 1.50000000000000000000e+003) (67, -1.50000000000000000000e+003) (68, 1.49994067382812500000e+003) (69, 1.50000000000000000000e+003) (70, -1.50000000000000000000e+003) (71, -3.87077209472656250000e+002) (72, 1.49989648437500000000e+003) (73, 1.50000000000000000000e+003) (74, -3.34514587402343750000e+002) (75, 1.50000000000000000000e+003) (0, 2.57384681701660160000e+000) (1, -1.28120324707031250000e+003) (2, -1.49999963378906250000e+003) (3, 1.10951089859008790000e+000) (4, 1.50000000000000000000e+003) (5, -1.14208288192749020000e+001) (6, -2.54972487688064580000e-001) (7, -1.50000000000000000000e+003) (8, -1.50000000000000000000e+003) (9, -8.02221834659576420000e-001) (10, 1.50000000000000000000e+003) (11, 8.48151266574859620000e-001) (12, -1.35430169105529790000e+000) (13, -1.50000000000000000000e+003) (14, 3.02926898002624510000e+000) (15, 2.04287433624267580000e+000) (16, 1.50000000000000000000e+003) (17, 4.63507461547851560000e+001) (18, 1.50000000000000000000e+003) (19, 1.50000000000000000000e+003) (20, -1.50000000000000000000e+003) (21, 8.33120882511138920000e-001) (22, -1.50000000000000000000e+003) (23, -1.50000000000000000000e+003) (24, -2.56740150451660160000e+001) (25, 1.50000000000000000000e+003) (26, 3.33700776100158690000e-001) (27, -1.11632404327392580000e+001) (28, 1.50000000000000000000e+003) (29, 2.86133456230163570000e+000) (30, 2.28691005706787110000e+000) (31, 1.50000000000000000000e+003) (32, -1.49999987792968750000e+003) (33, 1.33676586914062500000e+003) (34, 1.50000000000000000000e+003) (35, -1.50000000000000000000e+003) (36, 8.68249833583831790000e-001) (37, -1.50000000000000000000e+003) (38, -1.50000000000000000000e+003) (39, -1.50000000000000000000e+003) (40, 1.50000000000000000000e+003) (41, -3.85396766662597660000e+001) (42, -6.68530502319335940000e+001) (43, 1.50000000000000000000e+003) (44, -2.21851199865341190000e-001) (45, 2.26594519615173340000e+000) (46, 1.50000000000000000000e+003) (47, -1.49999987792968750000e+003) (48, 2.43693518638610840000e+000) (49, 1.50000000000000000000e+003) (50, -1.50000000000000000000e+003) (51, -1.02364945411682130000e+000) (52, -1.50000000000000000000e+003) (53, -1.50000000000000000000e+003) (54, -1.90284023284912110000e+001) (55, 1.50000000000000000000e+003) (56, -1.43853112792968750000e+003) (57, -4.50135231018066410000e+000) (58, 1.50000000000000000000e+003) (59, 6.58069763183593750000e+002) (60, 2.83940458297729490000e+000) (61, 1.50000000000000000000e+003) (62, -1.50000000000000000000e+003) (63, 1.26947295665740970000e+000) (64, 1.31981848144531250000e+003) (65, -1.50000000000000000000e+003) (66, -3.99958443641662600000e+000) (67, -1.50000000000000000000e+003) (68, -1.49902697753906250000e+003) (69, -1.68917715549468990000e-001) (70, -1.50000000000000000000e+003) (71, 1.50000000000000000000e+003) (72, -6.61725044250488280000e+000) (73, 1.50000000000000000000e+003) (74, 2.97409606933593750000e+002) (75, 1.49955883789062500000e+003) (0, -9.78387966752052310000e-002) (1, -5.68920262157917020000e-002) (2, 4.22293022274971010000e-002) (3, 1.11075498163700100000e-001) (4, -4.68590110540390010000e-002) (5, -2.33670935034751890000e-001) (6, 5.30428439378738400000e-002) (7, -3.85000020265579220000e-001) (8, 5.65996840596199040000e-002) (9, 1.75220966339111330000e-001) (10, -2.56267756223678590000e-001) (11, -1.10863000154495240000e-001) (12, 1.83205351233482360000e-001) (13, -9.97611954808235170000e-002) (14, -7.02899023890495300000e-002) (15, -6.02021753787994380000e-001) (16, -2.48426854610443120000e-001) (17, 3.88663411140441890000e-002) (18, -8.25728535652160640000e-001) (19, -7.77261912822723390000e-001) (20, -2.89887666702270510000e-001) (21, -1.76383912563323970000e-001) (22, 7.18694448471069340000e-001) (23, 2.06736296415328980000e-001) (24, -4.39198762178421020000e-001) (25, 4.42212939262390140000e-001) (26, 1.81627124547958370000e-001) (27, -2.97951489686965940000e-001) (28, 8.98898616433143620000e-002) (29, 2.01194137334823610000e-001) (30, -1.61573752760887150000e-001) (31, -2.00011745095252990000e-001) (32, -8.02652165293693540000e-002) (33, 1.08947038650512700000e+000) (34, 4.33338470757007600000e-002) (35, -5.58471269905567170000e-002) (36, 1.58551800996065140000e-002) (37, 7.89120614528656010000e-001) (38, -2.40033581852912900000e-001) (39, -3.18280458450317380000e-001) (40, 3.44142973423004150000e-001) (41, -5.14906570315361020000e-002) (42, -1.27308696508407590000e-001) (43, 5.49656935036182400000e-002) (44, 7.28155598044395450000e-002) (45, 1.32892921566963200000e-001) (46, 1.47966310381889340000e-001) (47, 3.72391402721405030000e-001) (48, 1.40098452568054200000e-001) (49, 1.35050371289253230000e-001) (50, 3.35889160633087160000e-001) (51, 2.00457543134689330000e-001) (52, -5.18525838851928710000e-001) (53, -4.12577569484710690000e-001) (54, 2.55875110626220700000e-001) (55, -8.72728228569030760000e-002) (56, 1.63124933838844300000e-001) (57, -1.66275501251220700000e-002) (58, -1.79613884538412090000e-002) (59, -1.21420986950397490000e-001) (60, -1.89004197716712950000e-001) (61, -1.27713456749916080000e-001) (62, -1.39817908406257630000e-001) (63, 1.40341714024543760000e-001) (64, -1.23217470943927760000e-001) (65, 5.58807402849197390000e-002) (66, -1.37789519503712650000e-002) (67, 1.30304962396621700000e-001) (68, 1.23717516660690310000e-001) (69, -5.36808110773563390000e-002) (70, 8.66765603423118590000e-002) (71, -3.04661363363265990000e-001) (72, -1.10942468047142030000e-001) (73, 1.57056786119937900000e-002) (74, 1.85671329498291020000e-001) (75, -1.01454555988311770000e+000) (0, 9.82052124023437500000e+002) (1, 1.50000000000000000000e+003) (2, 1.50000000000000000000e+003) (3, 6.24241638183593750000e+002) (4, -1.49996740722656250000e+003) (5, 1.43750231933593750000e+003) (6, -3.05268135070800780000e+001) (7, 2.29330734252929690000e+002) (8, -1.33951806640625000000e+003) (9, 1.46687207031250000000e+003) (10, 1.37207922363281250000e+003) (11, 1.36443579101562500000e+003) (12, 1.26081848144531250000e+003) (13, -1.50000000000000000000e+003) (14, 1.40951354980468750000e+003) (15, -4.62558990478515620000e+002) (16, 6.16078308105468750000e+002) (17, -1.31711462402343750000e+003) (18, 1.41195507812500000000e+003) (19, -1.49999938964843750000e+003) (20, -1.49999243164062500000e+003) (21, -1.38157531738281250000e+003) (22, -1.50000000000000000000e+003) (23, 1.26014770507812500000e+003) (24, 2.81483398437500000000e+002) (25, 1.49987255859375000000e+003) (26, 1.42177697753906250000e+003) (27, -1.50000000000000000000e+003) (28, 1.50000000000000000000e+003) (29, 1.50000000000000000000e+003) (30, 1.49999877929687500000e+003) (31, 1.50000000000000000000e+003) (32, -1.43744885253906250000e+003) (33, 1.33343200683593750000e+003) (34, 1.50000000000000000000e+003) (35, -1.50000000000000000000e+003) (36, -3.51853851318359370000e+002) (37, -1.50000000000000000000e+003) (38, -8.91417541503906250000e+001) (39, 1.26305102539062500000e+003) (40, 1.50000000000000000000e+003) (41, -1.49997131347656250000e+003) (42, 5.60851257324218750000e+002) (43, -1.49789025878906250000e+003) (44, -1.48017541503906250000e+003) (45, 9.82684326171875000000e+002) (46, 1.50000000000000000000e+003) (47, -1.50000000000000000000e+003) (48, -5.03736877441406250000e+002) (49, 1.50000000000000000000e+003) (50, -1.50000000000000000000e+003) (51, -6.13144470214843750000e+002) (52, -1.50000000000000000000e+003) (53, -4.19828552246093750000e+002) (54, 1.43605200195312500000e+003) (55, 1.49988000488281250000e+003) (56, -1.46861193847656250000e+003) (57, 6.36643249511718750000e+002) (58, -1.50000000000000000000e+003) (59, -1.50000000000000000000e+003) (60, 1.49621994018554690000e+002) (61, 1.50000000000000000000e+003) (62, -1.50000000000000000000e+003) (63, 3.67502349853515620000e+002) (64, 1.50000000000000000000e+003) (65, -1.49996972656250000000e+003) (66, 6.78143432617187500000e+002) (67, -1.50000000000000000000e+003) (68, -1.46716540527343750000e+003) (69, 1.11436328125000000000e+003) (70, -1.50000000000000000000e+003) (71, 1.49997094726562500000e+003) (72, 1.43060546875000000000e+003) (73, 1.50000000000000000000e+003) (74, -2.57270935058593750000e+002) (75, 1.49986889648437500000e+003) (0, -1.50000000000000000000e+003) (1, -1.50000000000000000000e+003) (2, -1.50000000000000000000e+003) (3, -1.50000000000000000000e+003) (4, 1.49995446777343750000e+003) (5, -1.50000000000000000000e+003) (6, -1.50000000000000000000e+003) (7, 1.50000000000000000000e+003) (8, -1.50000000000000000000e+003) (9, -1.50000000000000000000e+003) (10, 1.34633850097656250000e+003) (11, -1.50000000000000000000e+003) (12, -1.50000000000000000000e+003) (13, -1.50000000000000000000e+003) (14, -1.50000000000000000000e+003) (15, -1.50000000000000000000e+003) (16, -1.50000000000000000000e+003) (17, -1.50000000000000000000e+003) (18, -1.50000000000000000000e+003) (19, 1.50000000000000000000e+003) (20, -1.50000000000000000000e+003) (21, -1.50000000000000000000e+003) (22, 1.50000000000000000000e+003) (23, -1.50000000000000000000e+003) (24, -1.50000000000000000000e+003) (25, -4.48664916992187500000e+002) (26, -1.50000000000000000000e+003) (27, -1.50000000000000000000e+003) (28, 1.50000000000000000000e+003) (29, -1.50000000000000000000e+003) (30, -1.50000000000000000000e+003) (31, -1.50000000000000000000e+003) (32, -1.50000000000000000000e+003) (33, -1.50000000000000000000e+003) (34, -1.50000000000000000000e+003) (35, -1.50000000000000000000e+003) (36, -1.50000000000000000000e+003) (37, 1.50000000000000000000e+003) (38, -1.50000000000000000000e+003) (39, -1.50000000000000000000e+003) (40, -1.50000000000000000000e+003) (41, -1.50000000000000000000e+003) (42, -1.50000000000000000000e+003) (43, 1.50000000000000000000e+003) (44, -1.49919128417968750000e+003) (45, -1.50000000000000000000e+003) (46, -1.50000000000000000000e+003) (47, -1.50000000000000000000e+003) (48, -1.50000000000000000000e+003) (49, -1.50000000000000000000e+003) (50, -1.50000000000000000000e+003) (51, -1.50000000000000000000e+003) (52, 1.50000000000000000000e+003) (53, -1.50000000000000000000e+003) (54, -1.50000000000000000000e+003) (55, 1.50000000000000000000e+003) (56, -1.50000000000000000000e+003) (57, -1.50000000000000000000e+003) (58, 1.50000000000000000000e+003) (59, -1.50000000000000000000e+003) (60, -1.50000000000000000000e+003) (61, -1.50000000000000000000e+003) (62, -1.50000000000000000000e+003) (63, -1.50000000000000000000e+003) (64, -1.50000000000000000000e+003) (65, -1.50000000000000000000e+003) (66, -1.50000000000000000000e+003) (67, 1.50000000000000000000e+003) (68, -1.50000000000000000000e+003) (69, -1.50000000000000000000e+003) (70, 1.50000000000000000000e+003) (71, -1.50000000000000000000e+003) (72, -1.50000000000000000000e+003) (73, -1.50000000000000000000e+003) (74, -1.50000000000000000000e+003) (75, -1.50000000000000000000e+003) (0, -6.58070296049118040000e-002) (1, -6.80352355957031250000e+002) (2, -1.49999597167968750000e+003) (3, 4.49085325002670290000e-001) (4, 1.50000000000000000000e+003) (5, 3.57347450256347660000e+001) (6, 3.74849200248718260000e-001) (7, -1.50000000000000000000e+003) (8, -9.14620422363281250000e+002) (9, 2.44613456726074220000e+000) (10, 1.49988171386718750000e+003) (11, 1.48086022949218750000e+003) (12, 6.53892993927001950000e-001) (13, -1.50000000000000000000e+003) (14, -2.23344955444335940000e+001) (15, 3.34388017654418950000e-001) (16, 1.50000000000000000000e+003) (17, -1.90347473144531250000e+002) (18, 1.50000000000000000000e+003) (19, 1.50000000000000000000e+003) (20, -1.50000000000000000000e+003) (21, 8.68387103080749510000e-001) (22, -1.50000000000000000000e+003) (23, -1.50000000000000000000e+003) (24, 2.44263625144958500000e+000) (25, 1.50000000000000000000e+003) (26, -1.49998217773437500000e+003) (27, -5.14918506145477290000e-001) (28, 1.50000000000000000000e+003) (29, -2.11005970835685730000e-001) (30, 1.82404212951660160000e+001) (31, 1.50000000000000000000e+003) (32, -1.49999267578125000000e+003) (33, 1.50000000000000000000e+003) (34, 1.50000000000000000000e+003) (35, -1.50000000000000000000e+003) (36, 8.61176133155822750000e-001) (37, -1.50000000000000000000e+003) (38, -1.49720520019531250000e+003) (39, 2.55782771110534670000e+000) (40, 1.50000000000000000000e+003) (41, -8.94717224121093750000e+002) (42, 7.77550399303436280000e-001) (43, 1.50000000000000000000e+003) (44, 1.90891116857528690000e-001) (45, 3.97200584411621090000e-001) (46, 1.50000000000000000000e+003) (47, -1.50000000000000000000e+003) (48, 9.83927369117736820000e-001) (49, 1.50000000000000000000e+003) (50, -1.50000000000000000000e+003) (51, 3.53469908237457280000e-001) (52, -1.50000000000000000000e+003) (53, -1.49999926757812500000e+003) (54, 1.92324864864349370000e+000) (55, 1.50000000000000000000e+003) (56, -2.28634643554687500000e+000) (57, 1.22387588024139400000e-001) (58, 1.50000000000000000000e+003) (59, 2.50253021717071530000e-001) (60, 8.49218606948852540000e-001) (61, 1.50000000000000000000e+003) (62, -1.50000000000000000000e+003) (63, 5.26564061641693120000e-001) (64, -4.53351196289062500000e+002) (65, -1.49720520019531250000e+003) (66, 3.92736405134201050000e-001) (67, -1.50000000000000000000e+003) (68, -2.37487864494323730000e+000) (69, 2.32665371894836430000e+000) (70, -1.50000000000000000000e+003) (71, 1.50000000000000000000e+003) (72, 1.74396467208862300000e+000) (73, 1.50000000000000000000e+003) (74, 1.52861845493316650000e+000) (75, 1.50000000000000000000e+003) (0, -1.50000000000000000000e+003) (1, 1.49983410644531250000e+003) (2, -1.50000000000000000000e+003) (3, -1.50000000000000000000e+003) (4, -1.50000000000000000000e+003) (5, -1.50000000000000000000e+003) (6, -3.32782840728759770000e+000) (7, 1.50000000000000000000e+003) (8, -1.50000000000000000000e+003) (9, -4.32145202636718750000e+002) (10, -1.50000000000000000000e+003) (11, -1.50000000000000000000e+003) (12, -1.50000000000000000000e+003) (13, -1.50000000000000000000e+003) (14, -1.50000000000000000000e+003) (15, -1.50000000000000000000e+003) (16, -1.50000000000000000000e+003) (17, -1.50000000000000000000e+003) (18, -1.50000000000000000000e+003) (19, 1.50000000000000000000e+003) (20, 6.49865112304687500000e+002) (21, -1.44729700088500980000e+001) (22, 1.50000000000000000000e+003) (23, -1.50000000000000000000e+003) (24, -1.50000000000000000000e+003) (25, -1.50000000000000000000e+003) (26, -1.50000000000000000000e+003) (27, -1.50000000000000000000e+003) (28, 1.50000000000000000000e+003) (29, -1.50000000000000000000e+003) (30, -1.50000000000000000000e+003) (31, -1.50000000000000000000e+003) (32, -1.50000000000000000000e+003) (33, -1.50000000000000000000e+003) (34, -1.50000000000000000000e+003) (35, -1.49828747558593750000e+003) (36, -1.50000000000000000000e+003) (37, 1.50000000000000000000e+003) (38, -1.50000000000000000000e+003) (39, -1.50000000000000000000e+003) (40, 1.10090563964843750000e+003) (41, -1.50000000000000000000e+003) (42, -1.50000000000000000000e+003) (43, 1.50000000000000000000e+003) (44, -1.50000000000000000000e+003) (45, -1.50000000000000000000e+003) (46, -1.50000000000000000000e+003) (47, -1.50000000000000000000e+003) (48, -1.50000000000000000000e+003) (49, -1.50000000000000000000e+003) (50, -1.50000000000000000000e+003) (51, -1.50000000000000000000e+003) (52, 1.50000000000000000000e+003) (53, -1.50000000000000000000e+003) (54, 1.54176580905914310000e+000) (55, 1.50000000000000000000e+003) (56, -1.50000000000000000000e+003) (57, -7.01090026855468750000e+002) (58, -1.50000000000000000000e+003) (59, -1.50000000000000000000e+003) (60, -1.50000000000000000000e+003) (61, -1.50000000000000000000e+003) (62, -1.50000000000000000000e+003) (63, -1.50000000000000000000e+003) (64, -1.50000000000000000000e+003) (65, -1.50000000000000000000e+003) (66, -1.50000000000000000000e+003) (67, 1.50000000000000000000e+003) (68, -1.50000000000000000000e+003) (69, -1.50000000000000000000e+003) (70, 1.50000000000000000000e+003) (71, -1.50000000000000000000e+003) (72, -1.50000000000000000000e+003) (73, -1.50000000000000000000e+003) (74, -1.50000000000000000000e+003) (75, -1.50000000000000000000e+003) (0, -3.47233057022094730000e-001) (1, -9.48723256587982180000e-002) (2, 1.80899828672409060000e-001) (3, -7.36960589885711670000e-001) (4, -5.37422060966491700000e-001) (5, -1.61665275692939760000e-001) (6, -5.08090913295745850000e-001) (7, -1.18527734279632570000e+000) (8, -5.96149032935500140000e-003) (9, 1.05560755729675290000e+000) (10, -1.04581499099731450000e+000) (11, -9.91122275590896610000e-002) (12, 5.89845895767211910000e-001) (13, -1.96754485368728640000e-001) (14, 4.65821698307991030000e-002) (15, 1.63269266486167910000e-001) (16, 1.03633150458335880000e-001) (17, 2.22174197435379030000e-001) (18, -1.91379889845848080000e-001) (19, -2.64385361224412920000e-002) (20, -5.42849414050579070000e-002) (21, -4.46987658739089970000e-001) (22, -8.01694691181182860000e-001) (23, -1.95533871650695800000e-001) (24, 3.59507173299789430000e-001) (25, -6.08498036861419680000e-001) (26, 2.90393710136413570000e-001) (27, 4.13103789091110230000e-001) (28, -1.89801543951034550000e-001) (29, -1.50840342044830320000e-001) (30, -9.68682765960693360000e-002) (31, -1.90093554556369780000e-002) (32, 1.34716421365737920000e-001) (33, 1.52754580974578860000e+000) (34, 1.74918398261070250000e-001) (35, -6.99297487735748290000e-001) (36, -1.19262063503265380000e+000) (37, 1.54986929893493650000e+000) (38, -3.46000760793685910000e-001) (39, -6.33853852748870850000e-001) (40, 2.15903833508491520000e-001) (41, 5.73428928852081300000e-001) (42, -4.21484485268592830000e-002) (43, -2.03196853399276730000e-002) (44, 4.33226287364959720000e-001) (45, -1.21334426105022430000e-001) (46, -1.17190875113010410000e-001) (47, 1.97163477540016170000e-001) (48, -4.99435901641845700000e-001) (49, -4.44679588079452510000e-001) (50, -3.70847284793853760000e-001) (51, -8.20825099945068360000e-001) (52, -7.26681053638458250000e-001) (53, -6.46176561713218690000e-003) (54, 2.93326646089553830000e-001) (55, -8.43703031539916990000e-001) (56, 2.47269898653030400000e-001) (57, 5.33144295215606690000e-001) (58, -1.97954639792442320000e-001) (59, -2.41835221648216250000e-001) (60, -1.98439761996269230000e-001) (61, -3.94857972860336300000e-002) (62, 6.29577115178108220000e-002) (63, -6.34174704551696780000e-001) (64, -3.53952616453170780000e-001) (65, -7.95869007706642150000e-002) (66, -3.20423990488052370000e-001) (67, -1.07467234134674070000e+000) (68, 1.11991107463836670000e-001) (69, 8.33515703678131100000e-001) (70, -8.11269760131835940000e-001) (71, -1.80518075823783870000e-001) (72, 3.37937384843826290000e-001) (73, -1.67640715837478640000e-001) (74, 1.53621762990951540000e-001) (75, -3.51652652025222780000e-001) (0, -1.50000000000000000000e+003) (1, 1.50000000000000000000e+003) (2, -1.50000000000000000000e+003) (3, -1.50000000000000000000e+003) (4, -1.50000000000000000000e+003) (5, -1.49999731445312500000e+003) (6, -1.50000000000000000000e+003) (7, 1.50000000000000000000e+003) (8, -1.17401977539062500000e+003) (9, -1.50000000000000000000e+003) (10, 1.50000000000000000000e+003) (11, -1.50000000000000000000e+003) (12, -1.50000000000000000000e+003) (13, -1.50000000000000000000e+003) (14, -1.50000000000000000000e+003) (15, -1.50000000000000000000e+003) (16, -1.50000000000000000000e+003) (17, -1.50000000000000000000e+003) (18, -1.50000000000000000000e+003) (19, -1.50000000000000000000e+003) (20, 1.50000000000000000000e+003) (21, -1.50000000000000000000e+003) (22, 1.50000000000000000000e+003) (23, 1.50000000000000000000e+003) (24, -1.50000000000000000000e+003) (25, 1.50000000000000000000e+003) (26, -1.50000000000000000000e+003) (27, -1.38511218261718750000e+003) (28, -1.50000000000000000000e+003) (29, -1.50000000000000000000e+003) (30, -1.50000000000000000000e+003) (31, -1.50000000000000000000e+003) (32, -1.50000000000000000000e+003) (33, -1.50000000000000000000e+003) (34, -1.50000000000000000000e+003) (35, -1.44201416015625000000e+003) (36, -1.50000000000000000000e+003) (37, 1.50000000000000000000e+003) (38, 1.50000000000000000000e+003) (39, -1.50000000000000000000e+003) (40, -1.49677575683593750000e+003) (41, -1.50000000000000000000e+003) (42, -1.50000000000000000000e+003) (43, 1.49991235351562500000e+003) (44, -1.50000000000000000000e+003) (45, -1.50000000000000000000e+003) (46, -1.50000000000000000000e+003) (47, -1.50000000000000000000e+003) (48, -1.50000000000000000000e+003) (49, -1.50000000000000000000e+003) (50, 1.50000000000000000000e+003) (51, -1.50000000000000000000e+003) (52, 1.50000000000000000000e+003) (53, 1.49117675781250000000e+003) (54, -1.50000000000000000000e+003) (55, 1.50000000000000000000e+003) (56, -1.50000000000000000000e+003) (57, -1.50000000000000000000e+003) (58, 1.50000000000000000000e+003) (59, -1.24559118652343750000e+003) (60, -1.50000000000000000000e+003) (61, -1.50000000000000000000e+003) (62, -1.50000000000000000000e+003) (63, -1.50000000000000000000e+003) (64, -1.50000000000000000000e+003) (65, -1.49355310058593750000e+003) (66, -1.50000000000000000000e+003) (67, 1.50000000000000000000e+003) (68, -1.49960595703125000000e+003) (69, -1.50000000000000000000e+003) (70, 1.50000000000000000000e+003) (71, -1.50000000000000000000e+003) (72, -1.50000000000000000000e+003) (73, -1.50000000000000000000e+003) (74, -3.03460712432861330000e+001) (75, -1.63458282470703120000e+002) (0, -1.50000000000000000000e+003) (1, -1.50000000000000000000e+003) (2, -1.50000000000000000000e+003) (3, -1.50000000000000000000e+003) (4, 1.11169421386718750000e+003) (5, -1.50000000000000000000e+003) (6, 1.19350601196289060000e+002) (7, 1.50000000000000000000e+003) (8, -1.50000000000000000000e+003) (9, -1.49808093261718750000e+003) (10, -1.50000000000000000000e+003) (11, -1.50000000000000000000e+003) (12, -1.50000000000000000000e+003) (13, -1.50000000000000000000e+003) (14, -1.50000000000000000000e+003) (15, -1.50000000000000000000e+003) (16, -1.50000000000000000000e+003) (17, -1.50000000000000000000e+003) (18, -1.49996105957031250000e+003) (19, 1.50000000000000000000e+003) (20, -1.50000000000000000000e+003) (21, 1.49998107910156250000e+003) (22, -1.50000000000000000000e+003) (23, -1.50000000000000000000e+003) (24, -1.50000000000000000000e+003) (25, -1.49981921386718750000e+003) (26, -1.50000000000000000000e+003) (27, -1.50000000000000000000e+003) (28, -1.50000000000000000000e+003) (29, -1.50000000000000000000e+003) (30, -1.10185412597656250000e+003) (31, -1.50000000000000000000e+003) (32, -1.50000000000000000000e+003) (33, -1.50000000000000000000e+003) (34, 6.12126403808593750000e+002) (35, -1.50000000000000000000e+003) (36, 1.49816247558593750000e+003) (37, 1.50000000000000000000e+003) (38, -1.50000000000000000000e+003) (39, -1.50000000000000000000e+003) (40, -6.71255126953125000000e+002) (41, -1.50000000000000000000e+003) (42, -1.50000000000000000000e+003) (43, 1.35050915527343750000e+003) (44, -1.50000000000000000000e+003) (45, -1.50000000000000000000e+003) (46, -1.50000000000000000000e+003) (47, -1.50000000000000000000e+003) (48, -1.50000000000000000000e+003) (49, -1.50000000000000000000e+003) (50, -1.50000000000000000000e+003) (51, -1.50000000000000000000e+003) (52, -1.26858239746093750000e+003) (53, -1.50000000000000000000e+003) (54, -1.50000000000000000000e+003) (55, 1.50000000000000000000e+003) (56, -1.50000000000000000000e+003) (57, -1.50000000000000000000e+003) (58, 1.50000000000000000000e+003) (59, -1.50000000000000000000e+003) (60, -1.43627880859375000000e+003) (61, -1.50000000000000000000e+003) (62, -1.50000000000000000000e+003) (63, -1.50000000000000000000e+003) (64, 1.50000000000000000000e+003) (65, -1.50000000000000000000e+003) (66, -1.50000000000000000000e+003) (67, -1.50000000000000000000e+003) (68, -1.50000000000000000000e+003) (69, -1.50000000000000000000e+003) (70, 1.50000000000000000000e+003) (71, -1.50000000000000000000e+003) (72, -2.59276885986328120000e+002) (73, -1.50000000000000000000e+003) (74, -1.49100000000000000000e+003) (75, -1.50000000000000000000e+003) (0, 4.57130479812622070000e+000) (1, 1.50000000000000000000e+003) (2, 1.49999304199218750000e+003) (3, 8.70605409145355220000e-001) (4, -9.93717224121093750000e+002) (5, 1.47232678222656250000e+003) (6, 3.67404937744140630000e-001) (7, -9.21988906860351560000e+001) (8, 9.74806060791015630000e+001) (9, 1.27639377117156980000e+000) (10, 1.50000000000000000000e+003) (11, 1.50000000000000000000e+003) (12, 5.16401112079620360000e-001) (13, 2.26484817504882810000e+002) (14, -1.49616394042968750000e+003) (15, 1.43471093750000000000e+003) (16, -5.59751220703125000000e+002) (17, 1.49993115234375000000e+003) (18, 4.77204101562500000000e+002) (19, -9.13631774902343750000e+002) (20, 1.42826379394531250000e+003) (21, 2.04214553833007810000e+001) (22, 1.50000000000000000000e+003) (23, -4.02964355468750000000e+002) (24, 1.30204870605468750000e+003) (25, 1.49819458007812500000e+003) (26, -2.27643402099609370000e+002) (27, 3.41923165321350100000e+000) (28, 1.50000000000000000000e+003) (29, 5.86204711914062500000e+002) (30, -5.87470947265625000000e+002) (31, 1.49988854980468750000e+003) (32, -1.93260894775390620000e+002) (33, 1.19707580566406250000e+003) (34, -1.49034106445312500000e+003) (35, 1.49998852539062500000e+003) (36, 1.12273979187011720000e+000) (37, -1.45013427734375000000e+003) (38, 1.50000000000000000000e+003) (39, 5.64611778259277340000e+001) (40, 1.50000000000000000000e+003) (41, -1.49997900390625000000e+003) (42, 5.48497140407562260000e-001) (43, 1.49999255371093750000e+003) (44, -1.49834240722656250000e+003) (45, 5.93559936523437500000e+002) (46, 1.50000000000000000000e+003) (47, -1.49728625488281250000e+003) (48, 1.19795808792114260000e+001) (49, -1.49720068359375000000e+003) (50, -1.49999987792968750000e+003) (51, 1.53335586547851560000e+002) (52, -3.56571899414062500000e+002) (53, 1.08706024169921870000e+002) (54, 8.77211809158325200000e-001) (55, 8.56753784179687500000e+002) (56, 1.49134277343750000000e+003) (57, 3.53891301155090330000e+000) (58, -8.73011962890625000000e+002) (59, 1.47940417480468750000e+003) (60, 3.51497030258178710000e+000) (61, 1.50000000000000000000e+003) (62, -1.49982775878906250000e+003) (63, 1.24971771240234370000e+000) (64, 4.15345077514648440000e+001) (65, 6.53766601562500000000e+002) (66, 9.53268051147460940000e-001) (67, 1.50000000000000000000e+003) (68, 1.50000000000000000000e+003) (69, 9.91021037101745610000e-001) (70, -1.50000000000000000000e+003) (71, 1.50000000000000000000e+003) (72, 8.02293896675109860000e-001) (73, 1.50000000000000000000e+003) (74, 1.50000000000000000000e+003) (75, 1.50000000000000000000e+003) (0, 7.13818743824958800000e-002) (1, 2.11561191827058790000e-002) (2, -8.79258513450622560000e-002) (3, 2.85838186740875240000e-001) (4, 1.43567651510238650000e-001) (5, -5.51804259885102510000e-004) (6, 3.03925186395645140000e-001) (7, 4.82300281524658200000e-001) (8, -1.85639098286628720000e-001) (9, -2.45460458099842070000e-002) (10, 5.32915711402893070000e-001) (11, 2.39618569612503050000e-001) (12, -4.05437916517257690000e-001) (13, 3.27232420444488530000e-001) (14, 1.18326153606176380000e-002) (15, -9.37659367918968200000e-002) (16, -7.93471410870552060000e-002) (17, 1.34913306683301930000e-002) (18, 1.99458628892898560000e-001) (19, 7.27755343541502950000e-003) (20, 3.13038267195224760000e-002) (21, 1.30334660410881040000e-001) (22, 1.29717469215393070000e-001) (23, -2.19832211732864380000e-002) (24, -1.37956941127777100000e+000) (25, 3.76015007495880130000e-001) (26, -3.34218144416809080000e-002) (27, 1.40909049659967420000e-002) (28, -1.77362442016601560000e-001) (29, 4.48023714125156400000e-002) (30, 2.34511375427246090000e-001) (31, 3.65525633096694950000e-002) (32, 8.09482783079147340000e-002) (33, 6.44025623798370360000e-001) (34, 3.61352205276489260000e-001) (35, 1.29590138792991640000e-001) (36, 7.48385965824127200000e-001) (37, 9.58809733390808110000e-001) (38, 1.09707839787006380000e-001) (39, -1.42156171798706050000e+000) (40, -1.98366835713386540000e-001) (41, -4.78359967470169070000e-001) (42, 4.79819118976593020000e-001) (43, -2.04308778047561650000e-001) (44, 2.95954495668411250000e-001) (45, 1.43034756183624270000e-001) (46, 5.50938993692398070000e-002) (47, -8.68694335222244260000e-002) (48, 4.20441955327987670000e-001) (49, 3.03382575511932370000e-001) (50, 2.05193251371383670000e-001) (51, 1.86497241258621220000e-001) (52, 6.63526177406311040000e-001) (53, -7.47393351048231120000e-003) (54, -2.70499885082244870000e-002) (55, 8.53047221899032590000e-002) (56, -2.04301849007606510000e-001) (57, 1.10735446214675900000e-002) (58, -7.09468349814414980000e-002) (59, -1.83714032173156740000e-002) (60, 1.00999049842357640000e-001) (61, 3.30086797475814820000e-002) (62, -1.10611319541931150000e-001) (63, 2.59185940027236940000e-001) (64, 1.93710386753082280000e-001) (65, 1.29601314663887020000e-001) (66, 2.42969021201133730000e-002) (67, 3.49167019128799440000e-001) (68, 2.07655970007181170000e-002) (69, -3.65183413028717040000e-001) (70, 3.27421665191650390000e-001) (71, -3.67199629545211790000e-002) (72, -8.76692011952400210000e-002) (73, 8.79805535078048710000e-002) (74, -2.64910329133272170000e-002) (75, 1.78236484527587890000e+000) (0, 1.50000000000000000000e+003) (1, 1.50000000000000000000e+003) (2, 1.49996838378906250000e+003) (3, 1.50000000000000000000e+003) (4, 4.51625610351562500000e+002) (5, 1.49646936035156250000e+003) (6, 1.50000000000000000000e+003) (7, -1.49999584960937500000e+003) (8, 1.49989416503906250000e+003) (9, 1.50000000000000000000e+003) (10, -1.50000000000000000000e+003) (11, 1.48599011230468750000e+003) (12, 1.50000000000000000000e+003) (13, -1.50000000000000000000e+003) (14, 6.89857177734375000000e+002) (15, -1.09373291015625000000e+003) (16, 1.49999621582031250000e+003) (17, 1.49995422363281250000e+003) (18, 1.50000000000000000000e+003) (19, 1.50000000000000000000e+003) (20, 1.49995593261718750000e+003) (21, 1.50000000000000000000e+003) (22, -1.48798278808593750000e+003) (23, 1.50000000000000000000e+003) (24, 1.50000000000000000000e+003) (25, -1.50000000000000000000e+003) (26, -1.49849792480468750000e+003) (27, 1.50000000000000000000e+003) (28, -1.49901477050781250000e+003) (29, 1.49977880859375000000e+003) (30, -1.50000000000000000000e+003) (31, -1.49388562011718750000e+003) (32, -1.32362451171875000000e+003) (33, 1.50000000000000000000e+003) (34, 1.50000000000000000000e+003) (35, 1.49983776855468750000e+003) (36, 1.50000000000000000000e+003) (37, -1.49996496582031250000e+003) (38, -1.49998095703125000000e+003) (39, 1.50000000000000000000e+003) (40, 1.50000000000000000000e+003) (41, -1.49964685058593750000e+003) (42, 1.50000000000000000000e+003) (43, -1.50000000000000000000e+003) (44, -1.49998986816406250000e+003) (45, -1.49999389648437500000e+003) (46, 1.50000000000000000000e+003) (47, -1.50000000000000000000e+003) (48, 1.50000000000000000000e+003) (49, -4.83754730224609370000e+002) (50, -1.50000000000000000000e+003) (51, 1.50000000000000000000e+003) (52, -1.50000000000000000000e+003) (53, 1.00260046386718750000e+003) (54, 1.50000000000000000000e+003) (55, -1.50000000000000000000e+003) (56, 1.04610192871093750000e+003) (57, 1.50000000000000000000e+003) (58, -1.49783325195312500000e+003) (59, -1.49997802734375000000e+003) (60, 1.50000000000000000000e+003) (61, 4.16716995239257810000e+001) (62, -1.50000000000000000000e+003) (63, 1.50000000000000000000e+003) (64, 8.98497619628906250000e+002) (65, -1.50000000000000000000e+003) (66, 1.50000000000000000000e+003) (67, 1.49151953125000000000e+003) (68, 1.50000000000000000000e+003) (69, 1.50000000000000000000e+003) (70, -1.50000000000000000000e+003) (71, 5.22293212890625000000e+002) (72, 1.50000000000000000000e+003) (73, -1.50000000000000000000e+003) (74, 1.50000000000000000000e+003) (75, 1.50000000000000000000e+003) (0, -5.55824302136898040000e-003) (1, -1.51402026414871220000e-001) (2, 1.57103195786476140000e-001) (3, 2.53156751394271850000e-001) (4, -2.11166933178901670000e-001) (5, -4.09873872995376590000e-002) (6, 4.40457975491881370000e-003) (7, -1.08015120029449460000e-001) (8, 3.58491763472557070000e-002) (9, 1.82301536202430730000e-001) (10, -2.10113048553466800000e-001) (11, 2.54249781370162960000e-001) (12, 1.39064148068428040000e-001) (13, 9.45853218436241150000e-002) (14, -6.82375812903046610000e-003) (15, -1.75343185663223270000e-001) (16, 1.26065239310264590000e-001) (17, 9.16684120893478390000e-002) (18, -6.04396939277648930000e-001) (19, -5.06850406527519230000e-002) (20, -1.83530986309051510000e-001) (21, -1.15873433649539950000e-001) (22, -1.63280129432678220000e-001) (23, 3.41560155153274540000e-001) (24, 6.61770030856132510000e-002) (25, 2.52222239971160890000e-001) (26, -1.92556921392679210000e-002) (27, -2.74953782558441160000e-001) (28, 2.41306368261575700000e-002) (29, -6.25773668289184570000e-001) (30, 5.83972334861755370000e-001) (31, 2.44519114494323730000e-002) (32, 3.20231355726718900000e-002) (33, 7.73682177066802980000e-001) (34, 7.23817348480224610000e-001) (35, -1.32842645049095150000e-001) (36, -2.16176528483629230000e-002) (37, 1.79039990901947020000e+000) (38, 1.58001434803009030000e+000) (39, 1.58244299888610840000e+000) (40, 7.58196115493774410000e-002) (41, -8.67617011070251460000e-001) (42, 1.20025062933564190000e-002) (43, 7.34004192054271700000e-004) (44, -4.88510549068450930000e-001) (45, 2.65347629785537720000e-001) (46, 2.04244673252105710000e-001) (47, 1.24253062531352040000e-002) (48, -2.95684754848480220000e-001) (49, 2.65725225210189820000e-001) (50, -9.86526161432266240000e-002) (51, 4.26827967166900630000e-002) (52, 3.29870849847793580000e-001) (53, 5.89535415172576900000e-001) (54, -7.65866041183471680000e-002) (55, 2.89326995611190800000e-001) (56, -3.09418559074401860000e-001) (57, -1.72592565417289730000e-001) (58, 2.21673995256423950000e-002) (59, -3.89729589223861690000e-001) (60, -2.08652928471565250000e-001) (61, -1.44668504595756530000e-001) (62, -5.33884614706039430000e-002) (63, 3.99422019720077510000e-001) (64, -9.69905033707618710000e-002) (65, -5.17970882356166840000e-002) (66, -5.09978793561458590000e-002) (67, 4.83325235545635220000e-002) (68, 4.42252419888973240000e-002) (69, -9.55308750271797180000e-002) (70, -2.02298074960708620000e-001) (71, 2.07257550209760670000e-002) (72, 2.29580745100975040000e-001) (73, -9.35071557760238650000e-002) (74, 1.44767582416534420000e-001) (75, -7.75124979019165040000e+000) (0, -3.05780079215765000000e-002) (1, -3.26357595622539520000e-003) (2, -2.61396933346986770000e-002) (3, -2.63641551136970520000e-002) (4, -5.35669624805450440000e-002) (5, -7.14173913002014160000e-002) (6, 3.32644991576671600000e-002) (7, -4.25713136792182920000e-002) (8, 6.02851137518882750000e-002) (9, -9.59885213524103160000e-003) (10, 4.98435683548450470000e-002) (11, 2.37247478216886520000e-002) (12, -1.56500823795795440000e-002) (13, 2.44092680513858800000e-002) (14, 3.76956239342689510000e-002) (15, -3.50888743996620180000e-002) (16, -1.93114522844552990000e-002) (17, -1.86120569705963130000e-002) (18, 1.89083486795425420000e-001) (19, -3.87861160561442380000e-004) (20, 4.80985082685947420000e-002) (21, 2.32372179627418520000e-001) (22, 1.20585814118385310000e-001) (23, 7.47401788830757140000e-002) (24, 7.31996297836303710000e-002) (25, -6.17326190695166590000e-003) (26, 5.59255331754684450000e-002) (27, 9.83090549707412720000e-002) (28, -2.70614176988601680000e-002) (29, -6.78305551409721370000e-002) (30, 1.25056415796279910000e-001) (31, 4.43445630371570590000e-002) (32, -1.55629403889179230000e-002) (33, 7.69468843936920170000e-001) (34, 3.08604806661605830000e-001) (35, 6.97747711092233660000e-003) (36, -1.23692423105239870000e-001) (37, 3.57766076922416690000e-002) (38, -4.98120635747909550000e-002) (39, 1.58250465989112850000e-001) (40, -3.61498594284057620000e-001) (41, -8.45178738236427310000e-002) (42, 2.05091521143913270000e-001) (43, -7.49195888638496400000e-002) (44, -3.87324690818786620000e-002) (45, 1.99358016252517700000e-002) (46, 2.80102994292974470000e-003) (47, -7.72864446043968200000e-002) (48, 1.48429468274116520000e-001) (49, 5.98407015204429630000e-002) (50, 1.46576939150691030000e-002) (51, 6.42722994089126590000e-002) (52, 2.28612393140792850000e-001) (53, 9.93925631046295170000e-002) (54, -5.55924400687217710000e-002) (55, 1.78084317594766620000e-002) (56, -1.50829344987869260000e-001) (57, 5.80125413835048680000e-002) (58, -1.72010809183120730000e-002) (59, -3.21795344352722170000e-002) (60, 6.55750036239624020000e-002) (61, -1.61133967339992520000e-002) (62, -1.10637284815311430000e-002) (63, -2.73694153875112530000e-002) (64, -1.84839870780706410000e-002) (65, 4.12453636527061460000e-002) (66, -6.74572661519050600000e-002) (67, -1.46517664194107060000e-001) (68, 1.38448262587189670000e-002) (69, 1.98122292757034300000e-001) (70, -1.34624717757105830000e-002) (71, 2.54054628312587740000e-002) (72, -3.22730205953121190000e-002) (73, 7.06616789102554320000e-002) (74, -3.76978032290935520000e-002) (75, -3.44794988632202150000e+000) (0, -9.01018679141998290000e-002) (1, -6.40274360775947570000e-002) (2, -1.33158877491950990000e-001) (3, 1.67210176587104800000e-001) (4, -3.72919216752052310000e-002) (5, 2.62027859687805180000e-001) (6, -1.12556489184498790000e-002) (7, 1.79660812020301820000e-001) (8, -3.73129278421401980000e-001) (9, -2.58992791175842290000e-001) (10, 2.44447320699691770000e-001) (11, 1.08442887663841250000e-001) (12, -1.85190826654434200000e-001) (13, 9.06085036695003510000e-003) (14, -1.30945771932601930000e-001) (15, 2.04175218939781190000e-001) (16, 5.57812638580799100000e-002) (17, 1.12367365509271620000e-002) (18, 2.31721818447113040000e-001) (19, 1.74106508493423460000e-001) (20, 8.22882413864135740000e-001) (21, 5.03434419631958010000e-001) (22, 4.73959743976593020000e-002) (23, -5.37137091159820560000e-001) (24, -1.76907390356063840000e-001) (25, -7.73769244551658630000e-002) (26, -2.70586997270584110000e-001) (27, 2.30961263179779050000e-001) (28, -8.87515693902969360000e-002) (29, -6.00054394453763960000e-003) (30, 1.98916271328926090000e-001) (31, 1.87454357743263240000e-001) (32, 5.68350970745086670000e-001) (33, 7.76536166667938230000e-001) (34, 2.84863114356994630000e-001) (35, 7.45095849037170410000e-001) (36, -1.58640787005424500000e-001) (37, -3.25263500213623050000e+000) (38, -1.15814387798309330000e+000) (39, 6.52822077274322510000e-001) (40, -4.50149685144424440000e-001) (41, -3.58785718679428100000e-001) (42, 6.10314495861530300000e-003) (43, 6.93503245711326600000e-002) (44, 4.40239012241363530000e-001) (45, -1.57887805253267290000e-002) (46, 2.42524594068527220000e-002) (47, -6.90956115722656250000e-002) (48, 1.13205038011074070000e-001) (49, 1.53779357671737670000e-001) (50, 4.56375092267990110000e-001) (51, 1.04150414466857910000e-001) (52, 2.02701203525066380000e-002) (53, -7.56373405456542970000e-001) (54, -3.51743221282958980000e-001) (55, -8.31080153584480290000e-002) (56, 2.55703806877136230000e-001) (57, 3.71236614882946010000e-002) (58, -3.39504033327102660000e-002) (59, 3.28608416020870210000e-002) (60, -5.15201017260551450000e-002) (61, 7.95429368736222390000e-005) (62, 1.25871539115905760000e-001) (63, -3.23495306074619290000e-002) (64, 3.96226868033409120000e-002) (65, -4.37964089214801790000e-002) (66, -1.17898002266883850000e-001) (67, 1.94360241293907170000e-001) (68, -5.90372793376445770000e-002) (69, 1.12483534030616280000e-003) (70, 6.19615316390991210000e-002) (71, -4.99903440475463870000e-001) (72, -3.66411991417407990000e-002) (73, -1.31039842963218690000e-002) (74, 2.67917096614837650000e-001) (75, -1.45346708297729490000e+001) (0, 1.16829687500000000000e+003) (1, -1.50000000000000000000e+003) (2, 1.50000000000000000000e+003) (3, 1.40170166015625000000e+003) (4, -1.50000000000000000000e+003) (5, -9.50022705078125000000e+002) (6, 1.49167211914062500000e+003) (7, 1.50000000000000000000e+003) (8, 1.50000000000000000000e+003) (9, -1.17188781738281250000e+003) (10, 1.46932104492187500000e+003) (11, 1.49993225097656250000e+003) (12, -1.49992138671875000000e+003) (13, 1.50000000000000000000e+003) (14, 1.49993127441406250000e+003) (15, 1.50000000000000000000e+003) (16, -1.50000000000000000000e+003) (17, 1.50000000000000000000e+003) (18, -1.50000000000000000000e+003) (19, -1.50000000000000000000e+003) (20, 1.50000000000000000000e+003) (21, -1.50000000000000000000e+003) (22, 1.50000000000000000000e+003) (23, 1.50000000000000000000e+003) (24, -1.49991430664062500000e+003) (25, -1.50000000000000000000e+003) (26, 1.49998608398437500000e+003) (27, -1.49992175292968750000e+003) (28, -1.50000000000000000000e+003) (29, 1.49997094726562500000e+003) (30, 1.10049462890625000000e+003) (31, -1.50000000000000000000e+003) (32, 1.50000000000000000000e+003) (33, -1.50000000000000000000e+003) (34, -1.50000000000000000000e+003) (35, 1.50000000000000000000e+003) (36, -1.50000000000000000000e+003) (37, 1.50000000000000000000e+003) (38, 1.50000000000000000000e+003) (39, -1.49992175292968750000e+003) (40, -1.50000000000000000000e+003) (41, -3.46793975830078120000e+002) (42, -1.50000000000000000000e+003) (43, -1.50000000000000000000e+003) (44, 1.49896032714843750000e+003) (45, 6.18312683105468750000e+002) (46, -1.50000000000000000000e+003) (47, 1.50000000000000000000e+003) (48, -1.50000000000000000000e+003) (49, -1.50000000000000000000e+003) (50, 1.50000000000000000000e+003) (51, 1.49986987304687500000e+003) (52, 1.50000000000000000000e+003) (53, 1.50000000000000000000e+003) (54, 4.04707000732421870000e+002) (55, -1.50000000000000000000e+003) (56, 1.48437731933593750000e+003) (57, 2.27547988891601560000e+002) (58, 9.01403625488281250000e+002) (59, 2.19995849609375000000e+002) (60, 9.80274597167968750000e+002) (61, -1.50000000000000000000e+003) (62, 1.50000000000000000000e+003) (63, 1.49706738281250000000e+003) (64, -1.50000000000000000000e+003) (65, 1.50000000000000000000e+003) (66, 9.06237487792968750000e+002) (67, 1.50000000000000000000e+003) (68, -1.01373144531250000000e+003) (69, 1.35105773925781250000e+002) (70, 1.50000000000000000000e+003) (71, 1.49959582519531250000e+003) (72, -1.50000000000000000000e+003) (73, -1.50000000000000000000e+003) (74, -1.50000000000000000000e+003) (75, 1.50000000000000000000e+003) (0, -8.15849080681800840000e-002) (1, -8.14846828579902650000e-002) (2, -6.47404670715332030000e-001) (3, 3.47907900810241700000e-001) (4, 4.23177890479564670000e-002) (5, -1.88427418470382690000e-001) (6, 2.08312526345252990000e-001) (7, 3.48275870084762570000e-001) (8, 3.80399912595748900000e-001) (9, -5.41332215070724490000e-002) (10, 3.89040976762771610000e-001) (11, -9.58742558956146240000e-001) (12, -1.49804711341857910000e-001) (13, 2.21895039081573490000e-001) (14, 9.26141917705535890000e-001) (15, -1.32838949561119080000e-001) (16, 4.53397631645202640000e-002) (17, 3.03978651762008670000e-001) (18, 1.14973962306976320000e-001) (19, 4.90809418261051180000e-003) (20, 2.18515042215585710000e-002) (21, 3.17996144294738770000e-001) (22, -1.02484941482543950000e-001) (23, -4.24206927418708800000e-002) (24, 6.62549491971731190000e-003) (25, 2.03072682023048400000e-001) (26, -2.22402885556221010000e-001) (27, 1.33286774158477780000e-001) (28, 1.57588079571723940000e-001) (29, -2.46469765901565550000e-001) (30, 1.73956945538520810000e-001) (31, -6.21786341071128850000e-002) (32, -2.34785676002502440000e-001) (33, 5.72555184364318850000e-001) (34, 1.57885536551475520000e-001) (35, 2.09159687161445620000e-001) (36, 6.91728219389915470000e-002) (37, 8.87187480926513670000e-001) (38, 5.78849196434021000000e-001) (39, 2.46852859854698180000e-001) (40, -4.48120564222335820000e-001) (41, -6.95678710937500000000e-001) (42, 3.69022876024246220000e-001) (43, -2.39521890878677370000e-001) (44, 2.49634589999914170000e-003) (45, 1.43685191869735720000e-001) (46, -1.71364173293113710000e-002) (47, -1.74621567130088810000e-001) (48, 3.32821547985076900000e-001) (49, 2.85380512475967410000e-001) (50, 5.49667656421661380000e-001) (51, -4.39228564500808720000e-002) (52, 4.11290109157562260000e-001) (53, 2.18317136168479920000e-002) (54, -7.46465250849723820000e-002) (55, 2.35380679368972780000e-001) (56, 2.00110912322998050000e-001) (57, -7.00892060995101930000e-002) (58, 2.26562330499291420000e-003) (59, 1.16899929940700530000e-001) (60, 1.11823104321956630000e-001) (61, 1.44820958375930790000e-001) (62, -9.03537720441818240000e-002) (63, 7.84318298101425170000e-002) (64, 1.82795539498329160000e-001) (65, -1.77711218595504760000e-001) (66, 3.84762845933437350000e-002) (67, 7.92223215103149410000e-002) (68, 2.83035617321729660000e-002) (69, -6.49612247943878170000e-002) (70, 1.69559642672538760000e-001) (71, 3.07896621525287630000e-002) (72, -3.54087650775909420000e-001) (73, 2.66308039426803590000e-001) (74, -2.99129456281661990000e-001) (75, -1.09044837951660160000e+001) (0, 5.39926208496093750000e+002) (1, 8.41952026367187500000e+002) (2, -1.02770739746093750000e+003) (3, 4.61166778564453120000e+002) (4, 1.50000000000000000000e+003) (5, -1.27492187500000000000e+003) (6, -1.07114953613281250000e+003) (7, -1.50000000000000000000e+003) (8, -1.50000000000000000000e+003) (9, 2.13427658081054690000e+001) (10, 1.50000000000000000000e+003) (11, 2.40570011138916020000e+001) (12, -4.20848159790039060000e+001) (13, -1.50000000000000000000e+003) (14, -5.23683044433593750000e+002) (15, 5.24012634277343750000e+002) (16, 1.50000000000000000000e+003) (17, -9.28169311523437500000e+002) (18, 1.50000000000000000000e+003) (19, 1.50000000000000000000e+003) (20, -1.50000000000000000000e+003) (21, -1.49105847167968750000e+003) (22, -1.50000000000000000000e+003) (23, -1.50000000000000000000e+003) (24, 2.08808914184570310000e+002) (25, 1.50000000000000000000e+003) (26, 1.49916882324218750000e+003) (27, -1.48625305175781250000e+003) (28, 1.50000000000000000000e+003) (29, 7.89587890625000000000e+002) (30, 1.49780432128906250000e+003) (31, 1.50000000000000000000e+003) (32, -1.37869433593750000000e+003) (33, 1.47243420410156250000e+003) (34, 1.50000000000000000000e+003) (35, -1.50000000000000000000e+003) (36, -1.29040634155273440000e+002) (37, -1.50000000000000000000e+003) (38, -1.50000000000000000000e+003) (39, 1.14161247253417970000e+002) (40, 1.50000000000000000000e+003) (41, -1.04006640625000000000e+003) (42, -9.51593261718750000000e+002) (43, 1.50000000000000000000e+003) (44, 6.38732719421386720000e+001) (45, 1.49105725097656250000e+003) (46, 1.50000000000000000000e+003) (47, -1.49963842773437500000e+003) (48, -6.87274291992187500000e+002) (49, 1.50000000000000000000e+003) (50, -1.50000000000000000000e+003) (51, -1.49876440429687500000e+003) (52, -1.50000000000000000000e+003) (53, -1.49883544921875000000e+003) (54, -6.20813781738281250000e+002) (55, 1.50000000000000000000e+003) (56, -3.15679992675781250000e+002) (57, -1.02723754882812500000e+003) (58, 1.49996264648437500000e+003) (59, 4.00124835968017580000e+000) (60, 1.34071801757812500000e+003) (61, 1.50000000000000000000e+003) (62, -1.41809875488281250000e+003) (63, -3.00037384033203120000e+002) (64, 7.29654312133789060000e+001) (65, -1.49883544921875000000e+003) (66, -9.65512161254882810000e+001) (67, -1.50000000000000000000e+003) (68, -1.45047875976562500000e+003) (69, 4.63551597595214840000e+001) (70, -1.50000000000000000000e+003) (71, 1.50000000000000000000e+003) (72, -2.17373077392578120000e+002) (73, 1.50000000000000000000e+003) (74, -3.45036621093750000000e+002) (75, 1.49873986816406250000e+003) (0, -8.54641799926757810000e+001) (1, -1.50000000000000000000e+003) (2, 1.49007904052734370000e+002) (3, -8.79243731498718260000e-001) (4, -1.50000000000000000000e+003) (5, 2.24900226593017580000e+001) (6, 3.58936637639999390000e-001) (7, 1.50000000000000000000e+003) (8, -1.74495258331298830000e+001) (9, 3.87853145599365230000e+000) (10, -1.49850549316406250000e+003) (11, -1.50000000000000000000e+003) (12, 8.02500963211059570000e-001) (13, 1.50000000000000000000e+003) (14, -6.69782409667968750000e+002) (15, -2.47619075775146480000e+001) (16, -1.50000000000000000000e+003) (17, -3.02940807342529300000e+001) (18, -1.50000000000000000000e+003) (19, -1.50000000000000000000e+003) (20, 1.50000000000000000000e+003) (21, 3.45172971487045290000e-001) (22, 1.50000000000000000000e+003) (23, 1.50000000000000000000e+003) (24, 9.23514465332031250000e+002) (25, -1.50000000000000000000e+003) (26, -1.25467541503906250000e+003) (27, 1.67213554382324220000e+001) (28, -1.50000000000000000000e+003) (29, -1.50000000000000000000e+003) (30, -1.50000000000000000000e+003) (31, -1.50000000000000000000e+003) (32, 1.50000000000000000000e+003) (33, -1.46065710449218750000e+003) (34, -1.50000000000000000000e+003) (35, 1.50000000000000000000e+003) (36, 3.50414097309112550000e-001) (37, 1.50000000000000000000e+003) (38, 1.50000000000000000000e+003) (39, 1.50000000000000000000e+003) (40, -1.50000000000000000000e+003) (41, -3.56268463134765620000e+002) (42, 1.42963882446289060000e+002) (43, -1.50000000000000000000e+003) (44, -1.50000000000000000000e+003) (45, -4.68387126922607420000e+000) (46, -1.49859313964843750000e+003) (47, 1.13347680664062500000e+003) (48, -1.64808654785156250000e+001) (49, -1.50000000000000000000e+003) (50, 1.50000000000000000000e+003) (51, 2.90828466415405270000e-001) (52, 1.50000000000000000000e+003) (53, 1.50000000000000000000e+003) (54, 1.50000000000000000000e+003) (55, -1.49060766601562500000e+003) (56, -7.07672653198242190000e+001) (57, 1.44668045043945310000e+001) (58, -1.50000000000000000000e+003) (59, -1.50000000000000000000e+003) (60, -5.63429307937622070000e+000) (61, -1.49997338867187500000e+003) (62, 1.49974133300781250000e+003) (63, -2.00744819641113280000e+000) (64, -1.50000000000000000000e+003) (65, 1.50000000000000000000e+003) (66, 5.96758484840393070000e-001) (67, 1.50000000000000000000e+003) (68, 1.50000000000000000000e+003) (69, 9.77598094940185550000e+000) (70, 1.50000000000000000000e+003) (71, -1.50000000000000000000e+003) (72, 1.02929964065551760000e+001) (73, -1.50000000000000000000e+003) (74, -1.50000000000000000000e+003) (75, -4.46791315078735350000e+000) (0, 7.88829103112220760000e-002) (1, 2.55504965782165530000e-001) (2, 2.93448746204376220000e-001) (3, 1.01704441010952000000e-001) (4, 2.62456089258193970000e-001) (5, -1.04550552368164060000e+000) (6, 4.54790294170379640000e-001) (7, 6.11635506153106690000e-001) (8, 1.03816640377044680000e+000) (9, 6.06761813163757320000e-001) (10, 1.31371462345123290000e+000) (11, 5.88280618190765380000e-001) (12, -3.69461178779602050000e-002) (13, 1.30786740779876710000e+000) (14, 1.50044119358062740000e+000) (15, 5.19141256809234620000e-002) (16, -1.36870716232806440000e-003) (17, 1.92242369055747990000e-001) (18, 4.44748401641845700000e-001) (19, -1.29699945449829100000e-001) (20, 1.22965586185455320000e+000) (21, 4.70307499170303340000e-001) (22, -5.22701621055603030000e-001) (23, -1.89086496829986570000e+000) (24, 9.42911207675933840000e-001) (25, 2.51699745655059810000e-001) (26, 1.55431538820266720000e-001) (27, 1.14641912281513210000e-001) (28, -6.43929541110992430000e-002) (29, 4.04659450054168700000e-001) (30, -5.61434566974639890000e-001) (31, 1.95310190320014950000e-001) (32, -1.47095069289207460000e-001) (33, 5.16487121582031250000e-001) (34, 2.19153553247451780000e-001) (35, -5.83393573760986330000e-001) (36, -1.07946328818798070000e-001) (37, 2.28176295757293700000e-001) (38, -4.27286803722381590000e-001) (39, 4.30579614639282230000e+000) (40, 2.23763537406921390000e+000) (41, 2.60630226135253910000e+000) (42, -1.24453365802764890000e+000) (43, -3.37028980255126950000e-001) (44, -3.10874438285827640000e+000) (45, -7.77985230088233950000e-002) (46, 1.29439428448677060000e-001) (47, 1.42244493961334230000e+000) (48, 3.20478200912475590000e-001) (49, 2.34680175781250000000e-001) (50, 2.76001954078674320000e+000) (51, 8.82631540298461910000e-002) (52, 1.85592040419578550000e-001) (53, 2.55794972181320190000e-001) (54, 1.14382140338420870000e-001) (55, 1.14160287380218510000e+000) (56, -1.00370121002197270000e+000) (57, -2.63643488287925720000e-002) (58, 6.24735891819000240000e-001) (59, 3.00238561630249020000e+000) (60, -8.52775424718856810000e-002) (61, 2.61862844228744510000e-001) (62, 2.30040907859802250000e+000) (63, 2.03615829348564150000e-001) (64, 3.88765722513198850000e-001) (65, -2.87291336059570310000e+000) (66, 3.36897298693656920000e-002) (67, 6.68188333511352540000e-001) (68, 1.26057624816894530000e+000) (69, 3.42018038034439090000e-001) (70, 3.53157103061676030000e-001) (71, 1.96801519393920900000e+000) (72, 1.84441059827804570000e-001) (73, 1.09015703201293950000e+000) (74, -9.51012730598449710000e-001) (75, 1.49550795555114750000e+000) (0, -2.69235903397202490000e-003) (1, 3.48088989257812500000e+002) (2, 1.50000000000000000000e+003) (3, -1.06169974803924560000e+000) (4, -1.50000000000000000000e+003) (5, -1.49295678710937500000e+003) (6, 5.21629929542541500000e-001) (7, 1.50000000000000000000e+003) (8, 1.50000000000000000000e+003) (9, 3.03187787532806400000e-001) (10, -1.50000000000000000000e+003) (11, -1.83707737922668460000e+000) (12, 1.32578045129776000000e-001) (13, 1.50000000000000000000e+003) (14, 1.49999267578125000000e+003) (15, -1.38171422481536870000e+000) (16, -1.50000000000000000000e+003) (17, -1.44115307617187500000e+003) (18, -1.50000000000000000000e+003) (19, -1.50000000000000000000e+003) (20, 1.50000000000000000000e+003) (21, 1.08665041625499730000e-001) (22, 1.50000000000000000000e+003) (23, 1.50000000000000000000e+003) (24, 1.50000000000000000000e+003) (25, -1.50000000000000000000e+003) (26, -3.72144470214843750000e+002) (27, 1.29524215698242190000e+002) (28, -1.50000000000000000000e+003) (29, -8.48840594291687010000e-001) (30, 1.00444316864013670000e-001) (31, -1.50000000000000000000e+003) (32, 1.50000000000000000000e+003) (33, -1.50000000000000000000e+003) (34, -1.50000000000000000000e+003) (35, 1.50000000000000000000e+003) (36, -7.71908721923828130000e+001) (37, 1.50000000000000000000e+003) (38, 1.50000000000000000000e+003) (39, 1.50000000000000000000e+003) (40, -1.50000000000000000000e+003) (41, 1.48824987792968750000e+003) (42, 1.88545510172843930000e-001) (43, -1.50000000000000000000e+003) (44, 2.34784317016601560000e+000) (45, 2.15318694710731510000e-001) (46, -1.50000000000000000000e+003) (47, 1.50000000000000000000e+003) (48, -1.50000000000000000000e+003) (49, -1.50000000000000000000e+003) (50, 1.50000000000000000000e+003) (51, 1.01008474826812740000e+000) (52, 1.50000000000000000000e+003) (53, 1.50000000000000000000e+003) (54, 1.50000000000000000000e+003) (55, -1.50000000000000000000e+003) (56, -3.14974555969238280000e+001) (57, 6.51906633377075200000e+000) (58, -1.50000000000000000000e+003) (59, -3.18381261825561520000e+000) (60, 4.19737219810485840000e-001) (61, -1.50000000000000000000e+003) (62, -1.48937207031250000000e+003) (63, -5.64168319702148440000e+001) (64, -1.50000000000000000000e+003) (65, 1.50000000000000000000e+003) (66, 2.72385060787200930000e-001) (67, 1.50000000000000000000e+003) (68, 5.58630485534667970000e+001) (69, 1.90979504585266110000e+000) (70, 1.50000000000000000000e+003) (71, -1.50000000000000000000e+003) (72, 4.08203983306884770000e+000) (73, -1.50000000000000000000e+003) (74, -1.50000000000000000000e+003) (75, 1.50000000000000000000e+003) (0, 5.04857748746871950000e-002) (1, -9.14551541209220890000e-002) (2, 2.89716012775897980000e-002) (3, 2.10297107696533200000e-001) (4, -4.77753952145576480000e-002) (5, 5.57745918631553650000e-002) (6, 6.79264739155769350000e-002) (7, 1.38143494725227360000e-001) (8, 8.90130102634429930000e-002) (9, -4.48393940925598140000e-001) (10, 2.77721643447875980000e-001) (11, 6.68338090181350710000e-002) (12, -3.26881222426891330000e-002) (13, 3.78174632787704470000e-002) (14, -2.55526173859834670000e-002) (15, -1.54649501200765370000e-003) (16, 6.11209273338317870000e-002) (17, -2.10726276040077210000e-001) (18, 7.30895042419433590000e-001) (19, 2.97367304563522340000e-001) (20, 8.92071500420570370000e-002) (21, 2.97951191663742070000e-001) (22, 6.16631150245666500000e-001) (23, 1.90684393048286440000e-001) (24, 6.35708153247833250000e-001) (25, -3.46466720104217530000e-001) (26, -1.12480796873569490000e-001) (27, 2.26545155048370360000e-001) (28, -1.74316599965095520000e-001) (29, -1.29974514245986940000e-001) (30, 3.86378169059753420000e-001) (31, 1.70124560594558720000e-001) (32, -6.40164222568273540000e-003) (33, 2.71886080503463750000e-001) (34, 4.78529423475265500000e-001) (35, 3.18934977054595950000e-001) (36, 5.75591981410980220000e-001) (37, 1.24218475818634030000e+000) (38, -5.72576045989990230000e-001) (39, -1.17852985858917240000e+000) (40, -1.91560462117195130000e-001) (41, -1.83226481080055240000e-001) (42, 4.52677965164184570000e-001) (43, -1.53116673231124880000e-001) (44, 7.26351961493492130000e-002) (45, -3.28791365027427670000e-002) (46, 1.64844151586294170000e-002) (47, -7.72590637207031250000e-002) (48, -5.02627482637763020000e-003) (49, 7.08981826901435850000e-002) (50, -9.57564637064933780000e-002) (51, -2.20316834747791290000e-003) (52, 1.10339103266596790000e-002) (53, 9.00881066918373110000e-002) (54, -1.02303922176361080000e+000) (55, 2.09109470248222350000e-001) (56, 3.29864583909511570000e-002) (57, -1.03642577305436130000e-002) (58, -1.99143752455711360000e-001) (59, 3.55790615081787110000e-001) (60, 5.22771775722503660000e-002) (61, -1.81933101266622540000e-002) (62, 6.10989369451999660000e-002) (63, 2.83027105033397670000e-002) (64, 1.94217637181282040000e-003) (65, 5.47167435288429260000e-002) (66, -1.85043271631002430000e-002) (67, -4.99329306185245510000e-002) (68, -4.62671518325805660000e-002) (69, 1.67362734675407410000e-001) (70, -9.36506912112236020000e-002) (71, 2.10703745484352110000e-001) (72, 8.92268344759941100000e-002) (73, 1.28308190032839780000e-002) (74, -9.52020138502120970000e-002) (75, -7.25495368242263790000e-002) (0, 1.49515917968750000000e+003) (1, 1.49999621582031250000e+003) (2, 1.50000000000000000000e+003) (3, 1.49983276367187500000e+003) (4, -1.49999780273437500000e+003) (5, -1.40563806152343750000e+003) (6, -2.37629928588867190000e+002) (7, -1.49068408203125000000e+003) (8, 1.50000000000000000000e+003) (9, 1.50000000000000000000e+003) (10, 6.82484069824218750000e+002) (11, 1.50000000000000000000e+003) (12, -1.49989709472656250000e+003) (13, -1.50000000000000000000e+003) (14, 1.49995983886718750000e+003) (15, 1.49981774902343750000e+003) (16, 1.43480004882812500000e+003) (17, 1.49509887695312500000e+003) (18, -6.89634216308593750000e+002) (19, -1.50000000000000000000e+003) (20, 6.27241638183593750000e+002) (21, -1.26892980957031250000e+003) (22, 6.77830200195312500000e+002) (23, 1.50000000000000000000e+003) (24, 1.41765087890625000000e+003) (25, 1.49995861816406250000e+003) (26, -1.49988488769531250000e+003) (27, 1.49809301757812500000e+003) (28, 1.41336547851562500000e+003) (29, 1.50000000000000000000e+003) (30, -1.50000000000000000000e+003) (31, 1.50000000000000000000e+003) (32, -1.50000000000000000000e+003) (33, 3.57864227294921870000e+002) (34, 1.50000000000000000000e+003) (35, -1.50000000000000000000e+003) (36, 1.30461633300781250000e+003) (37, -1.50000000000000000000e+003) (38, 1.50000000000000000000e+003) (39, 8.07877197265625000000e+002) (40, 1.49933044433593750000e+003) (41, -1.50000000000000000000e+003) (42, 8.31858581542968750000e+002) (43, 1.49993286132812500000e+003) (44, -8.00333557128906250000e+001) (45, 1.49987109375000000000e+003) (46, -4.81116760253906250000e+002) (47, -1.50000000000000000000e+003) (48, -7.71163635253906250000e+002) (49, -1.50000000000000000000e+003) (50, -1.50000000000000000000e+003) (51, 1.48859313964843750000e+003) (52, -1.50000000000000000000e+003) (53, 1.49997607421875000000e+003) (54, 1.41577954101562500000e+003) (55, -1.50000000000000000000e+003) (56, -1.49921350097656250000e+003) (57, 1.22960937500000000000e+003) (58, -1.50000000000000000000e+003) (59, -1.50000000000000000000e+003) (60, 2.19080169677734370000e+002) (61, 1.50000000000000000000e+003) (62, -1.49979504394531250000e+003) (63, 5.76809814453125000000e+002) (64, -1.49803808593750000000e+003) (65, -1.49991931152343750000e+003) (66, 6.96146606445312500000e+002) (67, -1.50000000000000000000e+003) (68, 2.60929962158203130000e+002) (69, -9.06579467773437500000e+002) (70, -1.50000000000000000000e+003) (71, 1.03505615234375000000e+003) (72, 1.45343408203125000000e+003) (73, 1.50000000000000000000e+003) (74, 1.50000000000000000000e+003) (75, 1.50000000000000000000e+003) (0, 4.99183923006057740000e-001) (1, -7.82426446676254270000e-002) (2, 5.58748722076416020000e-001) (3, 6.85649633407592770000e-001) (4, 2.36927926540374760000e-001) (5, 1.20446562767028810000e+000) (6, 2.73962318897247310000e-001) (7, 1.35128438472747800000e-001) (8, 5.14437537640333180000e-003) (9, 1.55694651603698730000e+000) (10, 9.05198037624359130000e-001) (11, 8.14027898013591770000e-003) (12, -2.49475479125976560000e-001) (13, -1.56494766473770140000e-001) (14, -2.80988425016403200000e-001) (15, 6.42673194408416750000e-001) (16, 4.53022152185440060000e-001) (17, -2.61236763000488280000e+000) (18, 1.05021190643310550000e+000) (19, 2.04139843583106990000e-001) (20, -7.12028384208679200000e-001) (21, 8.37703883647918700000e-001) (22, -4.06683540344238280000e+000) (23, -1.14071512222290040000e+000) (24, 7.67735540866851810000e-001) (25, -2.58268594741821290000e+000) (26, -1.94485545158386230000e-001) (27, 3.89829695224761960000e-001) (28, -2.87056058645248410000e-001) (29, -6.28108739852905270000e-001) (30, -1.33622562885284420000e+000) (31, 7.93332383036613460000e-002) (32, -2.84299755096435550000e+000) (33, 1.23515594005584720000e+000) (34, -1.01079308986663820000e+000) (35, 3.18972133100032810000e-002) (36, 5.01847803592681880000e-001) (37, -1.67345488071441650000e+000) (38, 1.12304413318634030000e+000) (39, 2.21052125096321110000e-001) (40, -1.99525547027587890000e+000) (41, -2.80364960432052610000e-001) (42, 2.86640316247940060000e-001) (43, -5.80278337001800540000e-001) (44, 1.50090169906616210000e+000) (45, 5.70184350013732910000e-001) (46, -3.48336279392242430000e-001) (47, -2.29482841491699220000e+000) (48, 8.11266720294952390000e-001) (49, -1.08876526355743410000e+000) (50, 1.36562613770365720000e-002) (51, 6.94206714630126950000e-001) (52, 1.76212692260742190000e+000) (53, 1.00762522220611570000e+000) (54, 1.10043013095855710000e+000) (55, -1.05814687907695770000e-001) (56, 4.72200721502304080000e-001) (57, -3.98232489824295040000e-002) (58, 3.61454725265502930000e-001) (59, -1.18159008026123050000e+000) (60, 1.72484368085861210000e-001) (61, 2.91874617338180540000e-001) (62, 1.16897618770599370000e+000) (63, 5.09511291980743410000e-001) (64, 7.52764761447906490000e-001) (65, -1.42417860031127930000e+000) (66, 1.91774979233741760000e-001) (67, -5.84538698196411130000e-001) (68, -2.08120524883270260000e-001) (69, 8.13227176666259770000e-001) (70, -1.53915226459503170000e-001) (71, -3.92684862017631530000e-002) (72, 6.26300513744354250000e-001) (73, 3.20867776870727540000e-001) (74, -7.62379825115203860000e-001) (75, 2.93316388130187990000e+000) (0, 5.88615834712982180000e-001) (1, -5.85627555847167970000e-001) (2, -1.04226088523864750000e+000) (3, 2.31817126274108890000e-001) (4, 1.29476308822631840000e+000) (5, -6.02838337421417240000e-001) (6, 3.82710903882980350000e-001) (7, -2.27284574508666990000e+000) (8, -1.00938928127288820000e+000) (9, 4.65087980031967160000e-001) (10, -3.27516794204711910000e+000) (11, -1.69630205631256100000e+000) (12, -7.88035452365875240000e-001) (13, -3.81578421592712400000e+000) (14, -1.16894114017486570000e+000) (15, 9.37609851360321040000e-001) (16, -2.00525999069213870000e-001) (17, -2.27792501449584960000e+000) (18, 6.72161161899566650000e-001) (19, 7.84327805042266850000e-001) (20, 2.84904092550277710000e-001) (21, 6.68672561645507810000e-001) (22, -1.83752288818359380000e+001) (23, -2.08047151565551760000e+000) (24, 5.24693667888641360000e-001) (25, 2.25674605369567870000e+000) (26, -1.50530982017517090000e+000) (27, 1.44409820437431340000e-001) (28, 3.66570544242858890000e+000) (29, 1.01918148994445800000e+000) (30, 1.34723424911499020000e+000) (31, 3.04437685012817380000e+000) (32, -1.31556117534637450000e+000) (33, 2.06662178039550780000e+000) (34, 1.67479972839355470000e+001) (35, 1.53292584419250490000e+000) (36, 5.06941258907318120000e-001) (37, -1.17621736526489260000e+001) (38, 4.85904574394226070000e-001) (39, 6.71772003173828130000e-001) (40, 3.95884966850280760000e+000) (41, -4.45867598056793210000e-001) (42, 9.14225950837135310000e-002) (43, -9.41482305526733400000e-001) (44, 5.76842308044433590000e+000) (45, 6.96990072727203370000e-001) (46, -2.49186277389526370000e+000) (47, 2.75368601083755490000e-001) (48, 4.01791453361511230000e-001) (49, -4.71350669860839840000e+000) (50, 1.20522236824035640000e+000) (51, 6.22099578380584720000e-001) (52, -2.66775679588317870000e+000) (53, -7.76256561279296880000e-001) (54, 4.31102812290191650000e-001) (55, 3.58815193176269530000e+000) (56, 1.64185136556625370000e-001) (57, 2.04727962613105770000e-001) (58, 4.17287573218345640000e-002) (59, 1.62226343154907230000e+000) (60, 4.11123722791671750000e-001) (61, 3.22584223747253420000e+000) (62, -4.56692790985107420000e+000) (63, 3.25446069240570070000e-001) (64, 7.92558908462524410000e-001) (65, -6.27330660820007320000e-001) (66, 4.51269209384918210000e-001) (67, -1.01866269111633300000e+000) (68, 6.61236643791198730000e-001) (69, 2.04223021864891050000e-001) (70, -1.86695384979248050000e+000) (71, 2.49730873107910160000e+000) (72, 1.84699133038520810000e-001) (73, 2.23159980773925780000e+000) (74, 1.84366261959075930000e+000) (75, 7.21230926513671880000e+001) (0, -4.99622114002704620000e-002) (1, 1.01338043808937070000e-001) (2, 1.18657752871513370000e-001) (3, -4.53123562037944790000e-002) (4, 2.14039772748947140000e-001) (5, -3.41365814208984380000e-001) (6, -1.48300439119338990000e-001) (7, -1.38893857598304750000e-001) (8, -7.50230252742767330000e-001) (9, -7.54338979721069340000e-001) (10, 1.42603486776351930000e-001) (11, 3.46042186021804810000e-001) (12, -1.25198930501937870000e-001) (13, 9.48815345764160160000e-002) (14, -4.68980550765991210000e-001) (15, 1.41951009631156920000e-001) (16, -6.17371350526809690000e-002) (17, -7.40430280566215520000e-002) (18, 2.13596656918525700000e-001) (19, -3.25610488653182980000e-002) (20, -6.49638622999191280000e-002) (21, 2.36586704850196840000e-001) (22, 1.05314195156097410000e+000) (23, 1.33495974540710450000e+000) (24, 1.26188206672668460000e+000) (25, -2.04833410680294040000e-002) (26, -1.83945512771606450000e+000) (27, 2.04448670148849490000e-001) (28, -3.13275396823883060000e-001) (29, 3.01162779331207280000e-001) (30, 7.78862237930297850000e-002) (31, 3.76540757715702060000e-002) (32, -1.57005831599235530000e-001) (33, 2.47076317667961120000e-001) (34, 2.62521862983703610000e-001) (35, 9.41323041915893550000e-001) (36, 3.33369612693786620000e-001) (37, 7.77045786380767820000e-001) (38, 9.71141576766967770000e-001) (39, -1.39004185795784000000e-001) (40, -1.20971620082855220000e+000) (41, -1.00400745868682860000e+000) (42, 3.35512578487396240000e-001) (43, 1.29318624734878540000e-001) (44, 1.12296640872955320000e+000) (45, 5.67034333944320680000e-002) (46, -2.19705820083618160000e-001) (47, 2.33574271202087400000e-001) (48, 1.32485151290893550000e-001) (49, -7.05569144338369370000e-003) (50, 1.74440115690231320000e-001) (51, -2.14035674929618840000e-001) (52, -5.93465305864810940000e-002) (53, -1.06670820713043210000e+000) (54, -2.29983597993850710000e-001) (55, 7.64774382114410400000e-001) (56, 4.38059270381927490000e-002) (57, -3.97027075290679930000e-001) (58, 2.72381246089935300000e-001) (59, 1.02795675396919250000e-001) (60, -2.27488949894905090000e-001) (61, 9.54969152808189390000e-002) (62, -3.61505836248397830000e-001) (63, 1.16744220256805420000e-001) (64, -1.57517075538635250000e-001) (65, 1.91794097423553470000e-001) (66, 1.09909184277057650000e-001) (67, 5.21728157997131350000e-001) (68, -2.16269120573997500000e-001) (69, -7.90353775024414060000e-001) (70, -1.05219766497612000000e-001) (71, -2.63224184513092040000e-001) (72, 3.82892400026321410000e-001) (73, -4.58272516727447510000e-001) (74, -1.67100757360458370000e-001) (75, -8.72619533538818360000e+000) (0, -3.85304279625415800000e-002) (1, -2.79647354036569600000e-002) (2, 8.40871781110763550000e-002) (3, 1.44996047019958500000e-001) (4, 1.04795331135392190000e-002) (5, 2.71289050579071040000e-001) (6, 5.22958114743232730000e-002) (7, 3.36183100938797000000e-001) (8, -3.26842963695526120000e-001) (9, -3.31517517566680910000e-001) (10, 1.18280723690986630000e-001) (11, -4.13949668407440190000e-001) (12, -9.46101322770118710000e-002) (13, 6.73777982592582700000e-003) (14, -1.15274541079998020000e-001) (15, 3.08821111917495730000e-001) (16, 4.64652962982654570000e-002) (17, -4.04525637626647950000e-001) (18, 2.27383244782686230000e-002) (19, -1.44267186522483830000e-001) (20, 2.37001508474349980000e-001) (21, 1.48739427328109740000e-001) (22, -2.31109768152236940000e-001) (23, 7.83415138721466060000e-002) (24, 5.04859805107116700000e-001) (25, 2.49232910573482510000e-002) (26, 5.97844779491424560000e-001) (27, 2.83216893672943120000e-001) (28, -2.91066002100706100000e-002) (29, -3.10011893510818480000e-001) (30, 2.38265171647071840000e-001) (31, 1.32684618234634400000e-001) (32, -6.66850984096527100000e-001) (33, 5.83672821521759030000e-001) (34, 7.39901721477508540000e-001) (35, 4.62075293064117430000e-001) (36, -1.24591577053070070000e+000) (37, -1.87516912817955020000e-001) (38, 5.87009668350219730000e-001) (39, 3.15795135498046870000e+000) (40, -1.08249044418334960000e+000) (41, 2.61612832546234130000e-001) (42, 2.27272003889083860000e-001) (43, -4.75519262254238130000e-002) (44, -2.67038717865943910000e-002) (45, 2.07744911313056950000e-001) (46, -6.96532726287841800000e-002) (47, -2.50539392232894900000e-001) (48, 2.24855504930019380000e-002) (49, -2.54275977611541750000e-001) (50, 1.21222645044326780000e-001) (51, 2.96961367130279540000e-001) (52, -8.72120708227157590000e-002) (53, -5.96956014633178710000e-001) (54, 9.84430685639381410000e-002) (55, -1.56741261482238770000e-001) (56, 6.29703938961029050000e-001) (57, -1.55637506395578380000e-002) (58, -8.44210460782051090000e-002) (59, -9.50707942247390750000e-002) (60, 5.54009974002838130000e-002) (61, 1.20178043842315670000e-001) (62, -1.06425359845161440000e-001) (63, 3.50181721150875090000e-002) (64, 2.50854730606079100000e-001) (65, 1.47091805934906010000e-001) (66, -4.46108072996139530000e-001) (67, -2.21801310777664180000e-001) (68, 8.63582313060760500000e-001) (69, 2.31437236070632930000e-002) (70, -1.36608302593231200000e-001) (71, -1.16265736520290370000e-001) (72, 1.33204087615013120000e-001) (73, 2.77274072170257570000e-001) (74, -9.94231700897216800000e-001) (75, -1.21059112548828130000e+001) (76, 4.43653613328933720000e-001) (77, 6.55528604984283450000e-001) (78, -1.21349060535430910000e+000) (79, 2.72613197565078740000e-001) (80, -2.33984515070915220000e-001) (81, 3.08209151029586790000e-001) (82, 1.39080852270126340000e-001) (83, -5.02805829048156740000e-001) (84, -1.61334481090307240000e-002) (85, 3.01481127738952640000e-001) (86, -3.51965993642807010000e-001) (87, 9.10131260752677920000e-002) (88, -2.22464397549629210000e-001) (89, -3.05020064115524290000e-001) (90, 8.25546920299530030000e-001) (91, 2.66726136207580570000e+000) (92, 7.56510376930236820000e-001) (93, 9.78792762756347660000e+000) (94, 3.44502747058868410000e-001) (95, 2.11776047945022580000e-002) (96, 3.78936529159545900000e-001) (97, 6.39974296092987060000e-001) (98, 7.54239022731781010000e-001) (99, 5.61245605349540710000e-002) (100, 8.94856154918670650000e-001) (101, 5.80954909324646000000e-001) (102, 2.97814399003982540000e-001) (103, 5.60108125209808350000e-001) (104, 5.37745535373687740000e-001) (105, 6.96941435337066650000e-001) (106, -1.62051752209663390000e-001) (107, 1.79597139358520510000e-001) (108, 1.47532954812049870000e-001) (109, 5.48139035701751710000e-001) (110, 4.82505470514297490000e-001) (111, 1.18157668039202690000e-002) (112, 1.65729987621307370000e+000) (113, 6.75362348556518550000e-001) (114, 2.40415811538696290000e-001) (115, -2.75135219097137450000e-001) (116, -3.80779094994068150000e-002) (117, -7.63296037912368770000e-002) (118, 4.44717466831207280000e-001) (119, -6.92945048213005070000e-002) (120, 8.05839598178863530000e-001) (121, 1.07314527034759520000e-001) (122, 6.09049975872039790000e-001) (123, 4.25252139568328860000e-001) (124, 2.58852601051330570000e-001) (125, 9.13233995437622070000e-001) (126, 1.87328711152076720000e-001) (76, 1.35208889842033390000e-001) (77, 7.44871124625205990000e-002) (78, 2.04149127006530760000e-001) (79, 1.72029808163642880000e-001) (80, 1.86153024435043330000e-001) (81, 1.04468867182731630000e-001) (82, 5.21515786647796630000e-001) (83, -1.93395748734474180000e-001) (84, 1.57212957739830020000e-001) (85, 3.48789960145950320000e-001) (86, 1.44895836710929870000e-001) (87, -3.60303968191146850000e-002) (88, -4.50287759304046630000e-001) (89, 1.59303080290555950000e-002) (90, 2.46974363923072810000e-001) (91, 3.91006559133529660000e-001) (92, 2.25351065397262570000e-001) (93, 2.59788751602172850000e-001) (94, 3.52865397930145260000e-001) (95, 5.05871891975402830000e-001) (96, 5.06864823400974270000e-002) (97, -3.81956435739994050000e-003) (98, -1.80748030543327330000e-001) (99, 5.01154884696006770000e-002) (100, 1.63810089230537410000e-001) (101, -9.95965823531150820000e-002) (102, 9.87028330564498900000e-002) (103, 1.53048709034919740000e-002) (104, -5.81014864146709440000e-002) (105, 1.76331520080566410000e-001) (106, 1.61402150988578800000e-001) (107, 4.51008230447769170000e-002) (108, 2.03442424535751340000e-001) (109, 2.86604583263397220000e-001) (110, 1.66160583496093750000e-001) (111, 2.20792964100837710000e-002) (112, -1.20595909655094150000e-001) (113, 6.56977951526641850000e-001) (114, 1.62218615412712100000e-001) (115, -1.43405184149742130000e-001) (116, -3.57321090996265410000e-002) (117, 8.11876505613327030000e-002) (118, -2.64448314905166630000e-001) (119, 7.98381790518760680000e-002) (120, 3.50271403789520260000e-001) (121, 2.43045389652252200000e-001) (122, 3.70819792151451110000e-002) (123, 9.09177586436271670000e-002) (124, -2.93895959854125980000e-001) (125, -4.00220155715942380000e-001) (126, 5.65492868423461910000e-001) (76, 2.43765130639076230000e-001) (77, 6.64471805095672610000e-001) (78, -7.71646797657012940000e-001) (79, 4.21156853437423710000e-001) (80, 2.62957990169525150000e-001) (81, -5.52948653697967530000e-001) (82, 5.84681391716003420000e-001) (83, 3.87475848197937010000e-001) (84, 2.44253545999526980000e-001) (85, 1.77072632312774660000e+000) (86, 2.78360277414321900000e-001) (87, 2.03963126987218860000e-002) (88, 5.62326252460479740000e-001) (89, 1.54919981956481930000e-001) (90, 5.19397556781768800000e-001) (91, -5.66101491451263430000e-001) (92, 1.84150487184524540000e-001) (93, -1.59298765659332280000e+000) (94, 3.34436726570129390000e+000) (95, -2.80328303575515750000e-001) (96, 3.53935599327087400000e-001) (97, 3.75325292348861690000e-001) (98, 3.15050631761550900000e-001) (99, 1.38503953814506530000e-001) (100, -5.55646538734436040000e-001) (101, 1.02860353887081150000e-001) (102, 6.01849615573883060000e-001) (103, 2.75461345911026000000e-001) (104, 4.34714615345001220000e-001) (105, 2.07059442996978760000e-001) (106, 2.42466047406196590000e-001) (107, 3.55093061923980710000e-001) (108, -8.16228985786437990000e-002) (109, -1.49295365810394290000e+000) (110, 5.78665018081665040000e-001) (111, 2.04148268699646000000e+000) (112, 5.52551364898681640000e+000) (113, 3.44251424074172970000e-001) (114, 4.45712596178054810000e-001) (115, 1.25056207180023190000e+000) (116, -1.13417141139507290000e-001) (117, 5.72880029678344730000e-001) (118, 6.89344346523284910000e-001) (119, 2.02234700322151180000e-001) (120, -2.08568406105041500000e+000) (121, 8.13406985253095630000e-003) (122, 6.14912033081054690000e-001) (123, 9.27200078964233400000e-001) (124, 3.96407812833786010000e-001) (125, 5.76074063777923580000e-001) (126, -3.59015986323356630000e-002) (76, -2.57432423532009120000e-002) (77, -1.71426534652709960000e-001) (78, 5.24670720100402830000e-001) (79, 1.06160134077072140000e-001) (80, 3.15697431564331050000e-001) (81, 1.65090739727020260000e-001) (82, -1.44223108887672420000e-001) (83, 3.89819107949733730000e-002) (84, 1.47399574518203740000e-001) (85, 1.06818938255310060000e+000) (86, 7.24527537822723390000e-002) (87, -3.69997099041938780000e-002) (88, 4.82933819293975830000e-001) (89, 1.47905036807060240000e-001) (90, 2.68552780151367190000e-001) (91, 5.20041608810424800000e+000) (92, -1.99564695358276370000e-001) (93, 3.57506871223449710000e+000) (94, 3.65837574005126950000e-001) (95, 1.74299135804176330000e-001) (96, -7.37439393997192380000e-002) (97, -1.41650475561618800000e-002) (98, -1.17660753428936000000e-001) (99, -6.96297287940979000000e-002) (100, 4.07827824354171750000e-001) (101, 7.27373063564300540000e-002) (102, -7.59310871362686160000e-002) (103, -4.16659861803054810000e-002) (104, -1.40121474862098690000e-001) (105, 1.63114905357360840000e-001) (106, 2.07642480731010440000e-001) (107, 1.13992209662683310000e-005) (108, 3.44579033553600310000e-002) (109, -4.10490572452545170000e-001) (110, -1.70595958828926090000e-001) (111, -5.39197087287902830000e-001) (112, 1.82488429546356200000e+000) (113, 9.35924112796783450000e-001) (114, -1.38732373714447020000e-001) (115, 4.02601242065429690000e-001) (116, -4.40289042890071870000e-002) (117, 5.75263286009430890000e-003) (118, -6.42751827836036680000e-002) (119, -2.51849330961704250000e-002) (120, -5.19036352634429930000e-001) (121, -4.38951551914215090000e-002) (122, -1.94892480969429020000e-001) (123, -2.38736346364021300000e-001) (124, 1.98393817991018300000e-002) (125, 2.87773132324218750000e-001) (126, 5.39791822433471680000e-001) (76, 7.15319514274597170000e-001) (77, 1.13379585742950440000e+000) (78, 1.95811176300048830000e+000) (79, -1.71060025691986080000e-001) (80, 1.77941024303436280000e-001) (81, 7.74847328662872310000e-001) (82, 5.91512024402618410000e-001) (83, 6.49780213832855220000e-001) (84, -1.53456464409828190000e-001) (85, 1.58529722690582280000e+000) (86, -1.52747780084609990000e-001) (87, -4.61750805377960210000e-001) (88, -1.20635461807250980000e+000) (89, 3.98024737834930420000e-001) (90, 1.68380796909332280000e+000) (91, 1.08973801136016850000e-001) (92, 2.15287709236145020000e+000) (93, 7.25608587265014650000e-001) (94, 1.25169724225997920000e-001) (95, 1.02222633361816410000e+000) (96, 1.34736210107803340000e-001) (97, -6.11693114042282100000e-002) (98, 6.21190726757049560000e-001) (99, -3.29114198684692380000e-002) (100, 2.24850371479988100000e-001) (101, 5.98318159580230710000e-001) (102, -2.08686545491218570000e-001) (103, 8.16302141174674030000e-004) (104, -2.98430591821670530000e-001) (105, 6.35903477668762210000e-001) (106, -2.40250244736671450000e-001) (107, -3.23214679956436160000e-001) (108, 4.95002388954162600000e-001) (109, 1.97134554386138920000e+000) (110, 4.97659802436828610000e-001) (111, -2.22786045074462890000e+000) (112, -1.16055810451507570000e+000) (113, -5.26022240519523620000e-002) (114, -2.47902587056159970000e-001) (115, -4.26180505752563480000e+000) (116, 5.22878840565681460000e-002) (117, -2.62759417295455930000e-001) (118, 9.80256438255310060000e-001) (119, 1.61200150614604350000e-004) (120, 1.65473771095275880000e+000) (121, 6.35637164115905760000e-001) (122, 1.40941035747528080000e+000) (123, 9.66959118843078610000e-001) (124, -1.60424470901489260000e-001) (125, -1.17223322391510010000e+000) (126, 3.27751964330673220000e-001) (76, -1.54438212513923650000e-001) (77, 9.48449373245239260000e-002) (78, -1.40651777386665340000e-001) (79, 6.60235062241554260000e-002) (80, 4.76260960102081300000e-001) (81, 2.50956654548645020000e-001) (82, -3.58851440250873570000e-002) (83, -5.33253788948059080000e-001) (84, 3.63806523382663730000e-002) (85, 2.68293333053588870000e+000) (86, -7.23766162991523740000e-002) (87, -1.25595793128013610000e-001) (88, 6.25000000000000000000e-001) (89, 4.97363626956939700000e-001) (90, 3.62255692481994630000e-001) (91, 1.73010063171386720000e+000) (92, 5.16612172126770020000e-001) (93, 6.47897005081176760000e+000) (94, -5.86694121360778810000e-001) (95, 5.85468351840972900000e-001) (96, -6.45968094468116760000e-002) (97, -2.21973150968551640000e-001) (98, -1.15111805498600010000e-001) (99, 5.04565656185150150000e-001) (100, 1.38080883026123050000e+000) (101, -3.47365476191043850000e-002) (102, -4.16924327611923220000e-001) (103, -4.68446791172027590000e-001) (104, -2.09532827138900760000e-001) (105, 1.31552982330322270000e+000) (106, 1.21126353740692140000e-001) (107, -2.45748549699783330000e-001) (108, -6.27191886305809020000e-002) (109, 1.46731519699096680000e+000) (110, -2.09712535142898560000e-001) (111, 5.71129731833934780000e-002) (112, 2.37850618362426760000e+000) (113, 1.01637399196624760000e+000) (114, 4.21349197626113890000e-001) (115, 1.92783534526824950000e+000) (116, -5.85509955883026120000e-001) (117, -3.91980081796646120000e-001) (118, -7.76561647653579710000e-002) (119, -2.11874052882194520000e-001) (120, 4.18428242206573490000e-001) (121, -2.45397806167602540000e-001) (122, 9.32934507727622990000e-002) (123, 5.17664216458797450000e-002) (124, -1.10248029232025150000e+000) (125, 1.13325095176696780000e+000) (126, 8.01222860813140870000e-001) (76, -1.07661329209804530000e-001) (77, -1.28339096903800960000e-001) (78, 3.94541412591934200000e-001) (79, 1.22965872287750240000e-001) (80, 1.18738017976284030000e-001) (81, 3.28549474477767940000e-001) (82, 5.42051136493682860000e-001) (83, -3.69144588708877560000e-001) (84, 1.57603293657302860000e-001) (85, 6.27432763576507570000e-001) (86, 1.79096125066280360000e-002) (87, 6.87736179679632190000e-003) (88, 3.19224819540977480000e-002) (89, 1.08992271125316620000e-001) (90, 3.12922954559326170000e-001) (91, 1.21804559230804440000e+000) (92, 2.55762845277786250000e-001) (93, 4.40160870552062990000e-001) (94, 7.08661913871765140000e-001) (95, 5.83412826061248780000e-001) (96, 1.35448291897773740000e-001) (97, 4.25043329596519470000e-002) (98, 1.13918576971627770000e-004) (99, 3.64743433892726900000e-002) (100, 3.50949168205261230000e-001) (101, -8.62134322524070740000e-002) (102, 1.21355406939983370000e-001) (103, -4.35534305870532990000e-002) (104, 2.20421165227890010000e-001) (105, 2.60741651058197020000e-001) (106, 2.16107830405235290000e-001) (107, 1.51222869753837590000e-001) (108, 1.45553246140480040000e-001) (109, 2.01165258884429930000e-001) (110, -2.42611095309257510000e-002) (111, 1.39443576335906980000e-001) (112, 7.58489429950714110000e-001) (113, 6.27413213253021240000e-001) (114, 2.52370268106460570000e-001) (115, 2.17897873371839520000e-002) (116, 2.03968752175569530000e-002) (117, 8.84995535016059880000e-002) (118, -8.56877714395523070000e-002) (119, 2.67073046416044240000e-002) (120, 2.87753671407699580000e-001) (121, -1.80499367415905000000e-002) (122, 1.24030567705631260000e-001) (123, 1.99922487139701840000e-001) (124, 1.31970390677452090000e-001) (125, 1.53562083840370180000e-001) (126, 7.91722059249877930000e-001) (76, 1.81487664580345150000e-001) (77, -1.39899313449859620000e+000) (78, 5.34967362880706790000e-001) (79, 1.09489746391773220000e-001) (80, 1.60588756203651430000e-001) (81, 3.52400392293930050000e-001) (82, 3.39096307754516600000e-001) (83, 5.69617152214050290000e-001) (84, 4.61069911718368530000e-001) (85, -2.12168598175048830000e+000) (86, -4.50282245874404910000e-002) (87, 3.67513559758663180000e-002) (88, -5.12598454952239990000e-001) (89, -5.84986396133899690000e-002) (90, 1.21901261806488040000e+000) (91, -1.35785233974456790000e+000) (92, -3.81411838531494140000e+000) (93, -4.09478282928466800000e+000) (94, 3.53406965732574460000e-001) (95, 1.82465210556983950000e-001) (96, 8.66446644067764280000e-002) (97, 2.01571345329284670000e-001) (98, 2.82128989696502690000e-001) (99, 7.58706182241439820000e-002) (100, -1.06505560874938960000e+000) (101, -3.27766910195350650000e-002) (102, -3.50489765405654910000e-002) (103, -9.85787902027368550000e-003) (104, -4.61749248206615450000e-002) (105, -1.14146351814270020000e+000) (106, 5.99629700183868410000e-001) (107, 2.99276430159807210000e-002) (108, 1.25320419669151310000e-001) (109, 1.89571216702461240000e-001) (110, 5.41719138622283940000e-001) (111, 3.71456980705261230000e-001) (112, -2.81415700912475590000e+000) (113, -2.88765400648117070000e-001) (114, 1.24981038272380830000e-001) (115, -1.50869548320770260000e-001) (116, -6.42167776823043820000e-002) (117, -7.87039250135421750000e-002) (118, -4.32284176349639890000e-001) (119, 8.08045491576194760000e-002) (120, 5.69929599761962890000e-001) (121, -1.64236966520547870000e-002) (122, 2.88211345672607420000e-001) (123, 4.02077436447143550000e-001) (124, 1.03351406753063200000e-001) (125, 1.13669499754905700000e-001) (126, 7.67622292041778560000e-001) (76, 3.68935346603393550000e-001) (77, 7.75384128093719480000e-001) (78, -2.13456768542528150000e-002) (79, -6.60701189190149310000e-003) (80, 2.00383048504590990000e-002) (81, 1.41729228198528290000e-003) (82, -5.19945621490478520000e-001) (83, -2.18683287501335140000e-001) (84, 1.48259680718183520000e-002) (85, -1.64557129144668580000e-001) (86, -1.45522877573966980000e-002) (87, 6.23966529965400700000e-002) (88, 1.08549463748931880000e+000) (89, -1.23393535614013670000e-002) (90, 3.74823153018951420000e-001) (91, -2.92656481266021730000e-001) (92, 8.54943335056304930000e-001) (93, 3.43205261230468750000e+000) (94, -4.18111324310302730000e-001) (95, -2.55998045206069950000e-001) (96, -7.45885297656059270000e-002) (97, 4.59296777844429020000e-002) (98, 4.03326034545898440000e-001) (99, 1.77129320800304410000e-002) (100, 5.94848617911338810000e-002) (101, 2.28229820728302000000e-001) (102, 8.83425697684288020000e-002) (103, 1.33800029754638670000e-001) (104, 2.46218994259834290000e-001) (105, 7.39766061305999760000e-001) (106, 1.43687516450881960000e-001) (107, 3.11888568103313450000e-002) (108, 6.78548496216535570000e-003) (109, 4.53711867332458500000e-001) (110, 1.35789498686790470000e-001) (111, -2.88016915321350100000e-001) (112, -1.18894863128662110000e+000) (113, 1.65891557931900020000e-001) (114, -5.89454658329486850000e-002) (115, 3.76232266426086430000e-001) (116, -4.31492142379283910000e-002) (117, 2.35451720654964450000e-002) (118, 4.64960336685180660000e-001) (119, 9.89094451069831850000e-002) (120, 3.19827556610107420000e-001) (121, -2.12979130446910860000e-002) (122, 3.18599194288253780000e-001) (123, 3.90856593847274780000e-001) (124, 1.12156443297863010000e-001) (125, 5.90473748743534090000e-002) (126, -3.87421935796737670000e-001) (76, 7.66780674457550050000e-001) (77, 1.66980302333831790000e+000) (78, 5.88618516921997070000e-001) (79, -2.10846602916717530000e-001) (80, 1.67010813951492310000e-001) (81, 7.04876899719238280000e-001) (82, -5.09645223617553710000e-001) (83, 5.19967913627624510000e-001) (84, -3.97203952074050900000e-001) (85, -6.84175074100494380000e-001) (86, 4.17525172233581540000e-002) (87, -1.41593098640441890000e-001) (88, 1.87961850315332410000e-002) (89, 5.11507764458656310000e-002) (90, 5.23170471191406250000e-001) (91, -1.06471705436706540000e+000) (92, 1.55176961421966550000e+000) (93, 3.50062751770019530000e+000) (94, -9.33662295341491700000e-001) (95, -1.24271422624588010000e-001) (96, 7.47914426028728490000e-003) (97, -1.91091075539588930000e-001) (98, 4.32929307222366330000e-001) (99, 1.87283664941787720000e-001) (100, 6.50095641613006590000e-001) (101, 5.56588351726531980000e-001) (102, 1.55654698610305790000e-001) (103, -9.48306731879711150000e-003) (104, 8.24208259582519530000e-002) (105, -4.87970821559429170000e-002) (106, 3.88879060745239260000e-001) (107, 4.65659141540527340000e-001) (108, -2.28538230061531070000e-001) (109, 1.59017622470855710000e+000) (110, 6.52876973152160640000e-001) (111, -3.49334120750427250000e-001) (112, -3.27231788635253910000e+000) (113, 6.40228569507598880000e-001) (114, -7.21011936664581300000e-001) (115, -1.92407786846160890000e+000) (116, 2.22544759511947630000e-001) (117, -2.50188052654266360000e-001) (118, 6.69485569000244140000e-001) (119, 1.98678791522979740000e-001) (120, 1.73825001716613770000e+000) (121, 3.16267132759094240000e-001) (122, 7.95332908630371090000e-001) (123, 1.04777193069458010000e+000) (124, 1.76650837063789370000e-001) (125, -3.61165261268615720000e+000) (126, -9.89648759365081790000e-001) (76, 1.13015711307525630000e-001) (77, 3.69251042604446410000e-001) (78, 1.85224304199218750000e+001) (79, 2.09968850016593930000e-001) (80, -4.98100757598876950000e-001) (81, 1.43034803867340090000e+000) (82, 7.48331546783447270000e-001) (83, -3.55145782232284550000e-001) (84, 4.76423650979995730000e-001) (85, 1.07391881942749020000e+000) (86, 3.42852264642715450000e-001) (87, 4.67605143785476680000e-001) (88, 1.13462269306182860000e+000) (89, 1.07852673530578610000e+000) (90, 3.53715300559997560000e-001) (91, 7.43391275405883790000e+000) (92, 4.52281236648559570000e-001) (93, 2.53433563232421870000e+002) (94, 9.80858266353607180000e-001) (95, 1.03582084178924560000e+000) (96, 4.98837888240814210000e-001) (97, 4.65591341257095340000e-001) (98, -2.77402043342590330000e-001) (99, 4.87827926874160770000e-001) (100, 1.56287446618080140000e-001) (101, 2.85281211137771610000e-001) (102, 1.51461660861968990000e-001) (103, 3.57137054204940800000e-001) (104, -4.62908260524272920000e-002) (105, 5.33659934997558590000e-001) (106, 4.34897869825363160000e-001) (107, 4.00348633527755740000e-001) (108, 2.82806634902954100000e-001) (109, 1.38842999935150150000e-001) (110, -2.13099405169487000000e-001) (111, -1.74442687988281250000e+002) (112, -7.88337409496307370000e-001) (113, 6.93291485309600830000e-001) (114, 2.13593795895576480000e-001) (115, 3.80624383687973020000e-002) (116, 3.28824400901794430000e-001) (117, -2.18686084747314450000e+001) (118, -2.33610302209854130000e-001) (119, -3.01568317413330080000e+000) (120, 3.95761251449584960000e-001) (121, -1.27193301916122440000e-001) (122, -1.43508046865463260000e-001) (123, 2.87076413631439210000e-001) (124, -2.20821247100830080000e+001) (125, 1.05324673652648930000e+000) (126, 5.78253686428070070000e-001) (76, 7.90387451648712160000e-001) (77, 1.25193345546722410000e+000) (78, 3.25418591499328610000e-001) (79, -1.41960367560386660000e-001) (80, 6.54606521129608150000e-001) (81, -6.96556150913238530000e-001) (82, -1.50530606508255000000e-001) (83, 2.66188478469848630000e+000) (84, -3.92665296792984010000e-001) (85, -2.87816643714904790000e-001) (86, 1.64802670478820800000e-001) (87, 4.71596837043762210000e-001) (88, -4.78610008955001830000e-001) (89, -2.85210222005844120000e-001) (90, 1.60189044475555420000e+000) (91, -3.82062530517578120000e+000) (92, 8.37702929973602290000e-001) (93, 3.25471520423889160000e+000) (94, -1.06014740467071530000e+000) (95, -3.95946055650711060000e-002) (96, -2.98518347740173340000e+000) (97, 4.10983085632324220000e-001) (98, 1.20709490776062010000e+000) (99, 3.22207629680633540000e-001) (100, 6.55450165271759030000e-001) (101, 8.20168375968933110000e-001) (102, 2.50076770782470700000e-001) (103, 5.64815938472747800000e-001) (104, 7.35356390476226810000e-001) (105, 7.58452177047729490000e-001) (106, 1.21196053922176360000e-001) (107, -2.42395386099815370000e-001) (108, 4.31106925010681150000e-001) (109, 1.79078209400177000000e+000) (110, 3.44817012548446660000e-001) (111, -5.31110167503356930000e-001) (112, -2.64428997039794920000e+000) (113, -1.08745634555816650000e+000) (114, -2.60669887065887450000e-002) (115, -3.81369382143020630000e-001) (116, 1.10597896575927730000e+000) (117, 3.66721868515014650000e-001) (118, 8.01314175128936770000e-001) (119, 1.12741577625274660000e+000) (120, 9.71435546875000000000e-001) (121, 6.88174664974212650000e-001) (122, 2.21409320831298830000e+000) (123, 1.07014310359954830000e+000) (124, -4.73589509725570680000e-001) (125, -2.86926865577697750000e-001) (126, 5.20952939987182620000e-001) (76, 4.25624459981918330000e-001) (77, -1.88771039247512820000e-001) (78, 4.16115880012512210000e-001) (79, 1.56825631856918330000e-001) (80, 3.44176054000854490000e-001) (81, 2.29930028319358830000e-001) (82, 5.33627904951572420000e-002) (83, 2.50680804252624510000e-001) (84, 2.88285195827484130000e-001) (85, 4.36892062425613400000e-001) (86, 8.74910950660705570000e-002) (87, 1.51652038097381590000e-001) (88, 7.96735346317291260000e-001) (89, 8.35179761052131650000e-002) (90, 8.98773670196533200000e-002) (91, 1.77641761302948000000e+000) (92, -3.94924211502075200000e+000) (93, -8.06444287300109860000e-001) (94, 3.31686377525329590000e-001) (95, 6.18895351886749270000e-001) (96, 7.25458860397338870000e-002) (97, 6.99910521507263180000e-002) (98, 1.51877135038375850000e-001) (99, -6.73067644238471980000e-002) (100, -2.19695717096328740000e-001) (101, 2.28717193007469180000e-001) (102, 2.23163947463035580000e-001) (103, 8.10064598917961120000e-002) (104, 1.79276302456855770000e-001) (105, 4.04997259378433230000e-001) (106, 2.68834084272384640000e-001) (107, 9.96172130107879640000e-002) (108, 2.14219450950622560000e-001) (109, 6.60533249378204350000e-001) (110, 3.01350057125091550000e-002) (111, 5.17159223556518550000e-001) (112, -1.70402860641479490000e+000) (113, -2.38528940826654430000e-002) (114, 2.23300024867057800000e-001) (115, 6.39610409736633300000e-001) (116, 6.19977936148643490000e-002) (117, 1.54301002621650700000e-001) (118, 1.27114340662956240000e-001) (119, 1.64775773882865910000e-001) (120, 1.31904587149620060000e-001) (121, 3.83285619318485260000e-002) (122, -2.13920190930366520000e-001) (123, 5.23631691932678220000e-001) (124, 2.83876389265060420000e-001) (125, 1.41005635261535640000e-001) (126, 2.04314112663269040000e+000) (76, -1.00235074758529660000e-001) (77, 5.21220028400421140000e-001) (78, 5.24559140205383300000e-001) (79, 2.53609299659729000000e-001) (80, 1.37133508920669560000e-001) (81, 2.18622997403144840000e-001) (82, 1.11739784479141240000e-001) (83, -7.15872645378112790000e-001) (84, 3.37054133415222170000e-001) (85, 1.29670989513397220000e+000) (86, 3.16919952630996700000e-001) (87, 3.25530171394348140000e-002) (88, 1.58420234918594360000e-001) (89, -3.62829156219959260000e-002) (90, 2.63450980186462400000e-001) (91, 6.31545960903167720000e-001) (92, 2.02620416879653930000e-001) (93, -1.45293998718261720000e+000) (94, -9.64747816324234010000e-002) (95, 3.14340978860855100000e-001) (96, 6.94257542490959170000e-002) (97, 6.67165312916040420000e-003) (98, 8.69647681713104250000e-001) (99, 7.46380239725112920000e-002) (100, 5.80584168434143070000e-001) (101, -7.72418603301048280000e-002) (102, 1.50082677602767940000e-001) (103, 4.18785437941551210000e-002) (104, 2.03918114304542540000e-001) (105, 6.46742463111877440000e-001) (106, 3.04881453514099120000e-001) (107, 2.21947759389877320000e-001) (108, -1.34311160072684290000e-002) (109, -1.25751197338104250000e-001) (110, 4.70662355422973630000e-001) (111, 1.07054948806762700000e+000) (112, 3.48127341270446780000e+000) (113, 1.50166690349578860000e-001) (114, 1.52106568217277530000e-001) (115, 3.16621005535125730000e-001) (116, 1.23205948621034620000e-002) (117, 9.80718508362770080000e-002) (118, 1.49763703346252440000e-001) (119, 1.05376951396465300000e-001) (120, 4.46097105741500850000e-001) (121, 2.64509022235870360000e-001) (122, 1.32163476943969730000e+000) (123, 9.71123099327087400000e-001) (124, -4.38444972038269040000e-001) (125, 1.19917213916778560000e+000) (126, 1.18473136425018310000e+000) (76, 6.12375557422637940000e-001) (77, 1.99974939227104190000e-001) (78, 3.71147960424423220000e-001) (79, -1.56829375773668290000e-002) (80, -3.32452028989791870000e-001) (81, -4.11429077386856080000e-001) (82, -9.46125566959381100000e-001) (83, 5.42038261890411380000e-001) (84, 1.23797558248043060000e-001) (85, 2.62368798255920410000e+000) (86, 4.75753873586654660000e-001) (87, 4.78199094533920290000e-001) (88, 8.15046250820159910000e-001) (89, -4.22494322061538700000e-001) (90, 1.61726877093315120000e-001) (91, 3.48721295595169070000e-001) (92, 4.38502341508865360000e-001) (93, -1.00423419475555420000e+000) (94, -7.57129192352294920000e-002) (95, 1.06036484241485600000e+000) (96, -1.82921215891838070000e-001) (97, 9.67788919806480410000e-002) (98, 1.47227182984352110000e-001) (99, -2.20697045326232910000e-001) (100, -2.04421415925025940000e-001) (101, 2.96594142913818360000e-001) (102, 4.22775447368621830000e-001) (103, -9.45547372102737430000e-002) (104, 4.72219139337539670000e-001) (105, 1.26237142086029050000e+000) (106, 2.88182497024536130000e-001) (107, 1.97939977049827580000e-001) (108, 9.44967746734619140000e-001) (109, -1.34004637598991390000e-001) (110, 6.50406301021575930000e-001) (111, 3.64862179756164550000e+000) (112, 1.56463050842285160000e+000) (113, 6.13730788230896000000e-001) (114, -9.97548401355743410000e-002) (115, 7.55989551544189450000e-001) (116, 9.93110910058021550000e-002) (117, 3.06147728115320210000e-002) (118, 9.40951168537139890000e-001) (119, 3.61529499292373660000e-001) (120, 9.96404886245727540000e-002) (121, 8.56161952018737790000e-001) (122, -1.97079163044691090000e-002) (123, 5.28576076030731200000e-001) (124, 3.38867157697677610000e-001) (125, 3.65043139457702640000e+000) (126, 1.03347754478454590000e+000) (76, 9.66033399105072020000e-001) (77, 2.45865249633789060000e+000) (78, 1.93845880031585690000e+000) (79, 4.40684556961059570000e-001) (80, 2.35778186470270160000e-002) (81, 5.98553121089935300000e-001) (82, 9.00350928306579590000e-001) (83, 5.40400564670562740000e-001) (84, -3.01641464233398440000e-001) (85, 4.28849363327026370000e+000) (86, -9.97057631611824040000e-002) (87, 6.41110599040985110000e-001) (88, -7.48475939035415650000e-002) (89, -1.35660040378570560000e+000) (90, 1.04428052902221680000e+000) (91, 3.45191866159439090000e-001) (92, 2.94979457855224610000e+001) (93, 1.27556905746459960000e+001) (94, -1.43721356987953190000e-001) (95, 1.91475975513458250000e+000) (96, 8.30696940422058110000e-001) (97, 5.29259324073791500000e-001) (98, 9.31262433528900150000e-001) (99, 2.58008450269699100000e-001) (100, 1.21898186206817630000e+000) (101, 5.88183581829071040000e-001) (102, -5.45295104384422300000e-002) (103, 1.06580722332000730000e+000) (104, 3.19508582353591920000e-001) (105, 8.26154172420501710000e-001) (106, 2.27154828608036040000e-002) (107, -1.66549414396286010000e-001) (108, 3.34336012601852420000e-001) (109, 3.75000858306884770000e+000) (110, 1.64766639471054080000e-001) (111, -2.76712055206298830000e+001) (112, -5.81235218048095700000e+000) (113, 2.58702546358108520000e-001) (114, 3.93413096666336060000e-001) (115, -5.70964479446411130000e+000) (116, -5.96112489700317380000e-001) (117, -1.78992718458175660000e-001) (118, 7.59165346622467040000e-001) (119, -2.33884692192077640000e+000) (120, 5.94207763671875000000e+000) (121, 3.45695137977600100000e-001) (122, 2.10472345352172850000e+000) (123, 4.70492631196975710000e-001) (124, -5.59807598590850830000e-001) (125, -9.28983986377716060000e-001) (126, 1.04081010818481450000e+000) (76, -3.14456343650817870000e-001) (77, -1.30377411842346190000e-001) (78, -1.80247402191162110000e+000) (79, 2.65571475028991700000e-001) (80, 5.27508676052093510000e-001) (81, 3.20024460554122920000e-001) (82, 3.82249355316162110000e-001) (83, 3.78230005502700810000e-001) (84, 5.47149777412414550000e-001) (85, -1.49814677238464360000e+000) (86, 2.33496814966201780000e-001) (87, 3.61232399940490720000e-001) (88, 2.53208065032958980000e+000) (89, -2.88245844841003420000e+000) (90, -7.77018368244171140000e-001) (91, -1.93175077438354490000e-001) (92, -5.00517845153808590000e+000) (93, 5.37086963653564450000e-001) (94, -5.40987849235534670000e-001) (95, -1.57918763160705570000e+000) (96, -5.70278048515319820000e-001) (97, -5.07465958595275880000e-001) (98, 3.08373242616653440000e-001) (99, 1.73802566528320310000e+000) (100, -3.95870596170425420000e-001) (101, -3.69973108172416690000e-002) (102, -4.04978310689330100000e-003) (103, -9.36205267906188960000e-001) (104, 1.30463600158691410000e+000) (105, 4.39540445804595950000e-001) (106, 1.32610547542572020000e+000) (107, -6.97938382625579830000e-001) (108, 1.08943795785307880000e-002) (109, -1.56746709346771240000e+000) (110, 1.49300411343574520000e-001) (111, 2.36604905128479000000e+000) (112, 9.21242523193359380000e+000) (113, 1.78206428885459900000e-001) (114, 3.64136815071105960000e-001) (115, 8.74902629852294920000e+000) (116, 6.06763005256652830000e-001) (117, -8.82109045982360840000e-001) (118, -7.99001991748809810000e-001) (119, 8.54710459709167480000e-001) (120, -1.04479503631591800000e+000) (121, 2.96036839485168460000e-001) (122, -3.24334919452667240000e-001) (123, 5.42911961674690250000e-002) (124, 7.23314642906188960000e-001) (125, -3.03555202484130860000e+000) (126, 1.21310615539550780000e+000) (76, 1.41290676593780520000e+000) (77, 1.40447509288787840000e+000) (78, 1.50000000000000000000e+003) (79, 8.90878081321716310000e-001) (80, -2.04677867889404300000e+000) (81, 1.50000000000000000000e+003) (82, -1.25199928879737850000e-001) (83, 3.18882554769515990000e-001) (84, 4.60668236017227170000e-001) (85, 1.50000000000000000000e+003) (86, 3.03490459918975830000e-003) (87, 1.50000000000000000000e+003) (88, -7.40646362304687500000e+002) (89, 1.50000000000000000000e+003) (90, 8.95696938037872310000e-001) (91, 7.85830259323120120000e-001) (92, 1.50000000000000000000e+003) (93, 1.17068231105804440000e+000) (94, 4.50091838836669920000e+000) (95, 6.31424760818481450000e+000) (96, 1.50000000000000000000e+003) (97, 1.50000000000000000000e+003) (98, 1.28167963027954100000e+000) (99, 1.50000000000000000000e+003) (100, -3.40403378009796140000e-001) (101, 8.36209237575531010000e-001) (102, 9.61496949195861820000e-001) (103, 1.50000000000000000000e+003) (104, 1.01855158805847170000e+000) (105, 7.83742189407348630000e-001) (106, -2.37590238451957700000e-001) (107, 5.49514889717102050000e-001) (108, 5.92948436737060550000e-001) (109, 4.69826889038085940000e+001) (110, 1.08044672012329100000e+000) (111, -1.50000000000000000000e+003) (112, -1.46303021907806400000e+000) (113, 3.90505224466323850000e-001) (114, -1.50000000000000000000e+003) (115, -8.31885516643524170000e-001) (116, 1.50000000000000000000e+003) (117, -1.50000000000000000000e+003) (118, 9.44883167743682860000e-001) (119, -1.50000000000000000000e+003) (120, 1.09603930664062500000e+003) (121, 2.14104503393173220000e-001) (122, 1.09892976284027100000e+000) (123, 1.65437850952148440000e+001) (124, -1.50000000000000000000e+003) (125, -4.78091776371002200000e-001) (126, 6.47695958614349370000e-001) (76, 7.20905005931854250000e-001) (77, 6.06517136096954350000e-001) (78, 1.32668709754943850000e+000) (79, 2.88294255733489990000e-001) (80, 6.91679298877716060000e-001) (81, 4.61317956447601320000e-001) (82, 1.71892851591110230000e-001) (83, 9.93407905101776120000e-001) (84, 4.00646775960922240000e-001) (85, 1.83696711063385010000e+000) (86, 4.46670591831207280000e-001) (87, -2.37914975732564930000e-002) (88, -5.06101250648498540000e-001) (89, 4.29004915058612820000e-002) (90, 6.39197289943695070000e-001) (91, -2.29514673352241520000e-001) (92, 4.06763404607772830000e-001) (93, -1.02247822284698490000e+000) (94, -4.80359718203544620000e-002) (95, 2.82649815082550050000e-001) (96, -2.89513054303824900000e-003) (97, 1.42902880907058720000e-001) (98, 1.96236938238143920000e-001) (99, 1.72897234559059140000e-001) (100, 1.23561859130859370000e+000) (101, -1.38099744915962220000e-001) (102, 5.68110495805740360000e-002) (103, 1.44087865948677060000e-001) (104, 8.54215249419212340000e-002) (105, 3.65215957164764400000e-001) (106, -1.24674685299396510000e-001) (107, 4.30880069732666020000e-001) (108, 2.45180234313011170000e-001) (109, 2.31936261057853700000e-001) (110, 1.18733012676239010000e+000) (111, -3.94303381443023680000e-001) (112, 4.10422706604003910000e+000) (113, 8.31772834062576290000e-002) (114, 2.35664546489715580000e-001) (115, 7.54149019718170170000e-001) (116, -4.77190241217613220000e-002) (117, 8.54300558567047120000e-002) (118, 2.85228401422500610000e-001) (119, 2.51884162425994870000e-001) (120, 9.06060576438903810000e-001) (121, 7.31094479560852050000e-001) (122, 5.62950253486633300000e-001) (123, 8.81096303462982180000e-001) (124, -2.63655304908752440000e-001) (125, 3.56429457664489750000e-001) (126, 7.71155357360839840000e-002) (76, 4.82910931110382080000e-001) (77, 1.17930185794830320000e+000) (78, -2.98352867364883420000e-001) (79, 1.95922888815402980000e-002) (80, 3.62090021371841430000e-002) (81, -1.68643802404403690000e-001) (82, -1.09110748767852780000e+000) (83, 1.06386077404022220000e+000) (84, -8.41668471693992610000e-002) (85, -6.18857622146606450000e-001) (86, 2.39777818322181700000e-001) (87, 1.07280224561691280000e-001) (88, 9.65371504426002500000e-002) (89, -1.13125167787075040000e-001) (90, 8.72883081436157230000e-001) (91, -1.68257772922515870000e+000) (92, 5.61557114124298100000e-001) (93, 4.74887609481811520000e+000) (94, -1.08247625827789310000e+000) (95, -6.11995041370391850000e-001) (96, -1.89645335078239440000e-001) (97, -1.39068514108657840000e-001) (98, 1.04090499877929690000e+000) (99, -7.66993267461657520000e-003) (100, 2.08188742399215700000e-001) (101, 3.57414186000823970000e-001) (102, 8.19118469953536990000e-002) (103, 4.41378444433212280000e-001) (104, 1.77076101303100590000e-001) (105, 1.10355913639068600000e+000) (106, 1.79295375943183900000e-001) (107, -1.13294079899787900000e-001) (108, 1.25954508781433110000e-001) (109, 6.60441040992736820000e-001) (110, 2.55659580230712890000e-001) (111, -6.02899193763732910000e-001) (112, -1.68268048763275150000e+000) (113, -2.03770041465759280000e-001) (114, -2.05802336335182190000e-001) (115, -2.65877902507781980000e-001) (116, -1.31319075822830200000e-001) (117, 7.16009214520454410000e-002) (118, 6.33012175559997560000e-001) (119, 2.70755231380462650000e-001) (120, -5.83120668306946750000e-003) (121, 1.15353666245937350000e-001) (122, 1.14432513713836670000e+000) (123, 7.73886799812316890000e-001) (124, 3.28165054321289060000e-001) (125, 1.86967778205871580000e+000) (126, 5.16521155834198000000e-001) (76, 7.69390404224395750000e-001) (77, 1.42208027839660640000e+000) (78, 5.23705422878265380000e-001) (79, 4.29867625236511230000e-001) (80, 4.33836698532104490000e-001) (81, 1.78175970911979680000e-001) (82, -1.46695464849472050000e-001) (83, 1.84972321987152100000e+000) (84, 7.38803386688232420000e-001) (85, 5.39856076240539550000e-001) (86, 5.75361996889114380000e-002) (87, -1.50465562939643860000e-001) (88, 7.64905095100402830000e-001) (89, -1.67666152119636540000e-002) (90, 6.80602252483367920000e-001) (91, 1.90900599956512450000e+000) (92, 4.85446274280548100000e-001) (93, -9.88997995853424070000e-001) (94, 6.17049098014831540000e-001) (95, 8.19889962673187260000e-001) (96, 7.05125108361244200000e-002) (97, 1.97657495737075810000e-001) (98, 1.49895370006561280000e-001) (99, -4.90287877619266510000e-002) (100, 8.61592650413513180000e-001) (101, -9.44979935884475710000e-002) (102, 2.34979786910116670000e-003) (103, 6.66359961032867430000e-002) (104, 1.75878599286079410000e-001) (105, 1.59676635265350340000e+000) (106, 5.95120489597320560000e-002) (107, 1.34471338242292400000e-002) (108, 2.15935930609703060000e-002) (109, 2.39452815055847170000e+000) (110, 6.00899517536163330000e-001) (111, 1.63150966167449950000e+000) (112, 3.74676942825317380000e+000) (113, 3.48419874906539920000e-001) (114, 8.67419168353080750000e-002) (115, -2.07169130444526670000e-002) (116, -1.03295810520648960000e-001) (117, -7.15702399611473080000e-002) (118, 4.24856871366500850000e-001) (119, 4.42376099526882170000e-002) (120, 2.65251922607421870000e+000) (121, 4.17210459709167480000e-001) (122, 1.00298590958118440000e-001) (123, 1.84809982776641850000e+000) (124, -9.55780744552612300000e-001) (125, 1.72372922301292420000e-001) (126, 2.90064722299575810000e-001) (76, 9.68645513057708740000e-002) (77, 3.77165436744689940000e-001) (78, 1.48616760969161990000e-001) (79, 2.63166457414627080000e-001) (80, 1.57242670655250550000e-001) (81, -1.08790054917335510000e-001) (82, 3.50672751665115360000e-001) (83, -2.07341939210891720000e-001) (84, 3.08731794357299800000e-001) (85, 5.81533491611480710000e-001) (86, -6.60299509763717650000e-002) (87, 1.21796345338225360000e-002) (88, -6.80839344859123230000e-002) (89, -2.06412717700004580000e-001) (90, 3.91995310783386230000e-001) (91, 1.37526249885559080000e+000) (92, 2.19707891345024110000e-001) (93, 4.21701192855834960000e+000) (94, 3.89646589756011960000e-001) (95, 3.10646146535873410000e-001) (96, 6.28671795129776000000e-002) (97, 2.70380284637212750000e-002) (98, 3.00407186150550840000e-002) (99, -7.52172842621803280000e-002) (100, 7.41444051265716550000e-001) (101, -4.56262156367301940000e-002) (102, -4.60213888436555860000e-003) (103, -7.83505216240882870000e-002) (104, -1.91768720746040340000e-001) (105, 9.02217924594879150000e-001) (106, 4.81650605797767640000e-002) (107, 5.57752102613449100000e-002) (108, 1.04144886136054990000e-002) (109, 3.56907635927200320000e-001) (110, -1.17610372602939610000e-001) (111, 2.23822519183158870000e-001) (112, -5.58298647403717040000e-001) (113, 1.20552325248718260000e+000) (114, 2.29309707880020140000e-001) (115, 4.37384635210037230000e-001) (116, 1.08393795788288120000e-001) (117, 3.72805483639240260000e-002) (118, -1.37410223484039310000e-001) (119, 9.09468382596969600000e-002) (120, 2.07982853055000310000e-001) (121, 3.98733794689178470000e-001) (122, 2.14968949556350710000e-001) (123, 2.73001104593276980000e-001) (124, -4.22103196382522580000e-001) (125, 9.20818507671356200000e-001) (126, 7.01443612575531010000e-001) (76, 1.42576515674591060000e-001) (77, 4.92097949609160420000e-003) (78, 6.78409561514854430000e-002) (79, 2.20161378383636470000e-001) (80, 1.79055988788604740000e-001) (81, 1.10630236566066740000e-001) (82, 6.49615585803985600000e-001) (83, 2.26262867450714110000e-001) (84, 1.07439734041690830000e-001) (85, 2.72844195365905760000e-001) (86, 1.90676659345626830000e-001) (87, -1.90506633371114730000e-002) (88, 7.93849945068359380000e-001) (89, 2.94679757207632060000e-002) (90, 1.67502626776695250000e-001) (91, -1.09046272933483120000e-001) (92, -4.78741377592086790000e-001) (93, -8.49240243434906010000e-001) (94, 3.51446688175201420000e-001) (95, 5.31508028507232670000e-001) (96, 3.42452265322208400000e-002) (97, -2.96967756003141400000e-002) (98, -1.33221179246902470000e-001) (99, 9.96552035212516780000e-002) (100, -2.22974289208650590000e-002) (101, -3.46833281219005580000e-002) (102, 1.35067358613014220000e-001) (103, 7.91033580899238590000e-002) (104, 1.89961697906255720000e-002) (105, 1.41837641596794130000e-001) (106, 3.82756352424621580000e-001) (107, 3.26100513339042660000e-002) (108, 3.18086475133895870000e-001) (109, -7.58241266012191770000e-002) (110, 7.40906596183776860000e-002) (111, 2.98231691122055050000e-001) (112, -1.15494392812252040000e-001) (113, -2.65505909919738770000e-003) (114, 2.16129630804061890000e-001) (115, 3.48057597875595090000e-001) (116, -7.36450180411338810000e-002) (117, 1.50398358702659610000e-001) (118, -3.34395796060562130000e-001) (119, 1.40761956572532650000e-001) (120, -7.90755450725555420000e-002) (121, 2.71495044231414790000e-001) (122, 1.77334815263748170000e-001) (123, 1.41196459531784060000e-001) (124, 1.96125954389572140000e-001) (125, -6.54171109199523930000e-002) (126, 1.58127856254577640000e+000) (76, 5.51773965358734130000e-001) (77, 1.55203297734260560000e-001) (78, 1.69391691684722900000e+000) (79, -7.19714462757110600000e-002) (80, -3.33644077181816100000e-002) (81, 5.60430884361267090000e-001) (82, -6.65913760662078860000e-001) (83, 7.46328830718994140000e-001) (84, 5.10840892791748050000e-001) (85, 1.28615808486938480000e+000) (86, 6.94390296936035160000e-001) (87, -3.34991961717605590000e-001) (88, 2.37394690513610840000e+000) (89, -2.32884939759969710000e-002) (90, 5.07684111595153810000e-001) (91, 2.44439184665679930000e-001) (92, 2.66082435846328740000e-001) (93, -1.75813838839530940000e-001) (94, 8.81565570831298830000e-001) (95, -8.85788723826408390000e-002) (96, 1.84028267860412600000e-001) (97, 5.17474859952926640000e-002) (98, 7.50195622444152830000e-001) (99, -2.14273527264595030000e-001) (100, 2.94340401887893680000e-001) (101, -2.18809038400650020000e-001) (102, -1.40643656253814700000e-001) (103, 3.37064713239669800000e-001) (104, -7.57600441575050350000e-002) (105, -2.10582748055458070000e-001) (106, 1.70774072408676150000e-001) (107, 4.68251585960388180000e-001) (108, 2.61939942836761470000e-001) (109, 5.15482664108276370000e-001) (110, 7.38092422485351560000e-001) (111, 1.31338298320770260000e+000) (112, -1.30069220066070560000e+000) (113, 6.19436562061309810000e-001) (114, 1.63729786872863770000e-001) (115, 1.19335258007049560000e+000) (116, 2.08828508853912350000e-001) (117, -2.84274995326995850000e-001) (118, 7.21236526966094970000e-001) (119, -6.28529936075210570000e-002) (120, 8.48268508911132810000e-001) (121, 3.14556181430816650000e-001) (122, 6.85254812240600590000e-001) (123, 5.08603453636169430000e-001) (124, 5.70392072200775150000e-001) (125, 1.29942023754119870000e+000) (126, -1.57032072544097900000e-001) (76, 8.07525217533111570000e-001) (77, 1.05215370655059810000e+000) (78, -2.95003741979599000000e-001) (79, 8.13661292195320130000e-002) (80, 2.03533153980970380000e-002) (81, -2.01323464512825010000e-001) (82, 2.18896314501762390000e-001) (83, 4.88648223876953130000e+000) (84, -3.05996388196945190000e-002) (85, -1.64098417758941650000e+000) (86, 1.06200739741325380000e-001) (87, 3.77427190542221070000e-001) (88, -4.86826270818710330000e-001) (89, -4.32572215795516970000e-001) (90, 1.19881570339202880000e+000) (91, -2.12003970146179200000e+000) (92, 1.17278659343719480000e+000) (93, 4.91332769393920900000e+000) (94, -1.01144254207611080000e+000) (95, -5.32767295837402340000e-001) (96, -2.50544309616088870000e-001) (97, -1.97571963071823120000e-001) (98, 1.14197182655334470000e+000) (99, 1.09290741384029390000e-001) (100, 1.31093537807464600000e+000) (101, -5.93408346176147460000e-002) (102, -1.42319797305390240000e-004) (103, 8.39935719966888430000e-001) (104, 3.31139147281646730000e-001) (105, 5.25638535618782040000e-002) (106, 2.43664413690567020000e-001) (107, -1.56861424446105960000e-001) (108, 5.60731701552867890000e-002) (109, 1.24135172367095950000e+000) (110, 2.69326865673065190000e-001) (111, -6.95068180561065670000e-001) (112, 2.15631079673767090000e+000) (113, -8.95945131778717040000e-001) (114, -4.43570613861083980000e-001) (115, -4.51959699392318730000e-001) (116, -2.14416816830635070000e-001) (117, -2.30168640613555910000e-001) (118, 6.81956112384796140000e-001) (119, 6.30057752132415770000e-001) (120, 1.05825126171112060000e+000) (121, -1.60996571183204650000e-001) (122, 1.56095027923583980000e+000) (123, 9.66311812400817870000e-001) (124, 2.06473425030708310000e-001) (125, -2.44615075644105670000e-004) (126, 3.09291124343872070000e-001) (127, 1.31223356723785400000e+000) (128, 2.97528100013732910000e+000) (129, -2.01721459627151490000e-001) (130, 1.03371512889862060000e+000) (131, 6.70259571075439450000e+000) (132, 1.08988702297210690000e+000) (133, 1.44219064712524410000e+000) (134, -7.81048774719238280000e-001) (135, 1.07065534591674800000e+000) (136, 9.36051428318023680000e-001) (137, 2.36943984031677250000e+000) (138, 5.64031541347503660000e-001) (139, -6.44524216651916500000e-001) (140, -2.99974203109741210000e-001) (141, -6.98720887303352360000e-002) (142, 1.17557775974273680000e+000) (143, -1.02684998512268070000e+000) (144, 1.35470498353242870000e-002) (145, -2.59096413850784300000e-001) (146, 5.58980703353881840000e-001) (147, -2.42377772927284240000e-001) (148, 5.00752162933349610000e+000) (149, -1.74037277698516850000e+000) (150, -1.21844269335269930000e-001) (151, 5.57980298995971680000e-001) (152, 5.20545542240142820000e-001) 
